{
  "version": "1.0",
  "truncation": {
    "direction": "Right",
    "max_length": 512,
    "strategy": "LongestFirst",
    "stride": 0
  },
  "padding": {
    "strategy": "BatchLongest",
    "direction": "Right",
    "pad_to_multiple_of": null,
    "pad_id": 0,
    "pad_type_id": 0,
    "pad_token": "[PAD]"
  },
  "added_tokens": [
    {
      "id": 0,
      "content": "<s>",
      "single_word": false,
      "lstrip": false,
      "rstrip": false,
      "normalized": false,
      "special": true
    },
    {
      "id": 1,
      "content": "<pad>",
      "single_word": false,
      "lstrip": false,
      "rstrip": false,
      "normalized": false,
      "special": true
    },
    {
      "id": 2,
      "content": "</s>",
      "single_word": false,
      "lstrip": false,
      "rstrip": false,
      "normalized": false,
      "special": true
    },
    {
      "id": 3,
      "content": "<unk>",
      "single_word": false,
      "lstrip": false,
      "rstrip": false,
      "normalized": false,
      "special": true
    },
    {
      "id": 4,
      "content": "<mask>",
      "single_word": false,
      "lstrip": false,
      "rstrip": false,
      "normalized": false,
      "special": true
    },
    {
      "id": 5,
      "content": "<cls>",
      "single_word": false,
      "lstrip": false,
      "rstrip": false,
      "normalized": false,
      "special": true
    }
  ],
  "normalizer": null,
  "pre_tokenizer": {
    "type": "ByteLevel",
    "add_prefix_space": false,
    "trim_offsets": true,
    "use_regex": true
  },
  "post_processor": {
    "type": "TemplateProcessing",
    "single": [
      {
        "SpecialToken": {
          "id": "<cls>",
          "type_id": 0
        }
      },
      {
        "Sequence": {
          "id": "A",
          "type_id": 0
        }
      },
      {
        "SpecialToken": {
          "id": "</s>",
          "type_id": 0
        }
      }
    ],
    "pair": [
      {
        "SpecialToken": {
          "id": "<cls>",
          "type_id": 0
        }
      },
      {
        "Sequence": {
          "id": "A",
          "type_id": 0
        }
      },
      {
        "SpecialToken": {
          "id": "</s>",
          "type_id": 0
        }
      },
      {
        "Sequence": {
          "id": "B",
          "type_id": 1
        }
      },
      {
        "SpecialToken": {
          "id": "</s>",
          "type_id": 1
        }
      }
    ],
    "special_tokens": {
      "</s>": {
        "id": "</s>",
        "ids": [
          2
        ],
        "tokens": [
          "</s>"
        ]
      },
      "<cls>": {
        "id": "<cls>",
        "ids": [
          5
        ],
        "tokens": [
          "<cls>"
        ]
      }
    }
  },
  "decoder": {
    "type": "ByteLevel",
    "add_prefix_space": true,
    "trim_offsets": true,
    "use_regex": true
  },
  "model": {
    "type": "BPE",
    "dropout": null,
    "unk_token": null,
    "continuing_subword_prefix": null,
    "end_of_word_suffix": null,
    "fuse_unk": false,
    "byte_fallback": false,
    "ignore_merges": false,
    "vocab": {
      "<s>": 0,
      "<pad>": 1,
      "</s>": 2,
      "<unk>": 3,
      "<mask>": 4,
      "<cls>": 5,
      "!": 6,
      "\"": 7,
      "#": 8,
      "$": 9,
      "%": 10,
      "&": 11,
      "'": 12,
      "(": 13,
      ")": 14,
      "*": 15,
      "+": 16,
      ",": 17,
      "-": 18,
      ".": 19,
      "/": 20,
      "0": 21,
      "1": 22,
      "2": 23,
      "3": 24,
      "4": 25,
      "5": 26,
      "6": 27,
      "7": 28,
      "8": 29,
      "9": 30,
      ":": 31,
      ";": 32,
      "<": 33,
      "=": 34,
      ">": 35,
      "?": 36,
      "@": 37,
      "A": 38,
      "B": 39,
      "C": 40,
      "D": 41,
      "E": 42,
      "F": 43,
      "G": 44,
      "H": 45,
      "I": 46,
      "J": 47,
      "K": 48,
      "L": 49,
      "M": 50,
      "N": 51,
      "O": 52,
      "P": 53,
      "Q": 54,
      "R": 55,
      "S": 56,
      "T": 57,
      "U": 58,
      "V": 59,
      "W": 60,
      "X": 61,
      "Y": 62,
      "Z": 63,
      "[": 64,
      "\\": 65,
      "]": 66,
      "^": 67,
      "_": 68,
      "`": 69,
      "a": 70,
      "b": 71,
      "c": 72,
      "d": 73,
      "e": 74,
      "f": 75,
      "g": 76,
      "h": 77,
      "i": 78,
      "j": 79,
      "k": 80,
      "l": 81,
      "m": 82,
      "n": 83,
      "o": 84,
      "p": 85,
      "q": 86,
      "r": 87,
      "s": 88,
      "t": 89,
      "u": 90,
      "v": 91,
      "w": 92,
      "x": 93,
      "y": 94,
      "z": 95,
      "{": 96,
      "|": 97,
      "}": 98,
      "~": 99,
      "¡": 100,
      "¢": 101,
      "£": 102,
      "¤": 103,
      "¥": 104,
      "¦": 105,
      "§": 106,
      "¨": 107,
      "©": 108,
      "ª": 109,
      "«": 110,
      "¬": 111,
      "®": 112,
      "¯": 113,
      "°": 114,
      "±": 115,
      "²": 116,
      "³": 117,
      "´": 118,
      "µ": 119,
      "¶": 120,
      "·": 121,
      "¸": 122,
      "¹": 123,
      "º": 124,
      "»": 125,
      "¼": 126,
      "½": 127,
      "¾": 128,
      "¿": 129,
      "À": 130,
      "Á": 131,
      "Â": 132,
      "Ã": 133,
      "Ä": 134,
      "Å": 135,
      "Æ": 136,
      "Ç": 137,
      "È": 138,
      "É": 139,
      "Ê": 140,
      "Ë": 141,
      "Ì": 142,
      "Í": 143,
      "Î": 144,
      "Ï": 145,
      "Ð": 146,
      "Ñ": 147,
      "Ò": 148,
      "Ó": 149,
      "Ô": 150,
      "Õ": 151,
      "Ö": 152,
      "×": 153,
      "Ø": 154,
      "Ù": 155,
      "Ú": 156,
      "Û": 157,
      "Ü": 158,
      "Ý": 159,
      "Þ": 160,
      "ß": 161,
      "à": 162,
      "á": 163,
      "â": 164,
      "ã": 165,
      "ä": 166,
      "å": 167,
      "æ": 168,
      "ç": 169,
      "è": 170,
      "é": 171,
      "ê": 172,
      "ë": 173,
      "ì": 174,
      "í": 175,
      "î": 176,
      "ï": 177,
      "ð": 178,
      "ñ": 179,
      "ò": 180,
      "ó": 181,
      "ô": 182,
      "õ": 183,
      "ö": 184,
      "÷": 185,
      "ø": 186,
      "ù": 187,
      "ú": 188,
      "û": 189,
      "ü": 190,
      "ý": 191,
      "þ": 192,
      "ÿ": 193,
      "Ā": 194,
      "ā": 195,
      "Ă": 196,
      "ă": 197,
      "Ą": 198,
      "ą": 199,
      "Ć": 200,
      "ć": 201,
      "Ĉ": 202,
      "ĉ": 203,
      "Ċ": 204,
      "ċ": 205,
      "Č": 206,
      "č": 207,
      "Ď": 208,
      "ď": 209,
      "Đ": 210,
      "đ": 211,
      "Ē": 212,
      "ē": 213,
      "Ĕ": 214,
      "ĕ": 215,
      "Ė": 216,
      "ė": 217,
      "Ę": 218,
      "ę": 219,
      "Ě": 220,
      "ě": 221,
      "Ĝ": 222,
      "ĝ": 223,
      "Ğ": 224,
      "ğ": 225,
      "Ġ": 226,
      "ġ": 227,
      "Ģ": 228,
      "ģ": 229,
      "Ĥ": 230,
      "ĥ": 231,
      "Ħ": 232,
      "ħ": 233,
      "Ĩ": 234,
      "ĩ": 235,
      "Ī": 236,
      "ī": 237,
      "Ĭ": 238,
      "ĭ": 239,
      "Į": 240,
      "į": 241,
      "İ": 242,
      "ı": 243,
      "Ĳ": 244,
      "ĳ": 245,
      "Ĵ": 246,
      "ĵ": 247,
      "Ķ": 248,
      "ķ": 249,
      "ĸ": 250,
      "Ĺ": 251,
      "ĺ": 252,
      "Ļ": 253,
      "ļ": 254,
      "Ľ": 255,
      "ľ": 256,
      "Ŀ": 257,
      "ŀ": 258,
      "Ł": 259,
      "ł": 260,
      "Ń": 261,
      "Ġt": 262,
      "Ġa": 263,
      "he": 264,
      "in": 265,
      "Ġthe": 266,
      "Ġs": 267,
      "re": 268,
      "Ġw": 269,
      "Ġo": 270,
      "is": 271,
      "er": 272,
      "nd": 273,
      "Ġf": 274,
      "Ġm": 275,
      "Ġb": 276,
      "it": 277,
      "at": 278,
      "ing": 279,
      "Ġc": 280,
      "en": 281,
      "es": 282,
      "or": 283,
      "ou": 284,
      "Ġth": 285,
      "on": 286,
      "Ġh": 287,
      "ll": 288,
      "an": 289,
      "Ġand": 290,
      "Ġto": 291,
      "Ġof": 292,
      "Ġp": 293,
      "ar": 294,
      "Ġd": 295,
      "ed": 296,
      "as": 297,
      "Ġin": 298,
      "Ġl": 299,
      "om": 300,
      "Ġis": 301,
      "ĠI": 302,
      "ic": 303,
      "br": 304,
      "Ġg": 305,
      "Ġ/": 306,
      "Ġ/>": 307,
      "le": 308,
      "Ġe": 309,
      "ot": 310,
      "Ġn": 311,
      "al": 312,
      "ut": 313,
      "st": 314,
      "ct": 315,
      "il": 316,
      "Ġit": 317,
      "Ġbe": 318,
      "ve": 319,
      "ie": 320,
      "ly": 321,
      "Ġmo": 322,
      "ĠT": 323,
      "Ġre": 324,
      "Ġon": 325,
      "Ġthat": 326,
      "ver": 327,
      "ow": 328,
      "ad": 329,
      "ent": 330,
      "Ġhe": 331,
      "'s": 332,
      "ion": 333,
      "im": 334,
      "Ġthis": 335,
      "ay": 336,
      "Ġwh": 337,
      "se": 338,
      "Ġst": 339,
      "et": 340,
      "gh": 341,
      "id": 342,
      "ch": 343,
      "Ġwas": 344,
      "Ġmov": 345,
      "Ġy": 346,
      "Ġ/><": 347,
      "ith": 348,
      "ilm": 349,
      "all": 350,
      "Ġfor": 351,
      "Ġfilm": 352,
      "oo": 353,
      "Ġas": 354,
      "Ġu": 355,
      "ce": 356,
      "Ġwith": 357,
      "Ġan": 358,
      "am": 359,
      "ke": 360,
      "ĠS": 361,
      "ld": 362,
      "ĠA": 363,
      "Ġse": 364,
      "ir": 365,
      "Ġmovie": 366,
      "ĠThe": 367,
      "ro": 368,
      "Ġyou": 369,
      "Ġha": 370,
      "ri": 371,
      ".<": 372,
      "ĠB": 373,
      "her": 374,
      "ur": 375,
      "Ġli": 376,
      "Ġbut": 377,
      "ĠM": 378,
      "Ġwe": 379,
      "ra": 380,
      "Ġnot": 381,
      "'t": 382,
      "ally": 383,
      "ill": 384,
      "Ġ(": 385,
      "ter": 386,
      "ĠC": 387,
      "Ġ\"": 388,
      "ĠH": 389,
      "ck": 390,
      "Ġare": 391,
      "Ġsh": 392,
      "ome": 393,
      "Ġhis": 394,
      "Ġch": 395,
      "pe": 396,
      "ers": 397,
      "ould": 398,
      "Ġat": 399,
      "ul": 400,
      "ĠW": 401,
      "Ġhave": 402,
      "ght": 403,
      "..": 404,
      "ĠD": 405,
      "em": 406,
      "if": 407,
      "Ġsu": 408,
      "ust": 409,
      "un": 410,
      "Ġj": 411,
      "Ġfr": 412,
      "out": 413,
      "Ġsc": 414,
      "Ġact": 415,
      "Ġdo": 416,
      "ain": 417,
      "ble": 418,
      "ess": 419,
      "Ġex": 420,
      "Ġwho": 421,
      "Ġone": 422,
      "el": 423,
      "Ġk": 424,
      "Ġso": 425,
      "Ġcom": 426,
      "Ġpl": 427,
      "ood": 428,
      "very": 429,
      "act": 430,
      "Ġall": 431,
      "ant": 432,
      "art": 433,
      "ies": 434,
      "Ġab": 435,
      "ak": 436,
      "pp": 437,
      "Ġby": 438,
      "us": 439,
      "ag": 440,
      "Ġal": 441,
      "ol": 442,
      "Ġv": 443,
      "est": 444,
      "ous": 445,
      "th": 446,
      "op": 447,
      "ĠP": 448,
      "Ġde": 449,
      "ist": 450,
      "and": 451,
      "ĠL": 452,
      "Ġwor": 453,
      "Ġne": 454,
      "Ġfrom": 455,
      "ast": 456,
      "Ġthey": 457,
      "ĠR": 458,
      "one": 459,
      "Ġlike": 460,
      "Ġout": 461,
      "ven": 462,
      "Ġr": 463,
      "Ġsome": 464,
      "Ġint": 465,
      "Ġwhe": 466,
      "ĠF": 467,
      "qu": 468,
      "Ġher": 469,
      "Ġcon": 470,
      "Ġor": 471,
      "ĠJ": 472,
      "ation": 473,
      "um": 474,
      "fe": 475,
      "ough": 476,
      "red": 477,
      "ĠG": 478,
      "au": 479,
      "ate": 480,
      "ĠIt": 481,
      "Ġme": 482,
      "Ġabout": 483,
      "Ġhas": 484,
      "Ġjust": 485,
      "res": 486,
      "ich": 487,
      "ind": 488,
      "os": 489,
      "ive": 490,
      "ory": 491,
      "ard": 492,
      "Ġpro": 493,
      "ack": 494,
      "Ġcan": 495,
      "Ġchar": 496,
      "ĠN": 497,
      "pt": 498,
      "ort": 499,
      "Ġun": 500,
      "Ġtim": 501,
      "ig": 502,
      "his": 503,
      "ire": 504,
      "ud": 505,
      "ĠE": 506,
      "ook": 507,
      "The": 508,
      "ake": 509,
      "Ġle": 510,
      "reat": 511,
      "ight": 512,
      "Ġgood": 513,
      "Ġcharact": 514,
      "Ġany": 515,
      "Ġman": 516,
      "ong": 517,
      "Ġwat": 518,
      "Ġtr": 519,
      "Ġlo": 520,
      "Ġup": 521,
      "Ġmore": 522,
      "ĠO": 523,
      "Ġget": 524,
      "Ġgo": 525,
      "Ġno": 526,
      "ity": 527,
      "Ġfe": 528,
      "Ġwould": 529,
      "Ġvery": 530,
      "Ġsee": 531,
      "ound": 532,
      "ther": 533,
      "Ġmy": 534,
      "Ġwhat": 535,
      "Ġthere": 536,
      "ite": 537,
      "ge": 538,
      "ame": 539,
      "Ġstory": 540,
      "Ġbec": 541,
      "nt": 542,
      "ide": 543,
      "able": 544,
      "Ġshe": 545,
      "Ġtime": 546,
      "od": 547,
      "Ġ1": 548,
      "hing": 549,
      "Ġwhen": 550,
      "Ġen": 551,
      "Ġ-": 552,
      "Ġwere": 553,
      "Ġhad": 554,
      "ure": 555,
      "Ġreally": 556,
      "Ġonly": 557,
      "ell": 558,
      "ore": 559,
      "ab": 560,
      "Ġscen": 561,
      "itt": 562,
      "oy": 563,
      "ĠK": 564,
      "Ġtheir": 565,
      "Ġwatch": 566,
      "Ġhim": 567,
      "Ġif": 568,
      "Ġshow": 569,
      "Ġeven": 570,
      "Ġper": 571,
      "Ġwhich": 572,
      "ious": 573,
      "so": 574,
      "Ġother": 575,
      "pl": 576,
      "ink": 577,
      "ial": 578,
      "ick": 579,
      "Ġcl": 580,
      "man": 581,
      "Ġthan": 582,
      "ment": 583,
      "te": 584,
      "our": 585,
      "ars": 586,
      "Ġthem": 587,
      "ond": 588,
      "ine": 589,
      "ap": 590,
      "Ġdoes": 591,
      "og": 592,
      "Ġdid": 593,
      "Ġkn": 594,
      "ays": 595,
      "uch": 596,
      "ade": 597,
      "Ġend": 598,
      "are": 599,
      "ves": 600,
      "ause": 601,
      "Ġpe": 602,
      "ac": 603,
      "ice": 604,
      "Ġqu": 605,
      "Ġgreat": 606,
      "Ġmuch": 607,
      "Ġbet": 608,
      "Ġbad": 609,
      "Ġlook": 610,
      "Ġar": 611,
      "ue": 612,
      "irect": 613,
      "irst": 614,
      "ople": 615,
      "...": 616,
      "Ġbeen": 617,
      "Ġover": 618,
      "Ġcould": 619,
      "Ġpo": 620,
      "Ġim": 621,
      "Ġwill": 622,
      "ple": 623,
      "Ġinto": 624,
      "Ġhow": 625,
      "ert": 626,
      "lf": 627,
      "ence": 628,
      "ĠThis": 629,
      "ne": 630,
      "int": 631,
      "Ġwell": 632,
      "Ġpre": 633,
      "Ġmost": 634,
      "ry": 635,
      "Ġpeople": 636,
      "ose": 637,
      "Ġthink": 638,
      "Ġro": 639,
      "Ġknow": 640,
      "Ġtw": 641,
      "age": 642,
      "ass": 643,
      "for": 644,
      "Ġbecause": 645,
      "other": 646,
      "Ġad": 647,
      "Ġdis": 648,
      "Ġtoo": 649,
      "per": 650,
      "Ġus": 651,
      "fter": 652,
      "av": 653,
      "ful": 654,
      "ors": 655,
      "Ġag": 656,
      "ff": 657,
      "Ġdirect": 658,
      "Ġmade": 659,
      "Ġreal": 660,
      "Ġfirst": 661,
      "Ġmake": 662,
      "Ġpart": 663,
      "ile": 664,
      "Ġevery": 665,
      "Ġoff": 666,
      "Ġam": 667,
      "ull": 668,
      "Ġthing": 669,
      "ish": 670,
      "ict": 671,
      "aw": 672,
      "Ġway": 673,
      "ere": 674,
      "hat": 675,
      "Ġalso": 676,
      "ny": 677,
      "oll": 678,
      "ated": 679,
      "Ġfun": 680,
      "ost": 681,
      "ary": 682,
      "Ġseem": 683,
      "gin": 684,
      "Ġwr": 685,
      "Ġthr": 686,
      "ty": 687,
      "Ġdon": 688,
      "Ġ'": 689,
      "akes": 690,
      "Ġmovies": 691,
      "Ġits": 692,
      "ical": 693,
      "own": 694,
      "Ġcharacter": 695,
      "ans": 696,
      "ress": 697,
      "ep": 698,
      "Ġwork": 699,
      "iew": 700,
      "Ġbl": 701,
      "ng": 702,
      "Ġsp": 703,
      "Ġcharacters": 704,
      "ace": 705,
      "ob": 706,
      "ually": 707,
      "Ġgu": 708,
      "ĠAnd": 709,
      "hed": 710,
      "ance": 711,
      "ĠY": 712,
      "ĠCh": 713,
      "cc": 714,
      "pect": 715,
      "Ġfl": 716,
      "Ġfilms": 717,
      "fect": 718,
      "Ġplay": 719,
      "iz": 720,
      "Ġte": 721,
      "self": 722,
      "Ġplot": 723,
      "Ġye": 724,
      "ving": 725,
      "Ġthen": 726,
      "Ġseen": 727,
      "ces": 728,
      "Ġwant": 729,
      "ĠBut": 730,
      "omet": 731,
      "Ġser": 732,
      "Ġaw": 733,
      "ittle": 734,
      "Ġbeing": 735,
      "),": 736,
      "Ġyour": 737,
      "ĠV": 738,
      "Ġafter": 739,
      "Ġtwo": 740,
      ").": 741,
      "Ġlove": 742,
      "Ġsay": 743,
      "Ġmany": 744,
      "Ġnever": 745,
      "Ġacting": 746,
      "ĠHe": 747,
      "ip": 748,
      "urn": 749,
      "get": 750,
      "nder": 751,
      "Ġthrough": 752,
      "ang": 753,
      "mer": 754,
      "Ġback": 755,
      "ark": 756,
      "ens": 757,
      "Ġwhere": 758,
      "Ġlife": 759,
      "This": 760,
      "ĠIn": 761,
      "Ġent": 762,
      "ily": 763,
      "Ġlittle": 764,
      "ian": 765,
      "ved": 766,
      "Ġbest": 767,
      "Ġrem": 768,
      "Ġbr": 769,
      "ult": 770,
      "Ġsomet": 771,
      "ild": 772,
      "ather": 773,
      "ber": 774,
      "Ġ<": 775,
      "Ġever": 776,
      "ach": 777,
      "ci": 778,
      "Ġdes": 779,
      "ise": 780,
      "Ġhor": 781,
      "we": 782,
      "Ġrec": 783,
      "ĠSt": 784,
      "vel": 785,
      "Ġbetter": 786,
      "ions": 787,
      "wn": 788,
      "du": 789,
      "hy": 790,
      "ual": 791,
      "Ġperfor": 792,
      "rap": 793,
      "Ġshould": 794,
      "Ġfind": 795,
      "be": 796,
      "!!": 797,
      "aking": 798,
      "vers": 799,
      "Ġsl": 800,
      "Ġscene": 801,
      "Ġspe": 802,
      "thing": 803,
      "ought": 804,
      "Ġgr": 805,
      "Ġcont": 806,
      "Ġfeel": 807,
      "ase": 808,
      "less": 809,
      "Ġpr": 810,
      "Ġatt": 811,
      "Ġagain": 812,
      "'ve": 813,
      "Ġscenes": 814,
      "ertain": 815,
      "ia": 816,
      "ĠU": 817,
      "Ġhere": 818,
      "Ġstill": 819,
      "iend": 820,
      "ents": 821,
      "Ġ2": 822,
      "Ġcr": 823,
      "lie": 824,
      "Ġri": 825,
      "Ġmin": 826,
      "ting": 827,
      "Ġi": 828,
      "ning": 829,
      "Ġunder": 830,
      "ever": 831,
      "erest": 832,
      "me": 833,
      "augh": 834,
      "Ġ19": 835,
      "ably": 836,
      "ĠThere": 837,
      "fore": 838,
      "Ġkill": 839,
      "Ġsuch": 840,
      "Ġinterest": 841,
      "igh": 842,
      "'m": 843,
      "Ġinc": 844,
      "ree": 845,
      "ren": 846,
      "Ġsomething": 847,
      "Ġhapp": 848,
      "ason": 849,
      "les": 850,
      "ating": 851,
      "Ġold": 852,
      "arly": 853,
      "ense": 854,
      "Ġthese": 855,
      "Ġperforman": 856,
      "Ġimp": 857,
      "Ġmay": 858,
      "Ġcast": 859,
      "ations": 860,
      "alk": 861,
      "ath": 862,
      "Ġfam": 863,
      "ave": 864,
      "Ġlot": 865,
      "ail": 866,
      "Ġpoint": 867,
      "Ġgi": 868,
      "Ġhum": 869,
      "ru": 870,
      "the": 871,
      "reen": 872,
      "Ġap": 873,
      "Ġsur": 874,
      "ater": 875,
      "Ġdoesn": 876,
      "Ġdec": 877,
      "iv": 878,
      "Ġwom": 879,
      "ying": 880,
      "ĠAl": 881,
      "joy": 882,
      "Ġyears": 883,
      "ror": 884,
      "ect": 885,
      "Ġthose": 886,
      "Ġwatching": 887,
      "Ġactors": 888,
      "up": 889,
      "Ġsim": 890,
      "Ġgir": 891,
      "Ġres": 892,
      "Ġmus": 893,
      "Ġra": 894,
      "oth": 895,
      "Ġdidn": 896,
      "Ġgen": 897,
      "Ġche": 898,
      "Ġset": 899,
      "Ġenjoy": 900,
      "ock": 901,
      "Ġstart": 902,
      "Ġview": 903,
      "Ġcou": 904,
      "Ġfact": 905,
      "Ġmakes": 906,
      "Ġdown": 907,
      "ffect": 908,
      "Ġfunny": 909,
      "old": 910,
      "Ġbelie": 911,
      "erson": 912,
      "Ġguy": 913,
      "Ġob": 914,
      "Ġfew": 915,
      "ute": 916,
      "Ġev": 917,
      "edy": 918,
      "Ġcomp": 919,
      "oss": 920,
      "az": 921,
      "iss": 922,
      "der": 923,
      "Ġgoing": 924,
      "Ġfin": 925,
      "ale": 926,
      "rigin": 927,
      "oc": 928,
      "Ġsame": 929,
      "Ġbefore": 930,
      "Ġactually": 931,
      "Ġtra": 932,
      "li": 933,
      "ĠIf": 934,
      "Ġpret": 935,
      "Ġgot": 936,
      "Ġorigin": 937,
      "Ġlong": 938,
      "Ġem": 939,
      "Ġyoung": 940,
      "ĠJo": 941,
      "Ġsupp": 942,
      "Ġthough": 943,
      "Ġwhile": 944,
      "Ġdif": 945,
      "--": 946,
      "Ġwhy": 947,
      "**": 948,
      "Ġnow": 949,
      "ience": 950,
      "ool": 951,
      "ft": 952,
      "ub": 953,
      "Ġown": 954,
      "Ġprodu": 955,
      "Ġbit": 956,
      "ript": 957,
      "Ġnew": 958,
      "hen": 959,
      "Ġdirector": 960,
      "ible": 961,
      "Ġter": 962,
      "Ġtri": 963,
      "ction": 964,
      "Ġexce": 965,
      "Ġturn": 966,
      "Ġke": 967,
      "Ġthought": 968,
      "'re": 969,
      "Ġnothing": 970,
      "Ġsub": 971,
      "Ġbig": 972,
      "ons": 973,
      "ince": 974,
      "Ġgirl": 975,
      "aut": 976,
      "Ġanother": 977,
      "ram": 978,
      "iting": 979,
      "Ġrel": 980,
      "Ġquite": 981,
      "cial": 982,
      "Ġcomple": 983,
      "Ġsm": 984,
      "rent": 985,
      "Ġseems": 986,
      "onder": 987,
      "Ġinv": 988,
      "Ġaround": 989,
      "Ġapp": 990,
      "ign": 991,
      "Ġfriend": 992,
      "Ġpretty": 993,
      "Ġ&": 994,
      "Ġeffect": 995,
      "Ġoriginal": 996,
      "Ġthings": 997,
      "ings": 998,
      "Ġneed": 999,
      "ically": 1000,
      "ways": 1001,
      "air": 1002,
      "ew": 1003,
      "Ġworld": 1004,
      "ched": 1005,
      "ween": 1006,
      "Ġright": 1007,
      "00": 1008,
      "Ġscreen": 1009,
      "Ġenough": 1010,
      "pr": 1011,
      "ib": 1012,
      "arr": 1013,
      "Ġhard": 1014,
      "Ġscript": 1015,
      "most": 1016,
      "ately": 1017,
      "ĠShe": 1018,
      "meric": 1019,
      "ank": 1020,
      "Ġstr": 1021,
      "ness": 1022,
      "Ġbetween": 1023,
      "app": 1024,
      "Ġappe": 1025,
      "ĠBr": 1026,
      "ster": 1027,
      "Ġtake": 1028,
      "Ġacc": 1029,
      "rill": 1030,
      "Ġkid": 1031,
      "ead": 1032,
      "Ġins": 1033,
      "Ġhigh": 1034,
      "Ġfar": 1035,
      "Ġkind": 1036,
      "ention": 1037,
      "Ġperson": 1038,
      "inem": 1039,
      "Ġsec": 1040,
      "hes": 1041,
      "Ġlaugh": 1042,
      "ced": 1043,
      "Ġwonder": 1044,
      "Ġmust": 1045,
      "Ġgive": 1046,
      "Ġseries": 1047,
      "Ġes": 1048,
      "Ġgets": 1049,
      "ward": 1050,
      "Ġreason": 1051,
      "Ġrole": 1052,
      "utes": 1053,
      "Ġhorror": 1054,
      "Ġmom": 1055,
      "Ġtell": 1056,
      "Ġop": 1057,
      "Ġaction": 1058,
      "ord": 1059,
      "Ġtimes": 1060,
      "Ġalways": 1061,
      "vious": 1062,
      "\",": 1063,
      "Ġchild": 1064,
      "aid": 1065,
      "icul": 1066,
      "Ġisn": 1067,
      "ash": 1068,
      "ĠAs": 1069,
      "Ġep": 1070,
      "Ġbu": 1071,
      "Ġhel": 1072,
      "its": 1073,
      "Ġleast": 1074,
      "Ġsex": 1075,
      "ouse": 1076,
      "Ġread": 1077,
      "Ġwhole": 1078,
      "Ġput": 1079,
      "Ġinteresting": 1080,
      "ife": 1081,
      "ĠYou": 1082,
      "Ġsaw": 1083,
      "ased": 1084,
      "Ġbeaut": 1085,
      "Ġcome": 1086,
      "ody": 1087,
      "here": 1088,
      "ĠAmeric": 1089,
      "Ġclass": 1090,
      "ully": 1091,
      "Ġmusic": 1092,
      "Ġfamily": 1093,
      "Ġmain": 1094,
      "ĠHow": 1095,
      "oot": 1096,
      "Ġwithout": 1097,
      "Ġdone": 1098,
      "Ġexpect": 1099,
      "Ġcomedy": 1100,
      "ines": 1101,
      "Ġboth": 1102,
      "Ġhand": 1103,
      "Ġlead": 1104,
      "ĠThey": 1105,
      "Ġcons": 1106,
      "Ġrev": 1107,
      "Ġmight": 1108,
      "Ġalmost": 1109,
      "Ġide": 1110,
      "arn": 1111,
      "Ġdiffe": 1112,
      "Ġminutes": 1113,
      "hn": 1114,
      "Ġshot": 1115,
      "Ġaud": 1116,
      "Ġcinem": 1117,
      "Ġperformance": 1118,
      "Ġlast": 1119,
      "bably": 1120,
      "Ġexpl": 1121,
      "ĠSh": 1122,
      "'ll": 1123,
      "Ġcam": 1124,
      "xt": 1125,
      "Ġbegin": 1126,
      "gg": 1127,
      "Ġanything": 1128,
      "Ġsound": 1129,
      "Ġcomplete": 1130,
      "de": 1131,
      "Ġbook": 1132,
      "uring": 1133,
      "Ġinst": 1134,
      "Ġcour": 1135,
      "ime": 1136,
      "though": 1137,
      "rible": 1138,
      "Ġhelp": 1139,
      "son": 1140,
      "Ġcare": 1141,
      "stand": 1142,
      "Ġworth": 1143,
      "Ġco": 1144,
      "Ġ3": 1145,
      "ĠWh": 1146,
      "It": 1147,
      "cially": 1148,
      "Ġentertain": 1149,
      "ane": 1150,
      "ograp": 1151,
      "\".": 1152,
      "ism": 1153,
      "Ġart": 1154,
      "oney": 1155,
      "ĠTh": 1156,
      "Ġcle": 1157,
      "Ġsince": 1158,
      "Ġel": 1159,
      "ov": 1160,
      "Ġwoman": 1161,
      "Ġfound": 1162,
      "ative": 1163,
      "Ġaway": 1164,
      "atch": 1165,
      "Ġsequ": 1166,
      "ures": 1167,
      "ret": 1168,
      "ition": 1169,
      "istic": 1170,
      "ner": 1171,
      "als": 1172,
      "isod": 1173,
      "Ġprobably": 1174,
      "Ġsure": 1175,
      "era": 1176,
      "ĠAn": 1177,
      "Ġrather": 1178,
      "ĠTV": 1179,
      "rist": 1180,
      "mend": 1181,
      "Ġvers": 1182,
      "Ġext": 1183,
      "ange": 1184,
      "ialog": 1185,
      "Ġrun": 1186,
      "Ġcall": 1187,
      "pecially": 1188,
      "ros": 1189,
      "Ġcar": 1190,
      "oint": 1191,
      "ĠFr": 1192,
      "Ġepisod": 1193,
      "ee": 1194,
      "Ġmaking": 1195,
      "osed": 1196,
      "ady": 1197,
      "apt": 1198,
      "Ġhappen": 1199,
      "led": 1200,
      "wh": 1201,
      "Ġ10": 1202,
      "Ġdialog": 1203,
      "Ġabs": 1204,
      "Ġworst": 1205,
      "ten": 1206,
      "umb": 1207,
      "Ġlik": 1208,
      "olly": 1209,
      "Ġcourse": 1210,
      "ling": 1211,
      "wood": 1212,
      "ither": 1213,
      "Ġbo": 1214,
      "Ġlet": 1215,
      "ER": 1216,
      "Ġour": 1217,
      "Ġcomes": 1218,
      "ject": 1219,
      "ream": 1220,
      "Ġbeautif": 1221,
      "Ġmean": 1222,
      "co": 1223,
      "ah": 1224,
      "Ġdel": 1225,
      ".\"": 1226,
      "Ġadd": 1227,
      "ĠJohn": 1228,
      "ok": 1229,
      "Ġdifferent": 1230,
      "Ġkeep": 1231,
      "Ġtrying": 1232,
      "Ġpoor": 1233,
      "ec": 1234,
      "Ġjob": 1235,
      "Ġless": 1236,
      "ollow": 1237,
      "Ġbelieve": 1238,
      "VD": 1239,
      "Ġrest": 1240,
      "ney": 1241,
      "aster": 1242,
      "Ġgoes": 1243,
      "Ġeach": 1244,
      "ments": 1245,
      "Ġday": 1246,
      "ont": 1247,
      "Ġmind": 1248,
      "ates": 1249,
      "blem": 1250,
      "alf": 1251,
      "Ġsense": 1252,
      "ĠThat": 1253,
      "Ġplace": 1254,
      "uck": 1255,
      "Ġsurpr": 1256,
      "fin": 1257,
      "Ġbor": 1258,
      "Ġanyone": 1259,
      "ex": 1260,
      "Ġlooks": 1261,
      "'d": 1262,
      "ĠSo": 1263,
      "dd": 1264,
      "Ġpol": 1265,
      "empt": 1266,
      "Ġstand": 1267,
      "ingly": 1268,
      "ics": 1269,
      "iter": 1270,
      "Ġsuper": 1271,
      "hip": 1272,
      "ĠWe": 1273,
      "Ġpres": 1274,
      "ph": 1275,
      "ĠDVD": 1276,
      "Ġproblem": 1277,
      "lud": 1278,
      "Ġyet": 1279,
      "Ġplayed": 1280,
      "ommend": 1281,
      "ortun": 1282,
      "Ġmoney": 1283,
      "Ġending": 1284,
      "Ġwasn": 1285,
      "sc": 1286,
      "Ġty": 1287,
      "inc": 1288,
      "Ġinter": 1289,
      "ĠWhat": 1290,
      "Ġshows": 1291,
      "ality": 1292,
      "ues": 1293,
      "Ġgl": 1294,
      "Ġport": 1295,
      "Ġperfect": 1296,
      "arent": 1297,
      "ower": 1298,
      "ray": 1299,
      "Ġac": 1300,
      "Ġactor": 1301,
      "ks": 1302,
      "iece": 1303,
      "Ġboy": 1304,
      "aps": 1305,
      "ope": 1306,
      "way": 1307,
      "Ġwatched": 1308,
      "ember": 1309,
      "Ġwar": 1310,
      "Ġplays": 1311,
      "Ġcre": 1312,
      "Ġdram": 1313,
      "ann": 1314,
      "ĠBl": 1315,
      "Ġfav": 1316,
      "Ġconf": 1317,
      "Ġshort": 1318,
      "ĠNot": 1319,
      "Ġfollow": 1320,
      "Ġrecommend": 1321,
      "Ġsaid": 1322,
      "Ġaudience": 1323,
      "ilar": 1324,
      "Ġhaving": 1325,
      "Ġfan": 1326,
      "Ġcreat": 1327,
      "gether": 1328,
      "Ġtogether": 1329,
      "ĠDe": 1330,
      "llent": 1331,
      "Ġhalf": 1332,
      "Ġtakes": 1333,
      "Ġlooking": 1334,
      "Ġhead": 1335,
      "omb": 1336,
      "ident": 1337,
      "Ġhimself": 1338,
      "Ġnice": 1339,
      "ĠTH": 1340,
      "Ġeffects": 1341,
      "Ġsecond": 1342,
      "Ġversion": 1343,
      "atter": 1344,
      "Ġsomeone": 1345,
      "Ġmiss": 1346,
      "ature": 1347,
      "Ġelse": 1348,
      "ĠAll": 1349,
      "Ġsit": 1350,
      "Ġtrue": 1351,
      "land": 1352,
      "ames": 1353,
      "Ġreview": 1354,
      "ollywood": 1355,
      "Ġcertain": 1356,
      "Ġdep": 1357,
      "ied": 1358,
      "Ġtalk": 1359,
      "not": 1360,
      "Ġunderstand": 1361,
      "Ġvis": 1362,
      "Ġfall": 1363,
      "Ġposs": 1364,
      "Ġimag": 1365,
      "10": 1366,
      "atic": 1367,
      "cept": 1368,
      "Ġleft": 1369,
      "Ġed": 1370,
      "sp": 1371,
      "Ġwife": 1372,
      "Ġspecial": 1373,
      "Ġespecially": 1374,
      "Ġfather": 1375,
      "ited": 1376,
      "ix": 1377,
      "Ġnight": 1378,
      "Ġanim": 1379,
      "ply": 1380,
      "ists": 1381,
      "Ġbeautiful": 1382,
      "day": 1383,
      "Ġentire": 1384,
      "Ġcame": 1385,
      "Ġexc": 1386,
      "Ġrele": 1387,
      "Ġthree": 1388,
      "ier": 1389,
      "ared": 1390,
      "Ġsing": 1391,
      "Ġobvious": 1392,
      "Ġidea": 1393,
      "....": 1394,
      "ted": 1395,
      "ĠSc": 1396,
      "ional": 1397,
      "Ġhour": 1398,
      "Ġph": 1399,
      "Ġele": 1400,
      "Ġdist": 1401,
      "Ġuse": 1402,
      "Ġcomm": 1403,
      "sy": 1404,
      "Ġyear": 1405,
      "ired": 1406,
      "ird": 1407,
      "anc": 1408,
      "Ġmur": 1409,
      "Ġdet": 1410,
      "Ġseeing": 1411,
      "Ġfriends": 1412,
      "uff": 1413,
      "Ġexcellent": 1414,
      "Ġmar": 1415,
      "ĠAmerican": 1416,
      "like": 1417,
      "Ġinvol": 1418,
      "ides": 1419,
      "fully": 1420,
      "Ġhome": 1421,
      "Ġey": 1422,
      "udget": 1423,
      "ĠChrist": 1424,
      "upid": 1425,
      "Ġlater": 1426,
      "Ġeverything": 1427,
      "ĠFor": 1428,
      "Ġmon": 1429,
      "io": 1430,
      "ĠBe": 1431,
      "appoint": 1432,
      "ĠCl": 1433,
      "Ġsk": 1434,
      "ract": 1435,
      "Ġduring": 1436,
      "Ġattempt": 1437,
      "Ġmen": 1438,
      "ised": 1439,
      "ross": 1440,
      "Ġfight": 1441,
      "Ġlow": 1442,
      "ĠRe": 1443,
      "ĠZ": 1444,
      "Ġexp": 1445,
      "ĠSte": 1446,
      "orn": 1447,
      "Ġonce": 1448,
      "ĠUn": 1449,
      "ork": 1450,
      "Ġlack": 1451,
      "Ġeveryone": 1452,
      "Ġdisappoint": 1453,
      "Ġsch": 1454,
      "Ġsimply": 1455,
      "Ġhist": 1456,
      "my": 1457,
      "ains": 1458,
      "ount": 1459,
      "Ġtal": 1460,
      "Ġunt": 1461,
      "Ġmem": 1462,
      "Ġsty": 1463,
      "Ġbeh": 1464,
      "Ġtot": 1465,
      "olute": 1466,
      "Ġcompletely": 1467,
      "Ġdeath": 1468,
      "but": 1469,
      "ets": 1470,
      "Ġused": 1471,
      "Ġstupid": 1472,
      "Ġexper": 1473,
      "iol": 1474,
      "ery": 1475,
      "ĠAr": 1476,
      "Ġtop": 1477,
      "Ġsong": 1478,
      "Ġhuman": 1479,
      "ĠWhen": 1480,
      "Ġ4": 1481,
      "Ġheart": 1482,
      "ĠMar": 1483,
      "att": 1484,
      "Ġsupposed": 1485,
      "Ġmess": 1486,
      "Ġinclud": 1487,
      "Ġpict": 1488,
      "Ġdra": 1489,
      "Ġdefin": 1490,
      "ĠHollywood": 1491,
      "Ġwrong": 1492,
      "Ġperformances": 1493,
      "ien": 1494,
      "ĠRob": 1495,
      "itten": 1496,
      "ĠAt": 1497,
      "ĠSp": 1498,
      "Ġtit": 1499,
      "Ġass": 1500,
      "Ġrep": 1501,
      "Ġserious": 1502,
      "Ġeas": 1503,
      "aring": 1504,
      "Ġfail": 1505,
      "ott": 1506,
      "Ġopen": 1507,
      "Ġhouse": 1508,
      "ography": 1509,
      "uth": 1510,
      "ĠMy": 1511,
      "elt": 1512,
      "Ġstud": 1513,
      "Ġtry": 1514,
      "Ġeither": 1515,
      "Ġret": 1516,
      "Ġgener": 1517,
      "Ġsy": 1518,
      "orm": 1519,
      "ins": 1520,
      "amp": 1521,
      "ideo": 1522,
      "fic": 1523,
      "In": 1524,
      "Ġword": 1525,
      "ĠHowever": 1526,
      "uly": 1527,
      "Ġloc": 1528,
      "ove": 1529,
      "Ġgiven": 1530,
      "Ġconv": 1531,
      "Ġblack": 1532,
      "idd": 1533,
      "Ġexam": 1534,
      "Ġemot": 1535,
      "Ġ--": 1536,
      "Ġkids": 1537,
      "Ġcra": 1538,
      "Ġbecom": 1539,
      "oice": 1540,
      "Ġconc": 1541,
      "Ġabsolute": 1542,
      "Ġsmall": 1543,
      "Ġcamera": 1544,
      "Ġline": 1545,
      "Ġbas": 1546,
      "oon": 1547,
      "Ġclassic": 1548,
      "gr": 1549,
      "ider": 1550,
      "ĠÂ": 1551,
      "Ġboring": 1552,
      "Ġind": 1553,
      "velop": 1554,
      "haps": 1555,
      "Ġwomen": 1556,
      "Ġcount": 1557,
      "Ġparticul": 1558,
      "Ã©": 1559,
      "com": 1560,
      "Ġgra": 1561,
      "Ġrom": 1562,
      "play": 1563,
      "Ġ8": 1564,
      "Ġpain": 1565,
      "ize": 1566,
      "Ġlight": 1567,
      "Ġproduction": 1568,
      "ities": 1569,
      "Ġstar": 1570,
      "Ġuntil": 1571,
      "Ġcop": 1572,
      "itely": 1573,
      "Ġcouple": 1574,
      "Ġalong": 1575,
      "Ġsad": 1576,
      "Ġwon": 1577,
      "Ġfavor": 1578,
      "fortun": 1579,
      "Ġsort": 1580,
      "Ġtruly": 1581,
      "Ġportray": 1582,
      "ike": 1583,
      "iness": 1584,
      "Ġhope": 1585,
      "Ġmoments": 1586,
      "Ġpass": 1587,
      "Ġwa": 1588,
      "ote": 1589,
      "Ġ5": 1590,
      "Ġcred": 1591,
      "ĠOne": 1592,
      "Ġviol": 1593,
      "iant": 1594,
      "ug": 1595,
      "ories": 1596,
      "Ġple": 1597,
      "med": 1598,
      "reak": 1599,
      "sel": 1600,
      "Ġamaz": 1601,
      "Ġinstead": 1602,
      "Ġflick": 1603,
      "Ġremember": 1604,
      "aj": 1605,
      "Ġ7": 1606,
      "Ġfull": 1607,
      "Ġhero": 1608,
      "Ġawful": 1609,
      "Ġepisode": 1610,
      "ming": 1611,
      "ility": 1612,
      "Ġschool": 1613,
      "Ġadv": 1614,
      "Ġhumor": 1615,
      "IN": 1616,
      "ented": 1617,
      "Ġexcept": 1618,
      "Ġname": 1619,
      "Ġgives": 1620,
      "Ġdoing": 1621,
      "Ġgetting": 1622,
      "ric": 1623,
      "Ġbudget": 1624,
      "Ġitself": 1625,
      "ows": 1626,
      "Ġplaying": 1627,
      "Ġz": 1628,
      "ently": 1629,
      "ĠNo": 1630,
      "Ġbecome": 1631,
      "que": 1632,
      "Ġwonderful": 1633,
      "ony": 1634,
      "Ġdevelop": 1635,
      "ĠLe": 1636,
      "ison": 1637,
      "imes": 1638,
      "Ġform": 1639,
      "ler": 1640,
      "ister": 1641,
      "Ġdri": 1642,
      "Ġoften": 1643,
      "Ġterrible": 1644,
      ",\"": 1645,
      "olog": 1646,
      "Ġnext": 1647,
      "Ġface": 1648,
      "Ġlines": 1649,
      "ax": 1650,
      "ton": 1651,
      "Ġothers": 1652,
      "Ġstars": 1653,
      "ized": 1654,
      "Ġdialogue": 1655,
      "Ġfelt": 1656,
      "Ġhowever": 1657,
      "Ġreg": 1658,
      "Ġslow": 1659,
      "ĠWill": 1660,
      "right": 1661,
      "und": 1662,
      "Ġann": 1663,
      "ĠMr": 1664,
      "Ġguess": 1665,
      "Ġliked": 1666,
      "ĠWell": 1667,
      "Ġimpress": 1668,
      "Ġvideo": 1669,
      "Ġpiece": 1670,
      "Ġclose": 1671,
      "aughter": 1672,
      "Ġ9": 1673,
      "Ġcoll": 1674,
      "ĠSe": 1675,
      "Ġquest": 1676,
      "ael": 1677,
      "reme": 1678,
      "Ġcor": 1679,
      "Ġlive": 1680,
      "ibly": 1681,
      "Ġearly": 1682,
      "Ġdead": 1683,
      "ĠCar": 1684,
      "Ġcouldn": 1685,
      "Ġfant": 1686,
      "ps": 1687,
      "ĠMan": 1688,
      "Ġbrill": 1689,
      "If": 1690,
      "There": 1691,
      "Ġactress": 1692,
      "ger": 1693,
      "Ġcase": 1694,
      "ĠDon": 1695,
      "line": 1696,
      "Ġmother": 1697,
      "Ġ.": 1698,
      "ument": 1699,
      "Ġpower": 1700,
      "Ġwent": 1701,
      "ĠOn": 1702,
      "ĠTHE": 1703,
      "vis": 1704,
      "illy": 1705,
      "Ġmention": 1706,
      "tern": 1707,
      "Ġcut": 1708,
      "Ġagainst": 1709,
      "Ġstrong": 1710,
      "Ġwaste": 1711,
      "ĠJack": 1712,
      "ley": 1713,
      "used": 1714,
      "Ġchildren": 1715,
      "Ġref": 1716,
      "ĠNew": 1717,
      "ccess": 1718,
      "Ġstyle": 1719,
      "ured": 1720,
      "Ġrelations": 1721,
      "Ġentertaining": 1722,
      "Ġdark": 1723,
      "ular": 1724,
      "Ġmaybe": 1725,
      "Ġmis": 1726,
      "Ġpast": 1727,
      "lish": 1728,
      "Ġtitle": 1729,
      "Ġtrans": 1730,
      "Ġbeginning": 1731,
      "ined": 1732,
      "ready": 1733,
      "oid": 1734,
      "Ġrid": 1735,
      "pite": 1736,
      "ific": 1737,
      "Ġabsolutely": 1738,
      "yn": 1739,
      "ĠDav": 1740,
      "Ġworse": 1741,
      "ichael": 1742,
      "unch": 1743,
      "body": 1744,
      "Ġdefinitely": 1745,
      "Ġwritten": 1746,
      "ĠHis": 1747,
      "ĠEven": 1748,
      "sh": 1749,
      "atur": 1750,
      "Ġside": 1751,
      "oub": 1752,
      "Ġsomew": 1753,
      "Ġbecomes": 1754,
      "Ġsupport": 1755,
      "iam": 1756,
      "itch": 1757,
      "by": 1758,
      "rew": 1759,
      "selves": 1760,
      "riend": 1761,
      "fortunately": 1762,
      "Ġthrill": 1763,
      "Ġseemed": 1764,
      "Ġsw": 1765,
      "ĠÂĸ": 1766,
      "ts": 1767,
      "Ġalready": 1768,
      "Ġbrother": 1769,
      "Ġpicture": 1770,
      "Ġexample": 1771,
      "Ġsuccess": 1772,
      "Ġlives": 1773,
      "Ġrent": 1774,
      "ĠMc": 1775,
      "Ġcinema": 1776,
      "Ġcertainly": 1777,
      "Ġextreme": 1778,
      "Ġpred": 1779,
      "Ġpop": 1780,
      "ĠEng": 1781,
      "pped": 1782,
      "Ġadm": 1783,
      "Ġbrilliant": 1784,
      "Ġsever": 1785,
      "Ġwanted": 1786,
      "Ġfans": 1787,
      "enn": 1788,
      "Ġfine": 1789,
      "Ġrelationship": 1790,
      "Ġseveral": 1791,
      "Ġmatter": 1792,
      "Ġtou": 1793,
      "Ġalthough": 1794,
      "osp": 1795,
      "Ġdirection": 1796,
      "Ġloved": 1797,
      "het": 1798,
      "vable": 1799,
      "uc": 1800,
      "Ġblood": 1801,
      "Ġself": 1802,
      "ried": 1803,
      "Ġdrama": 1804,
      "aken": 1805,
      "Ġcent": 1806,
      "ief": 1807,
      ").<": 1808,
      "aul": 1809,
      "Ġwalk": 1810,
      "Ġwriting": 1811,
      "Ġwants": 1812,
      "Ġpur": 1813,
      "chn": 1814,
      "aving": 1815,
      "Ġmaster": 1816,
      "Ġlost": 1817,
      "Ġet": 1818,
      "uss": 1819,
      "Ġtries": 1820,
      "cess": 1821,
      "Ġmag": 1822,
      "Ġdem": 1823,
      "Ġworks": 1824,
      "Ġtown": 1825,
      "sych": 1826,
      "Ġannoy": 1827,
      "ided": 1828,
      "ages": 1829,
      "Ġmor": 1830,
      "orge": 1831,
      "ĠSome": 1832,
      "ape": 1833,
      "ĠTo": 1834,
      "oil": 1835,
      "Ġvill": 1836,
      "Ġviewer": 1837,
      "Ġtotally": 1838,
      "Ġguys": 1839,
      "Ġlist": 1840,
      "amed": 1841,
      "Ġav": 1842,
      "Ġson": 1843,
      "Ġocc": 1844,
      "unk": 1845,
      "Ġthroughout": 1846,
      "oke": 1847,
      "Ġsat": 1848,
      "Ġable": 1849,
      "Ġprov": 1850,
      "gu": 1851,
      "Ġnum": 1852,
      "Ġquality": 1853,
      "Ġdeser": 1854,
      "Ġpar": 1855,
      "Ġdoc": 1856,
      "Ġcalled": 1857,
      "Ġcapt": 1858,
      "Ġdaughter": 1859,
      "Ġenjoyed": 1860,
      "Ġnovel": 1861,
      "Ġhistory": 1862,
      "Ġeff": 1863,
      "Ġdr": 1864,
      "!<": 1865,
      "ination": 1866,
      "ung": 1867,
      "Ġcomment": 1868,
      "Ġbased": 1869,
      "Ġmed": 1870,
      "OT": 1871,
      "Ġcol": 1872,
      "Ġstuff": 1873,
      "use": 1874,
      "ms": 1875,
      "Ġturns": 1876,
      "Ġkiller": 1877,
      "Ġamazing": 1878,
      "??": 1879,
      "Ġval": 1880,
      "Ġfem": 1881,
      "Ġgave": 1882,
      "Ġstarts": 1883,
      "ern": 1884,
      "Ġfair": 1885,
      "off": 1886,
      "Ġgame": 1887,
      "ude": 1888,
      "Ġfinally": 1889,
      "Ġbra": 1890,
      "Ġappear": 1891,
      "Ġgenre": 1892,
      "itive": 1893,
      "using": 1894,
      "ĠIs": 1895,
      "ĠMichael": 1896,
      "19": 1897,
      "Ġbehind": 1898,
      "Ġfavorite": 1899,
      "ĠDan": 1900,
      "ĠAfter": 1901,
      "Ġdeal": 1902,
      "ĠChar": 1903,
      "rib": 1904,
      "Ġlearn": 1905,
      "Ġfig": 1906,
      "Ġmyster": 1907,
      "Ġinf": 1908,
      "to": 1909,
      "Ġthemselves": 1910,
      "Ġmoment": 1911,
      "ished": 1912,
      "Ġcult": 1913,
      "Ġhon": 1914,
      "rop": 1915,
      "Ġcontin": 1916,
      "Ġevil": 1917,
      "Ġfinal": 1918,
      "Ġsitu": 1919,
      "ches": 1920,
      "Ġtoday": 1921,
      "Ġlate": 1922,
      "arth": 1923,
      "Ġimport": 1924,
      "As": 1925,
      "ik": 1926,
      "rodu": 1927,
      "Ġparts": 1928,
      "na": 1929,
      "ese": 1930,
      "oup": 1931,
      "ards": 1932,
      "ajor": 1933,
      "ox": 1934,
      "Ġprom": 1935,
      "Ġetc": 1936,
      "Ġstra": 1937,
      "Ġshoot": 1938,
      "Ġdays": 1939,
      "Ġcrit": 1940,
      "ĠThen": 1941,
      "Ġopp": 1942,
      "Ġexact": 1943,
      "Ġlevel": 1944,
      "ump": 1945,
      "Ġtyp": 1946,
      "Ġfeat": 1947,
      "astic": 1948,
      "iet": 1949,
      "akers": 1950,
      "Ġask": 1951,
      "Ġintell": 1952,
      "band": 1953,
      "Ġthinking": 1954,
      "Ġconsider": 1955,
      "Ġir": 1956,
      "Ġfoot": 1957,
      "Ġstories": 1958,
      "ĠBrit": 1959,
      ".)": 1960,
      "Ġmyself": 1961,
      "iculous": 1962,
      "Ġsusp": 1963,
      "Ġdeli": 1964,
      "Ġcost": 1965,
      "Ġpat": 1966,
      "Ġfeeling": 1967,
      "Ġpsych": 1968,
      "ĠGr": 1969,
      "ĠAlso": 1970,
      "Ġvoice": 1971,
      "Ġbus": 1972,
      "Ġmusical": 1973,
      "Ġdecent": 1974,
      "cy": 1975,
      "ene": 1976,
      "AN": 1977,
      "Ġpick": 1978,
      "Ġincred": 1979,
      "Ġeffort": 1980,
      "dy": 1981,
      "Ġdream": 1982,
      "Ġroles": 1983,
      "Ġsoon": 1984,
      "Ġsn": 1985,
      "Ġconst": 1986,
      "ĠWith": 1987,
      "urt": 1988,
      "usband": 1989,
      "arb": 1990,
      "Ġhorrible": 1991,
      "Ġsays": 1992,
      "ior": 1993,
      "Ġstop": 1994,
      "Ġgirls": 1995,
      "Ġheard": 1996,
      "Ġeyes": 1997,
      "ient": 1998,
      "Ġmot": 1999,
      "ĠHer": 2000,
      "Ġtook": 2001,
      "Ġmurder": 2002,
      "Ġdocument": 2003,
      "okes": 2004,
      "Ġcinemat": 2005,
      "Ġwin": 2006,
      "Ġkilled": 2007,
      "Ġstru": 2008,
      "ives": 2009,
      "ising": 2010,
      "antly": 2011,
      "Ġperhaps": 2012,
      "Ġwhite": 2013,
      "Ġ,": 2014,
      "Ġcannot": 2015,
      "yp": 2016,
      "antic": 2017,
      "Ġmajor": 2018,
      "els": 2019,
      "Ġhappens": 2020,
      "Ġfore": 2021,
      "tra": 2022,
      "ances": 2023,
      "LL": 2024,
      "Ġweak": 2025,
      "gan": 2026,
      "ma": 2027,
      "gs": 2028,
      "ĠGod": 2029,
      "uge": 2030,
      "Ġridiculous": 2031,
      "owing": 2032,
      "Ġinvolved": 2033,
      "ey": 2034,
      "Ġpredict": 2035,
      "Ġhilar": 2036,
      "What": 2037,
      "Ġhit": 2038,
      "Ġdirected": 2039,
      "eth": 2040,
      "ering": 2041,
      "Ġhusband": 2042,
      "ĠGe": 2043,
      "Ġroom": 2044,
      "urb": 2045,
      "aves": 2046,
      "ences": 2047,
      "Ġtechn": 2048,
      "Ġtype": 2049,
      "Ġsle": 2050,
      "Ġopin": 2051,
      "ats": 2052,
      "AT": 2053,
      "how": 2054,
      "Ġnon": 2055,
      "ĠWhile": 2056,
      "Ġhappened": 2057,
      "Ġexperience": 2058,
      "ĠOf": 2059,
      "Ġresult": 2060,
      "Ġgroup": 2061,
      "Ġprof": 2062,
      "ution": 2063,
      "Ġsol": 2064,
      "Ġbring": 2065,
      "Ġhold": 2066,
      "ĠOr": 2067,
      "ĠRobert": 2068,
      "Ġchang": 2069,
      "Ġbreak": 2070,
      "ters": 2071,
      "ĠWhy": 2072,
      "Ġevent": 2073,
      "Ġtold": 2074,
      "Ġago": 2075,
      "...<": 2076,
      "Ġviolence": 2077,
      "Ġteen": 2078,
      "Ġtele": 2079,
      "side": 2080,
      "ST": 2081,
      "Ġextremely": 2082,
      "mp": 2083,
      "Ġleave": 2084,
      "apan": 2085,
      "Ġfut": 2086,
      "Ġchance": 2087,
      "Ġcrap": 2088,
      "ĠJust": 2089,
      "ique": 2090,
      "zy": 2091,
      "Ġmove": 2092,
      "ĠMay": 2093,
      "Ġwouldn": 2094,
      "Ġage": 2095,
      "Ġswe": 2096,
      "Ġesc": 2097,
      "ĠGer": 2098,
      "ĠEd": 2099,
      "ky": 2100,
      "Ġ200": 2101,
      "Ġcheap": 2102,
      "But": 2103,
      "Ġ6": 2104,
      "aced": 2105,
      "iddle": 2106,
      "Ġquick": 2107,
      "And": 2108,
      "ered": 2109,
      "ots": 2110,
      "Ġhilarious": 2111,
      "Ġpos": 2112,
      "Ġste": 2113,
      "Ġlooked": 2114,
      "Ġstre": 2115,
      "Ġcareer": 2116,
      "ys": 2117,
      "Ġstay": 2118,
      "rest": 2119,
      "ON": 2120,
      "ement": 2121,
      "Ġscore": 2122,
      "ational": 2123,
      "Ġshown": 2124,
      "Ġfoc": 2125,
      "Ġshock": 2126,
      "ĠRich": 2127,
      "ential": 2128,
      "ĠInd": 2129,
      "ĠHar": 2130,
      "ĠJames": 2131,
      "wards": 2132,
      "Ġpolit": 2133,
      "Ġcoming": 2134,
      "Ġdesc": 2135,
      "ĠPe": 2136,
      "Ġhighly": 2137,
      "Ġdisco": 2138,
      "Ġphot": 2139,
      "vision": 2140,
      "Ġapparent": 2141,
      "Ġobviously": 2142,
      "Ġsometimes": 2143,
      "ĠKe": 2144,
      "ĠPet": 2145,
      "Ġsimilar": 2146,
      "Ġsimple": 2147,
      "Ġcomed": 2148,
      "ĠPaul": 2149,
      "ovie": 2150,
      "Ġnumber": 2151,
      "Ġbody": 2152,
      "any": 2153,
      "Ġinde": 2154,
      "RE": 2155,
      "aged": 2156,
      "Ġannoying": 2157,
      "mb": 2158,
      "Ġant": 2159,
      "ĠEnglish": 2160,
      "Ġtaken": 2161,
      "nds": 2162,
      "enty": 2163,
      "Ġdev": 2164,
      "ground": 2165,
      "ĠEvery": 2166,
      "itting": 2167,
      "aim": 2168,
      "Ġang": 2169,
      "lus": 2170,
      "ĠQ": 2171,
      "Ġyourself": 2172,
      "Ġparticularly": 2173,
      "Ġopinion": 2174,
      "nded": 2175,
      "ili": 2176,
      "Ġvar": 2177,
      "Ġhours": 2178,
      "Ġexactly": 2179,
      "iety": 2180,
      "ĠJapan": 2181,
      "ĠOsc": 2182,
      "Ġstrange": 2183,
      "ury": 2184,
      "rence": 2185,
      "Ġgun": 2186,
      "Ġcountry": 2187,
      "Ġtreat": 2188,
      "ino": 2189,
      "Ġones": 2190,
      "Ġunc": 2191,
      "Ġfour": 2192,
      "Ġalone": 2193,
      "Ġdeep": 2194,
      "Ġstarted": 2195,
      "Ġreturn": 2196,
      "Ġhuge": 2197,
      "pping": 2198,
      "Ġwriter": 2199,
      "ones": 2200,
      "Ġill": 2201,
      "Ġlar": 2202,
      "Ġknown": 2203,
      "Ġends": 2204,
      "Ġfinds": 2205,
      "ina": 2206,
      "Ġpay": 2207,
      "rench": 2208,
      "Ġpossible": 2209,
      "Ġsomewhat": 2210,
      "bel": 2211,
      "Ġcool": 2212,
      "Ġgore": 2213,
      "read": 2214,
      "Ġmoder": 2215,
      "Ġdoub": 2216,
      "Ġchange": 2217,
      "Ġreleased": 2218,
      "Ġwhose": 2219,
      "Ġacross": 2220,
      "aces": 2221,
      "Ġusual": 2222,
      "Ġcinematography": 2223,
      "Ġseason": 2224,
      "ator": 2225,
      "Ġprem": 2226,
      "Ġdisc": 2227,
      "Ġfilmm": 2228,
      "ubl": 2229,
      "cks": 2230,
      "Ġopening": 2231,
      "Ġfa": 2232,
      "Ġhot": 2233,
      "outh": 2234,
      "Ġshots": 2235,
      "Ġtalent": 2236,
      "rit": 2237,
      "Ġsubject": 2238,
      "lt": 2239,
      "Ġpot": 2240,
      "Ġzomb": 2241,
      "unt": 2242,
      "lo": 2243,
      "Ġnarr": 2244,
      "ield": 2245,
      "Ġforget": 2246,
      "Ġjokes": 2247,
      "Ġepisodes": 2248,
      "ians": 2249,
      "Ġsaying": 2250,
      "ball": 2251,
      "Ġreality": 2252,
      "ouble": 2253,
      "ĠWar": 2254,
      "Ġpull": 2255,
      "Ġdest": 2256,
      "Ġpolice": 2257,
      "Ġsent": 2258,
      "ĠNow": 2259,
      "Ġdisappointed": 2260,
      "!\"": 2261,
      "wise": 2262,
      "anger": 2263,
      "omp": 2264,
      "Ġorder": 2265,
      "Ġsingle": 2266,
      "Ġfill": 2267,
      "Ġbuild": 2268,
      "!!!!": 2269,
      "Ġproduc": 2270,
      "Ġfemale": 2271,
      "mosp": 2272,
      "Ġwish": 2273,
      "Ġlocal": 2274,
      "Ġliving": 2275,
      "Ġwee": 2276,
      "Ġvict": 2277,
      "Ġrating": 2278,
      "ĠPer": 2279,
      "ron": 2280,
      "Ġsister": 2281,
      "ral": 2282,
      "ĠDavid": 2283,
      "aker": 2284,
      "Ġevents": 2285,
      "Ġtalking": 2286,
      "Al": 2287,
      "Ġmist": 2288,
      "ĠTom": 2289,
      "Ġnear": 2290,
      "Ġprot": 2291,
      "Ġrunning": 2292,
      "Ġsign": 2293,
      "Ġattention": 2294,
      "Ġhonest": 2295,
      "ĠAd": 2296,
      "****": 2297,
      "hetic": 2298,
      "AR": 2299,
      "ush": 2300,
      "Ġremind": 2301,
      "Ġtouch": 2302,
      "Ġatmosp": 2303,
      "light": 2304,
      "real": 2305,
      "Ġimportant": 2306,
      "Ġsave": 2307,
      "Ġturned": 2308,
      "Ġplan": 2309,
      "Ġknew": 2310,
      "Ġdocumentary": 2311,
      "Ġmiddle": 2312,
      "ald": 2313,
      "reci": 2314,
      "lling": 2315,
      "orth": 2316,
      "Ġsongs": 2317,
      "Ġut": 2318,
      "head": 2319,
      "asy": 2320,
      "iction": 2321,
      "oud": 2322,
      "iel": 2323,
      "Ġtells": 2324,
      "Ġsuspense": 2325,
      "ole": 2326,
      "ĠBritish": 2327,
      "ĠNe": 2328,
      "ĠEl": 2329,
      "Ġparent": 2330,
      "Ġmeet": 2331,
      "Ġdespite": 2332,
      "Ġproblems": 2333,
      "uri": 2334,
      "ctor": 2335,
      "Ġsequence": 2336,
      "ING": 2337,
      "ĠJe": 2338,
      "Ġmodern": 2339,
      "rely": 2340,
      "ises": 2341,
      "Ġtaking": 2342,
      "Ġcompl": 2343,
      "ants": 2344,
      "Ġdetail": 2345,
      "Ġair": 2346,
      "ital": 2347,
      "Ġinn": 2348,
      "Ġknows": 2349,
      "Ġ20": 2350,
      "which": 2351,
      "ĠWilliam": 2352,
      "eng": 2353,
      "Ġapart": 2354,
      "Ġsubt": 2355,
      "Ġstraight": 2356,
      "oe": 2357,
      "Ġintellig": 2358,
      "ires": 2359,
      "otic": 2360,
      "iod": 2361,
      "Ġteam": 2362,
      "Ġrespect": 2363,
      "Ġpri": 2364,
      "Ġequ": 2365,
      "Ġaren": 2366,
      "ained": 2367,
      "Ġunf": 2368,
      "Ġscary": 2369,
      "Ġusually": 2370,
      "Ġten": 2371,
      "Ġhop": 2372,
      "Ġhell": 2373,
      "OR": 2374,
      "Ġfuture": 2375,
      "arch": 2376,
      "Ġcomic": 2377,
      "ĠDis": 2378,
      "Ġcontro": 2379,
      "Ġsilly": 2380,
      "Ġdue": 2381,
      "aterial": 2382,
      "orable": 2383,
      "ĠMe": 2384,
      "Ġeasily": 2385,
      "Ġromantic": 2386,
      "Ġincluding": 2387,
      "ris": 2388,
      "Ġve": 2389,
      "ubb": 2390,
      "Ġmark": 2391,
      "Ġquestion": 2392,
      "My": 2393,
      "Ġ!": 2394,
      "Ġamong": 2395,
      "che": 2396,
      "Ġca": 2397,
      "oul": 2398,
      "Ġtelevision": 2399,
      "An": 2400,
      "ichÃ©": 2401,
      "Ġpresent": 2402,
      "Ġaspect": 2403,
      "Ġadult": 2404,
      "Ġsets": 2405,
      "Ġsupporting": 2406,
      "Ġwords": 2407,
      "Ġcart": 2408,
      "Ġland": 2409,
      "Ġappears": 2410,
      "Ġforg": 2411,
      "yond": 2412,
      "Ġhappy": 2413,
      "ĠPr": 2414,
      "ĠYork": 2415,
      "Ġfast": 2416,
      "Ġear": 2417,
      "St": 2418,
      "Ġdull": 2419,
      "Ġpredictable": 2420,
      "Ġmaterial": 2421,
      "Ġenjoyable": 2422,
      "Ġappreci": 2423,
      "ltim": 2424,
      "Ġsexual": 2425,
      "ĠDo": 2426,
      "Ġhands": 2427,
      "Ġclearly": 2428,
      "go": 2429,
      "Ġneeds": 2430,
      "Ġeng": 2431,
      "Ġprog": 2432,
      "Ġfalls": 2433,
      "form": 2434,
      "Ġmostly": 2435,
      "who": 2436,
      "irector": 2437,
      "gy": 2438,
      "rated": 2439,
      "Wh": 2440,
      "back": 2441,
      "asc": 2442,
      "oof": 2443,
      "Ġactual": 2444,
      "nding": 2445,
      "Ġprevious": 2446,
      "Ġbox": 2447,
      "Ġcreep": 2448,
      "ĠTr": 2449,
      "Ġpleas": 2450,
      "ĠOscar": 2451,
      "ara": 2452,
      "Ġodd": 2453,
      "Ġsold": 2454,
      "Ġentertainment": 2455,
      "ĠRichard": 2456,
      "Ġsum": 2457,
      "iest": 2458,
      "Ġways": 2459,
      "Ġgiving": 2460,
      "EN": 2461,
      "Ġnone": 2462,
      "aught": 2463,
      "Ġcheck": 2464,
      "Ġeye": 2465,
      "attle": 2466,
      "estern": 2467,
      "ressed": 2468,
      "Ġsequel": 2469,
      "Ġseriously": 2470,
      "Ġherself": 2471,
      "Ġpoints": 2472,
      "inal": 2473,
      "ĠclichÃ©": 2474,
      "Ġspir": 2475,
      "where": 2476,
      "Ġreve": 2477,
      "Ġfeels": 2478,
      "ension": 2479,
      "Ġ197": 2480,
      "ĠGerman": 2481,
      "ublic": 2482,
      "Ġfeature": 2483,
      "Ġsurprised": 2484,
      "Ġvictim": 2485,
      "Ġflaw": 2486,
      "Ġmessage": 2487,
      "ĠKing": 2488,
      "Ġperiod": 2489,
      "amb": 2490,
      "ĠAny": 2491,
      "ĠCon": 2492,
      "Ġ198": 2493,
      "ĠAm": 2494,
      "Ġsetting": 2495,
      "Ġsecret": 2496,
      "Ġanimation": 2497,
      "Ġmet": 2498,
      "ĠMor": 2499,
      "Ġabove": 2500,
      "Ġadapt": 2501,
      "Ġgang": 2502,
      "Ġdoubt": 2503,
      "ining": 2504,
      "Ġhaven": 2505,
      "Ġexist": 2506,
      "Ġtheme": 2507,
      "Ġstoryline": 2508,
      "Ġcamp": 2509,
      "ĠBen": 2510,
      "Ġclear": 2511,
      "work": 2512,
      "orry": 2513,
      "Ġslight": 2514,
      "Ġattack": 2515,
      "Ġvisual": 2516,
      "track": 2517,
      "Ġru": 2518,
      "ĠPh": 2519,
      "?<": 2520,
      "Ġbunch": 2521,
      "Ġmoving": 2522,
      "ĠLee": 2523,
      "Ġelements": 2524,
      "ficult": 2525,
      "',": 2526,
      "Ġhate": 2527,
      "irt": 2528,
      "ggest": 2529,
      "iment": 2530,
      "Ġemb": 2531,
      "Ġthriller": 2532,
      "aby": 2533,
      "Ġ80": 2534,
      "wr": 2535,
      "arre": 2536,
      "uses": 2537,
      "Ġbegins": 2538,
      "ĠGeorge": 2539,
      "Ġtheat": 2540,
      "ĠIM": 2541,
      "Ġviewers": 2542,
      "atural": 2543,
      "verage": 2544,
      "Ġcomb": 2545,
      "Ġnearly": 2546,
      "Ġfell": 2547,
      "Ġsuperb": 2548,
      "Ġaccept": 2549,
      "Ġwithin": 2550,
      "Ġupon": 2551,
      "Ġdifficult": 2552,
      "Ġbeyond": 2553,
      "ously": 2554,
      "Ġspoil": 2555,
      "Ġdecided": 2556,
      "Ġtried": 2557,
      "row": 2558,
      "Ġmil": 2559,
      "Ġpersonal": 2560,
      "Ġeasy": 2561,
      "Ġsuggest": 2562,
      "Ġmeans": 2563,
      "Ġrelease": 2564,
      "ening": 2565,
      "ĠSam": 2566,
      "Ġsuff": 2567,
      "ĠNOT": 2568,
      "OU": 2569,
      "!)": 2570,
      "oun": 2571,
      "Ġnamed": 2572,
      "ĠSu": 2573,
      "view": 2574,
      "Ġshowing": 2575,
      "Ġbro": 2576,
      "ices": 2577,
      "Ġtre": 2578,
      "Ġcomments": 2579,
      "Ġtwist": 2580,
      "Ġlarge": 2581,
      "Ġinsp": 2582,
      "Ġsoundtrack": 2583,
      "aur": 2584,
      "Ġoverall": 2585,
      "Ġfive": 2586,
      "Ġhear": 2587,
      "Ġclim": 2588,
      "Ġworking": 2589,
      "Ġtrag": 2590,
      "sw": 2591,
      "Ġfigure": 2592,
      "Ġwit": 2593,
      "ett": 2594,
      "Ġdru": 2595,
      "omin": 2596,
      "Ġfantastic": 2597,
      "Ġtypical": 2598,
      "ival": 2599,
      "Ġkept": 2600,
      "Ġtheater": 2601,
      "Ġleads": 2602,
      "Ġtale": 2603,
      "Ġfree": 2604,
      "ceed": 2605,
      "ĠSim": 2606,
      "ĠUS": 2607,
      "incing": 2608,
      "Ġtruth": 2609,
      "Ġusing": 2610,
      "cl": 2611,
      "ially": 2612,
      "ĠPl": 2613,
      "IL": 2614,
      "orld": 2615,
      "Ġstri": 2616,
      "Ġfamous": 2617,
      "Ġediting": 2618,
      "Ġviewing": 2619,
      "ĠDisney": 2620,
      "bs": 2621,
      "atever": 2622,
      "Ġbrought": 2623,
      "!!!": 2624,
      "Ġparticular": 2625,
      "Ġmix": 2626,
      "Ġweird": 2627,
      "af": 2628,
      "Ġatmosphere": 2629,
      "mas": 2630,
      "oor": 2631,
      "lier": 2632,
      "Ġdanc": 2633,
      "Ġsurv": 2634,
      "Ġsequences": 2635,
      "vent": 2636,
      "Ġrealistic": 2637,
      "hic": 2638,
      "let": 2639,
      "Ġintrodu": 2640,
      "Ġwrit": 2641,
      "Ġparents": 2642,
      "ai": 2643,
      "Ġstage": 2644,
      "ively": 2645,
      "Ġpost": 2646,
      "Ġbusiness": 2647,
      "Ġwood": 2648,
      "Ġwhether": 2649,
      "rific": 2650,
      "lin": 2651,
      "ĠAmerica": 2652,
      "Ġwait": 2653,
      "Ġbackground": 2654,
      "dden": 2655,
      "of": 2656,
      "Ġnorm": 2657,
      "Ġreviews": 2658,
      "Ġred": 2659,
      "Ġobs": 2660,
      "Ġbuy": 2661,
      "ĠFrench": 2662,
      "Ġpremise": 2663,
      "Ġgreatest": 2664,
      "rey": 2665,
      "Ġund": 2666,
      "Ġlame": 2667,
      "Ġrese": 2668,
      "Ġspeak": 2669,
      "Ġiss": 2670,
      "oose": 2671,
      "ĠChe": 2672,
      "Ġexpected": 2673,
      "Ġsil": 2674,
      "Ġcity": 2675,
      "aling": 2676,
      "host": 2677,
      "Ġfilmed": 2678,
      "ĠCol": 2679,
      "Ġbelievable": 2680,
      "So": 2681,
      "Ġcat": 2682,
      "ĠSm": 2683,
      "Ġcrime": 2684,
      "ĠJim": 2685,
      "Ġ199": 2686,
      "?\"": 2687,
      "Ġsoc": 2688,
      "Ġdesign": 2689,
      "Ġbasically": 2690,
      "Ġstrugg": 2691,
      "bers": 2692,
      "Ġbecame": 2693,
      "ĠAlthough": 2694,
      "kay": 2695,
      "Ġstun": 2696,
      "'.": 2697,
      "urther": 2698,
      "Ġfront": 2699,
      "ana": 2700,
      "avy": 2701,
      "ged": 2702,
      "verall": 2703,
      "Ġexec": 2704,
      "Ġutter": 2705,
      "Ġpure": 2706,
      "lfriend": 2707,
      "Ġnature": 2708,
      "ĠFrank": 2709,
      "iences": 2710,
      "ges": 2711,
      "Ġlaw": 2712,
      "Ġsudden": 2713,
      "Ġpoorly": 2714,
      "Ġavoid": 2715,
      "Ġappro": 2716,
      "esy": 2717,
      "ĠMaybe": 2718,
      "ĠItal": 2719,
      "ear": 2720,
      "Ġrock": 2721,
      "ĠUnfortunately": 2722,
      "ĠPeter": 2723,
      "ĠJapanese": 2724,
      "Ġmeaning": 2725,
      "ES": 2726,
      "Ġ*": 2727,
      "lor": 2728,
      "spect": 2729,
      "Ġcur": 2730,
      "Ġultim": 2731,
      "Ġleaves": 2732,
      "Ġdumb": 2733,
      "ĠOK": 2734,
      "ogn": 2735,
      "Ġlos": 2736,
      "ĠDr": 2737,
      "hood": 2738,
      "Ġapparently": 2739,
      "Ġaverage": 2740,
      "Ġneeded": 2741,
      "Ġsurprise": 2742,
      "Ġlim": 2743,
      "ills": 2744,
      "You": 2745,
      "bor": 2746,
      "Ġtast": 2747,
      "ĠOh": 2748,
      "cted": 2749,
      "Ġmystery": 2750,
      "Ġbar": 2751,
      "icks": 2752,
      "hys": 2753,
      "more": 2754,
      "Ġment": 2755,
      "Ġdie": 2756,
      "piece": 2757,
      "ĠMost": 2758,
      "Ġvillain": 2759,
      "Ġsituation": 2760,
      "Ġsens": 2761,
      "Ġfire": 2762,
      "irc": 2763,
      "Ġlots": 2764,
      "pend": 2765,
      "ĠGu": 2766,
      "rom": 2767,
      "Ġmale": 2768,
      "Ġthird": 2769,
      "EA": 2770,
      "set": 2771,
      "Ġbored": 2772,
      "Ġcredits": 2773,
      "One": 2774,
      "uro": 2775,
      "Ġproject": 2776,
      "Ġkilling": 2777,
      "anks": 2778,
      "ĠWho": 2779,
      "Ġcostum": 2780,
      "Ġer": 2781,
      "Ġforced": 2782,
      "Ġrealize": 2783,
      "Ġcap": 2784,
      "Ġpublic": 2785,
      "Ġliter": 2786,
      "Ġgone": 2787,
      "Ġmeant": 2788,
      "Th": 2789,
      "Ġadvent": 2790,
      "Ġearlier": 2791,
      "Ġwind": 2792,
      "ager": 2793,
      "udd": 2794,
      "Ġmemorable": 2795,
      "Ġemotional": 2796,
      "When": 2797,
      "Ġid": 2798,
      "ored": 2799,
      "time": 2800,
      "ĠMart": 2801,
      "Ġinte": 2802,
      "Ġmeets": 2803,
      "Ġwrite": 2804,
      "Ch": 2805,
      "isf": 2806,
      "ĠNight": 2807,
      "ĠScott": 2808,
      "bert": 2809,
      "erry": 2810,
      "Ġsomehow": 2811,
      "chie": 2812,
      "Ġunique": 2813,
      "Ġtrad": 2814,
      "Ġemotion": 2815,
      "ĠIMD": 2816,
      "urd": 2817,
      "ppy": 2818,
      "Ġminute": 2819,
      "king": 2820,
      "inger": 2821,
      "ĠCan": 2822,
      "Ġinterested": 2823,
      "Ġfootage": 2824,
      "key": 2825,
      "Ġolder": 2826,
      "rif": 2827,
      "Ġprop": 2828,
      "Ġresp": 2829,
      "Ġscreenplay": 2830,
      "Ġkeeps": 2831,
      "well": 2832,
      "Ġshame": 2833,
      "Ġlaughs": 2834,
      "Ġ30": 2835,
      "ĠTim": 2836,
      "Ġreading": 2837,
      "Ġoper": 2838,
      "Ġconcept": 2839,
      "Ġdisturb": 2840,
      "ĠGra": 2841,
      "Ġpossibly": 2842,
      "fer": 2843,
      "Ġbel": 2844,
      "ĠSch": 2845,
      "Ġunlike": 2846,
      "Ġdirectors": 2847,
      "Ġexpress": 2848,
      "por": 2849,
      "Ġdance": 2850,
      "Ġsociety": 2851,
      "Ġallow": 2852,
      "acing": 2853,
      "friend": 2854,
      "look": 2855,
      "Ġfasc": 2856,
      "Ġconne": 2857,
      "cessary": 2858,
      "Ġfeatures": 2859,
      "cious": 2860,
      "Âħ": 2861,
      "Ġbadly": 2862,
      "Ġ70": 2863,
      "Ġquickly": 2864,
      "Ġmill": 2865,
      "Ġdam": 2866,
      "Ġforward": 2867,
      "uel": 2868,
      "Ġworked": 2869,
      "Ġgrand": 2870,
      "Ġpopular": 2871,
      "Ġprofess": 2872,
      "Ġyes": 2873,
      "ĠAN": 2874,
      "ĠAng": 2875,
      "Ġbrings": 2876,
      "Ġsick": 2877,
      "ĠPar": 2878,
      "angu": 2879,
      "ĠJoe": 2880,
      "Ġdramatic": 2881,
      "Ġ$": 2882,
      "Ġ/>\"": 2883,
      "Ġnor": 2884,
      "ĠWood": 2885,
      "Ġanyway": 2886,
      "Ġperfectly": 2887,
      "iliar": 2888,
      "All": 2889,
      "acy": 2890,
      "Ġimagine": 2891,
      "Ġdevelopment": 2892,
      "?)": 2893,
      "ele": 2894,
      "Ġgirlfriend": 2895,
      "Ġadmit": 2896,
      "ula": 2897,
      "Ġromance": 2898,
      "ived": 2899,
      "Ġstere": 2900,
      "ĠThese": 2901,
      "Ġwriters": 2902,
      "reed": 2903,
      "allow": 2904,
      "this": 2905,
      "ĠIts": 2906,
      "Ġgeneral": 2907,
      "Ġcreepy": 2908,
      "onic": 2909,
      "ĠMat": 2910,
      "Ġrob": 2911,
      "belie": 2912,
      "ĠBy": 2913,
      "zz": 2914,
      "Ġdirecting": 2915,
      "hel": 2916,
      "ries": 2917,
      "Ġ`": 2918,
      "ĠTw": 2919,
      "ius": 2920,
      "iny": 2921,
      "Ġband": 2922,
      "Ġcatch": 2923,
      "erv": 2924,
      "Ġflat": 2925,
      "Ġ195": 2926,
      "arring": 2927,
      "Ġfails": 2928,
      "ĠLike": 2929,
      "Ġclever": 2930,
      "Ġpotential": 2931,
      "erm": 2932,
      "ashing": 2933,
      "Ġcopy": 2934,
      "over": 2935,
      "Ġmad": 2936,
      "Ġagree": 2937,
      "Ġsleep": 2938,
      "Ġeventually": 2939,
      "Ġtowards": 2940,
      "Ġbattle": 2941,
      "Ġnud": 2942,
      "ague": 2943,
      "ĠJul": 2944,
      "Ġimm": 2945,
      "Ġcreate": 2946,
      "Ġjoke": 2947,
      "Ġcheesy": 2948,
      "ĠGood": 2949,
      "Ġwhom": 2950,
      "Ġenc": 2951,
      "Ġpowerful": 2952,
      "Ġcartoon": 2953,
      "Ġoccas": 2954,
      "ĠJane": 2955,
      "ĠYes": 2956,
      "ĠInst": 2957,
      "Ġhistor": 2958,
      "Ġpurp": 2959,
      "Ġvarious": 2960,
      "Ġcry": 2961,
      "arl": 2962,
      "ases": 2963,
      "Ġrepe": 2964,
      "Ġrecogn": 2965,
      "Ġprison": 2966,
      "ero": 2967,
      "oman": 2968,
      "Ġamount": 2969,
      "Ġattract": 2970,
      "Ġ90": 2971,
      "venge": 2972,
      "ivid": 2973,
      "een": 2974,
      "vered": 2975,
      "ĠChristmas": 2976,
      "Ġreasons": 2977,
      "Ġincredibly": 2978,
      "kn": 2979,
      "Ġideas": 2980,
      "Ġplease": 2981,
      "with": 2982,
      "Ġsocial": 2983,
      "Ġinnoc": 2984,
      "Ġstereot": 2985,
      "IS": 2986,
      "iver": 2987,
      "Ġbare": 2988,
      "aked": 2989,
      "ivers": 2990,
      "Ġplain": 2991,
      "Ġleading": 2992,
      "ĠFrom": 2993,
      "action": 2994,
      "Ġ193": 2995,
      "Ġ...": 2996,
      "Ġaut": 2997,
      "ĠFilm": 2998,
      "Ġinvest": 2999,
      "Ġportrayed": 3000,
      "Ġdeserves": 3001,
      "ĠEx": 3002,
      "Ġclaim": 3003,
      "Ġspace": 3004,
      "Ġign": 3005,
      "arrass": 3006,
      "Ġmanages": 3007,
      "Ġcommun": 3008,
      "Ġtotal": 3009,
      "Ġexpecting": 3010,
      "Ġsweet": 3011,
      "ĠIMDb": 3012,
      "mist": 3013,
      "Ġ:": 3014,
      "ĠFirst": 3015,
      "Ġcasting": 3016,
      "Ġcollect": 3017,
      "Ġpositive": 3018,
      "Ġspirit": 3019,
      "ĠFred": 3020,
      "Ġattempts": 3021,
      "Ġmasterpiece": 3022,
      "Ġest": 3023,
      "Ġmatch": 3024,
      "Ġstep": 3025,
      "itty": 3026,
      "vin": 3027,
      "ĠCom": 3028,
      "Ġneg": 3029,
      "berg": 3030,
      "Ġcover": 3031,
      "Ġfantasy": 3032,
      "oles": 3033,
      "Ġrevol": 3034,
      "Ġindeed": 3035,
      "wart": 3036,
      "Ġjour": 3037,
      "Ġrich": 3038,
      "su": 3039,
      "Ġcond": 3040,
      "ĠAf": 3041,
      "Ġsounds": 3042,
      "Ġphys": 3043,
      "Ġplenty": 3044,
      "ĠEm": 3045,
      "ology": 3046,
      "Ġcolle": 3047,
      "Ġembarrass": 3048,
      "ĠEuro": 3049,
      "ips": 3050,
      "Ġdesper": 3051,
      "\")": 3052,
      "For": 3053,
      "Ġess": 3054,
      "Ġcirc": 3055,
      "Ġacted": 3056,
      "Ġfairly": 3057,
      "Ġpolitical": 3058,
      "Ġmissing": 3059,
      "How": 3060,
      "Ġachie": 3061,
      "Ġremake": 3062,
      "asher": 3063,
      "iller": 3064,
      "pper": 3065,
      "elly": 3066,
      "Ġbeauty": 3067,
      "Ġextra": 3068,
      "ĠLu": 3069,
      "itted": 3070,
      "ford": 3071,
      "Ġfighting": 3072,
      "ĠQu": 3073,
      "ask": 3074,
      "lex": 3075,
      "Ġoutside": 3076,
      "Ġnudity": 3077,
      "ĠAust": 3078,
      "Ġmurd": 3079,
      "medi": 3080,
      "Ġlangu": 3081,
      "Ġsymp": 3082,
      "gest": 3083,
      "ze": 3084,
      "unny": 3085,
      "ĠStre": 3086,
      "Ġinside": 3087,
      "Ġtalented": 3088,
      "val": 3089,
      "ĠBra": 3090,
      "Ġaf": 3091,
      "Ġfurther": 3092,
      "Ġhom": 3093,
      "Ġexplain": 3094,
      "Ġcrew": 3095,
      "Ġhardly": 3096,
      "andy": 3097,
      "Ġremark": 3098,
      "Ġrecently": 3099,
      "Ġfamiliar": 3100,
      "Ġmarried": 3101,
      "Ġgay": 3102,
      "iff": 3103,
      "Ġtelling": 3104,
      "Ġwasted": 3105,
      "Ġnote": 3106,
      "Ġcrazy": 3107,
      "Ġrelig": 3108,
      "idden": 3109,
      "Ġfilmmakers": 3110,
      "Ġident": 3111,
      "irl": 3112,
      "Ġdog": 3113,
      "Ġmentioned": 3114,
      "cked": 3115,
      "TH": 3116,
      "Ġlady": 3117,
      "agon": 3118,
      "iving": 3119,
      "Ġera": 3120,
      "Ġaff": 3121,
      "Ġscient": 3122,
      "resh": 3123,
      "Ġdecides": 3124,
      "bo": 3125,
      "ades": 3126,
      "Ġansw": 3127,
      "Ġdestro": 3128,
      "Ġbed": 3129,
      "alth": 3130,
      "ĠGold": 3131,
      "Ġtrail": 3132,
      "lusion": 3133,
      "OO": 3134,
      "Ġcaught": 3135,
      "izing": 3136,
      "Ġdelight": 3137,
      "Ġrequ": 3138,
      "iously": 3139,
      "Ġclos": 3140,
      "Ġmissed": 3141,
      "Ġmembers": 3142,
      "olf": 3143,
      "Ġdepth": 3144,
      "Ġcommon": 3145,
      "Ġmid": 3146,
      "Ġaccident": 3147,
      "ding": 3148,
      "ites": 3149,
      "ened": 3150,
      "Ġpace": 3151,
      "Ġstat": 3152,
      "Ġscream": 3153,
      "Ġended": 3154,
      "Ġsorry": 3155,
      "lying": 3156,
      "Ġhair": 3157,
      "Ġintri": 3158,
      "Ġunbelie": 3159,
      "ĠBlack": 3160,
      "bl": 3161,
      "Ġvamp": 3162,
      "Ġrecord": 3163,
      "Ġcomplex": 3164,
      "Ġdraw": 3165,
      "Ġmel": 3166,
      "Ġbiz": 3167,
      "uter": 3168,
      "uted": 3169,
      "Ġuses": 3170,
      "Ġexplo": 3171,
      "par": 3172,
      "Ġcute": 3173,
      "Ġwhatever": 3174,
      "Ġsees": 3175,
      "room": 3176,
      "Ġ(\"": 3177,
      "Ġflash": 3178,
      "Ġmedi": 3179,
      "cent": 3180,
      "Ġimmedi": 3181,
      "imp": 3182,
      "ishing": 3183,
      "Ġrece": 3184,
      "ĠMary": 3185,
      "Ġfunn": 3186,
      "ossible": 3187,
      "Ġconvincing": 3188,
      "Ġwaiting": 3189,
      "come": 3190,
      "aine": 3191,
      "ĠPat": 3192,
      "ictor": 3193,
      "Ġimpro": 3194,
      "ĠBill": 3195,
      "ĠWorld": 3196,
      "Ġcredit": 3197,
      "Ġble": 3198,
      "Ġhy": 3199,
      "Ġspent": 3200,
      "Ġcreated": 3201,
      "cher": 3202,
      "Ġmod": 3203,
      "Ġporn": 3204,
      "oop": 3205,
      "ĠDes": 3206,
      "Ġwrote": 3207,
      "Ġslightly": 3208,
      "ĠEurope": 3209,
      "ibility": 3210,
      "Ġentirely": 3211,
      "Ġrap": 3212,
      "ĠBar": 3213,
      "Ġbrief": 3214,
      "Ġtension": 3215,
      "ieces": 3216,
      "ĠHere": 3217,
      "Ġamb": 3218,
      "Ġformer": 3219,
      "ĠStar": 3220,
      "Ġmonster": 3221,
      "Ġsolid": 3222,
      "vil": 3223,
      "itation": 3224,
      "ette": 3225,
      "rage": 3226,
      "ĠWatch": 3227,
      "Ġrate": 3228,
      "Ġoffic": 3229,
      "Ġcontrol": 3230,
      "Ġidi": 3231,
      "ĠMac": 3232,
      "acher": 3233,
      "ha": 3234,
      "lict": 3235,
      "alt": 3236,
      "Ġmoves": 3237,
      "Ġpointless": 3238,
      "ĠOther": 3239,
      "inating": 3240,
      "Ġwall": 3241,
      "ĠIr": 3242,
      "iced": 3243,
      "Ġstick": 3244,
      "Ġlaughing": 3245,
      "VER": 3246,
      "Ġwater": 3247,
      "uine": 3248,
      "Ġghost": 3249,
      "vern": 3250,
      "Ġchoice": 3251,
      "Ġsuccessful": 3252,
      "Ġcolor": 3253,
      "esome": 3254,
      "Ġine": 3255,
      "eless": 3256,
      "Ġ15": 3257,
      "lu": 3258,
      "men": 3259,
      "Ġmass": 3260,
      "aging": 3261,
      "con": 3262,
      "emy": 3263,
      "gend": 3264,
      "ective": 3265,
      "while": 3266,
      "ĠInstead": 3267,
      "Ġ196": 3268,
      "Ġaccent": 3269,
      "Ġsatisf": 3270,
      "Ġvalue": 3271,
      "Ġescape": 3272,
      "isingly": 3273,
      "ĠTra": 3274,
      "Ġrad": 3275,
      "ashion": 3276,
      "Ġportrayal": 3277,
      "OW": 3278,
      "ĠSer": 3279,
      "Ġboys": 3280,
      "On": 3281,
      "str": 3282,
      "ĠMad": 3283,
      "oph": 3284,
      "Ġeffective": 3285,
      "Ġfollowing": 3286,
      "Ġintelligent": 3287,
      "Ġappreciate": 3288,
      "ilt": 3289,
      "rian": 3290,
      "Ġunfortunately": 3291,
      "Ġslasher": 3292,
      "standing": 3293,
      "Ġexciting": 3294,
      "uthor": 3295,
      "Ġsubtle": 3296,
      "ED": 3297,
      "iers": 3298,
      "inary": 3299,
      "Ġjud": 3300,
      "Ġrecent": 3301,
      "ĠItalian": 3302,
      "mon": 3303,
      "Ġkills": 3304,
      "Ġtravel": 3305,
      "Ġbiggest": 3306,
      "oes": 3307,
      "Ġwild": 3308,
      "Ġarri": 3309,
      "boy": 3310,
      "Ġjump": 3311,
      "Ġcompe": 3312,
      "cast": 3313,
      "Ġstore": 3314,
      "Ġspend": 3315,
      "Ġmach": 3316,
      "Ġgenuine": 3317,
      "Ġconcern": 3318,
      "Ġzombie": 3319,
      "Ġbreat": 3320,
      "Ġdied": 3321,
      "ĠRed": 3322,
      "Ġamusing": 3323,
      "Ġbrain": 3324,
      "Ġincredible": 3325,
      "Ġforgot": 3326,
      "ging": 3327,
      "Ġfollows": 3328,
      "Well": 3329,
      "ĠRock": 3330,
      "000": 3331,
      "aven": 3332,
      "ĠBur": 3333,
      "ĠBig": 3334,
      "ĠGreat": 3335,
      "Ġfocus": 3336,
      "Ġstereotyp": 3337,
      "cing": 3338,
      "Ġcritic": 3339,
      "Ġopportun": 3340,
      "PO": 3341,
      "itary": 3342,
      "ĠMon": 3343,
      "ĠDead": 3344,
      "ateur": 3345,
      "Ġfit": 3346,
      "ĠBat": 3347,
      "Ġcontr": 3348,
      "Ġrepres": 3349,
      "Ġimpressive": 3350,
      "idered": 3351,
      "Ġyounger": 3352,
      "Ġdancing": 3353,
      "mistry": 3354,
      "Ġbooks": 3355,
      "Ġsinging": 3356,
      "Ġlanguage": 3357,
      "ĠII": 3358,
      "ĠAct": 3359,
      "bb": 3360,
      "even": 3361,
      "lect": 3362,
      "Ġearth": 3363,
      "Ġrede": 3364,
      "Ġglad": 3365,
      "Ġdepict": 3366,
      "Ġshowed": 3367,
      "Ġproduced": 3368,
      "Don": 3369,
      "Ġexception": 3370,
      "Ġweek": 3371,
      "Ġtort": 3372,
      "Ġsoul": 3373,
      "Ġball": 3374,
      "Ġweren": 3375,
      "Ġbrut": 3376,
      "ribly": 3377,
      "Ġcontinu": 3378,
      "Ġbizarre": 3379,
      "Ġfol": 3380,
      "Ġsuspect": 3381,
      "ĠPro": 3382,
      "ĠAfric": 3383,
      "rel": 3384,
      "Ġtrouble": 3385,
      "Ġdecide": 3386,
      "Ġcompared": 3387,
      "Ġsituations": 3388,
      "ĠLou": 3389,
      "Ġcrim": 3390,
      "ĠPark": 3391,
      "no": 3392,
      "arily": 3393,
      "une": 3394,
      "Ġotherwise": 3395,
      "ĠVan": 3396,
      "Ġchanged": 3397,
      "ener": 3398,
      "Ġ50": 3399,
      "Ġfilled": 3400,
      "Ġdanger": 3401,
      "Ġluck": 3402,
      "ĠVictor": 3403,
      "Ġground": 3404,
      "Ġsuddenly": 3405,
      "OM": 3406,
      "Ġrevenge": 3407,
      "Ġchemistry": 3408,
      "Ġconsidered": 3409,
      "ĠHouse": 3410,
      "Ġmanner": 3411,
      "Ġtrip": 3412,
      "Ġviolent": 3413,
      "Ġpurpose": 3414,
      "Ġpract": 3415,
      "Ġlonger": 3416,
      "Ġwestern": 3417,
      "Ġgarb": 3418,
      "irty": 3419,
      "ĠCor": 3420,
      "ĠHor": 3421,
      "ĠEn": 3422,
      "Ġruns": 3423,
      "Ġquestions": 3424,
      "Ġmagic": 3425,
      "eg": 3426,
      "ified": 3427,
      "Ġunin": 3428,
      "ondon": 3429,
      "Ġspot": 3430,
      "Ġfailed": 3431,
      "Ġdisturbing": 3432,
      "rect": 3433,
      "sters": 3434,
      "ĠSmith": 3435,
      "ares": 3436,
      "iles": 3437,
      "Ġfear": 3438,
      "Ġcarry": 3439,
      "fort": 3440,
      "Ġbother": 3441,
      "ĠCra": 3442,
      "Ġdoll": 3443,
      "Ġamateur": 3444,
      "Ġstudio": 3445,
      "Ġanti": 3446,
      "Not": 3447,
      "owers": 3448,
      "plic": 3449,
      "Ġcompet": 3450,
      "Ġconclusion": 3451,
      "Ġawesome": 3452,
      "Ġfat": 3453,
      "ĠTony": 3454,
      "ization": 3455,
      "Ġfavour": 3456,
      "Ġbarely": 3457,
      "Ġmer": 3458,
      "Ġsuit": 3459,
      "Ġtrash": 3460,
      "Ġappeal": 3461,
      "annel": 3462,
      "gl": 3463,
      "Ġtough": 3464,
      "Ġbull": 3465,
      "Ġbaby": 3466,
      "iding": 3467,
      "appe": 3468,
      "Ġaudiences": 3469,
      "fi": 3470,
      "ales": 3471,
      "sequ": 3472,
      "Ġunless": 3473,
      "Ġtaste": 3474,
      "aper": 3475,
      "Ġshooting": 3476,
      "Ġproducers": 3477,
      "LE": 3478,
      "Ġsuc": 3479,
      "Ġvalues": 3480,
      "Ġlikes": 3481,
      "Ġredeem": 3482,
      "min": 3483,
      "Ġaffect": 3484,
      "Ġdoctor": 3485,
      "Ġparty": 3486,
      "known": 3487,
      "Ġroll": 3488,
      "Ġassum": 3489,
      "Ġprogram": 3490,
      "aus": 3491,
      "inn": 3492,
      "Ġsav": 3493,
      "thur": 3494,
      "opher": 3495,
      "Ġoffice": 3496,
      "Ġimpossible": 3497,
      "rupt": 3498,
      "Ġregard": 3499,
      "ength": 3500,
      "Ġpers": 3501,
      "Ġnatural": 3502,
      "Ġmood": 3503,
      "Ġinvolving": 3504,
      "Ġfaith": 3505,
      "Ġstate": 3506,
      "ille": 3507,
      "Ġ194": 3508,
      "Ġimages": 3509,
      "Ġsqu": 3510,
      "Ġfake": 3511,
      "ĠMel": 3512,
      "Ġtrack": 3513,
      "***": 3514,
      "First": 3515,
      "Ġauthor": 3516,
      "Ġability": 3517,
      "Ġdisg": 3518,
      "ĠStan": 3519,
      "Ġproduct": 3520,
      "Ġanimated": 3521,
      "Ġculture": 3522,
      "Ġbought": 3523,
      "Ġheavy": 3524,
      "ĠLondon": 3525,
      "Ġcharming": 3526,
      "ensive": 3527,
      "Ġrare": 3528,
      "formation": 3529,
      "war": 3530,
      "Ġhang": 3531,
      "ĠMovie": 3532,
      "ĠRuss": 3533,
      "Ġhumour": 3534,
      "Ġimpression": 3535,
      "Ġcollege": 3536,
      "lessly": 3537,
      "ottom": 3538,
      "Ġstunning": 3539,
      "\".<": 3540,
      "Ġcold": 3541,
      "iring": 3542,
      "riage": 3543,
      "Ġkick": 3544,
      "Ġneigh": 3545,
      "Ġrand": 3546,
      "Ġcompany": 3547,
      "Ġappearance": 3548,
      "Ġsucceed": 3549,
      "Ġloud": 3550,
      "Ġimmediately": 3551,
      "Ġgarbage": 3552,
      "uk": 3553,
      "Ġcomputer": 3554,
      "anna": 3555,
      "mark": 3556,
      "night": 3557,
      "Ġtest": 3558,
      "Ġrefe": 3559,
      "ĠAlex": 3560,
      "Ġunex": 3561,
      "Ġclot": 3562,
      "ĠAnn": 3563,
      "Ġbasic": 3564,
      "Ġadventure": 3565,
      "ĠCity": 3566,
      "Ġdoor": 3567,
      "Ġleaving": 3568,
      "ĠOF": 3569,
      "izes": 3570,
      "Ġcross": 3571,
      "ĠBest": 3572,
      "Ġpathetic": 3573,
      "Ġstreet": 3574,
      "rid": 3575,
      "iche": 3576,
      "ecause": 3577,
      "Ġsympat": 3578,
      "urch": 3579,
      "Ġinsult": 3580,
      "Ġadaptation": 3581,
      "Ġobsess": 3582,
      "Ġbeat": 3583,
      "Ġsci": 3584,
      "Ġultimately": 3585,
      "anic": 3586,
      "idence": 3587,
      "ĠBro": 3588,
      "Ġminor": 3589,
      "movie": 3590,
      "ĠAnt": 3591,
      "Ġcontri": 3592,
      "Ġreveal": 3593,
      "Ġutterly": 3594,
      "Be": 3595,
      "round": 3596,
      "Ġfashion": 3597,
      "vey": 3598,
      "ĠSuper": 3599,
      "rend": 3600,
      "vert": 3601,
      "Ġtradition": 3602,
      "Ġinvestig": 3603,
      "Ġrandom": 3604,
      "Ġspect": 3605,
      "that": 3606,
      "reg": 3607,
      "Ġnumb": 3608,
      "ĠHam": 3609,
      "ĠRo": 3610,
      "ĠEarth": 3611,
      "aire": 3612,
      "ena": 3613,
      "Ġgovern": 3614,
      "ressing": 3615,
      "stem": 3616,
      "ĠST": 3617,
      "ĠLuc": 3618,
      "Ġuns": 3619,
      "Ġ100": 3620,
      "Ġgenius": 3621,
      "Ġterror": 3622,
      "Ġterms": 3623,
      "ological": 3624,
      "Ġoccur": 3625,
      "Ġclimax": 3626,
      "We": 3627,
      "Ġthinks": 3628,
      "Ġsomewhere": 3629,
      "AS": 3630,
      "After": 3631,
      "Ġpack": 3632,
      "ĠWay": 3633,
      "ify": 3634,
      "ĠLove": 3635,
      "Ġneither": 3636,
      "ode": 3637,
      "ĠStewart": 3638,
      "Ġdeliver": 3639,
      "Ġapproach": 3640,
      "Ġmult": 3641,
      "Ġlab": 3642,
      "Ġaccur": 3643,
      "Ġabsurd": 3644,
      "Ġconsidering": 3645,
      "you": 3646,
      "Ġdad": 3647,
      "Ġgrap": 3648,
      "Ġseg": 3649,
      "ILER": 3650,
      "Ġsitting": 3651,
      "Ġpu": 3652,
      "Ġstarring": 3653,
      "ĠBoy": 3654,
      "unting": 3655,
      "house": 3656,
      "Ġsearch": 3657,
      "Ġgod": 3658,
      "Ġroad": 3659,
      "ĠHarry": 3660,
      "Ġcause": 3661,
      "ĠMur": 3662,
      "anda": 3663,
      "Ġmanaged": 3664,
      "Ġpun": 3665,
      "ĠChristian": 3666,
      "iven": 3667,
      "Ġstandard": 3668,
      "Ġdig": 3669,
      "Ġindust": 3670,
      "POILER": 3671,
      "reaking": 3672,
      "itions": 3673,
      "Ġlau": 3674,
      "ĠHen": 3675,
      "Ġdef": 3676,
      "Ġadded": 3677,
      "ropri": 3678,
      "ĠIndian": 3679,
      "Ġtouching": 3680,
      "Ġfresh": 3681,
      "Ġnotice": 3682,
      "uster": 3683,
      "Ġdefe": 3684,
      "Ġunbelievable": 3685,
      "Ġrepl": 3686,
      "Ġlikely": 3687,
      "Ġgenerally": 3688,
      "ID": 3689,
      "aff": 3690,
      "yle": 3691,
      "Ġfully": 3692,
      "ĠJeff": 3693,
      "Ġnormal": 3694,
      "mm": 3695,
      "ĠBru": 3696,
      "Ġcharm": 3697,
      "Ġthemes": 3698,
      "Ġterrific": 3699,
      "ĠSteve": 3700,
      "To": 3701,
      "Ġtone": 3702,
      "Ġgem": 3703,
      "uts": 3704,
      "Ġforce": 3705,
      "ĠHarr": 3706,
      "elling": 3707,
      "Ġcomedies": 3708,
      "Ġnarrative": 3709,
      "Sh": 3710,
      "vir": 3711,
      "Ġthreat": 3712,
      "Ġtwists": 3713,
      "Ġremains": 3714,
      "Ġnowhere": 3715,
      "OV": 3716,
      "Ġcuri": 3717,
      "awn": 3718,
      "Ġaddition": 3719,
      "Ġconstantly": 3720,
      "making": 3721,
      "Ġsix": 3722,
      "Ġserial": 3723,
      "Ġconflict": 3724,
      "Ġmonth": 3725,
      "Ġdrive": 3726,
      "Ġmistake": 3727,
      "ĠKelly": 3728,
      "Ġlaughable": 3729,
      "aining": 3730,
      "Ġpresence": 3731,
      "played": 3732,
      "Ġliterally": 3733,
      "BC": 3734,
      "esides": 3735,
      "Ġdro": 3736,
      "Ġgag": 3737,
      "ands": 3738,
      "ailable": 3739,
      "Ġ40": 3740,
      "ĠPerhaps": 3741,
      "Ġissues": 3742,
      "Ġsystem": 3743,
      "Ġzombies": 3744,
      "Ġintrigu": 3745,
      "AD": 3746,
      "He": 3747,
      "cer": 3748,
      "riff": 3749,
      "rag": 3750,
      "Ġbeautifully": 3751,
      "Ġpresented": 3752,
      "Ġelement": 3753,
      "Ġrespons": 3754,
      "At": 3755,
      "lyn": 3756,
      "anted": 3757,
      "oughly": 3758,
      "orts": 3759,
      "Ġfinish": 3760,
      "ring": 3761,
      "ĠSw": 3762,
      "Ġscenery": 3763,
      "Ġsexy": 3764,
      "ĠCharlie": 3765,
      "Ġcostumes": 3766,
      "Ġboss": 3767,
      "Ġoffe": 3768,
      "irth": 3769,
      "Ġjo": 3770,
      "Ġinterview": 3771,
      "Ġpictures": 3772,
      "Ġequally": 3773,
      "Ġmilitary": 3774,
      "Ġcho": 3775,
      "Ġtrain": 3776,
      "Ġpainful": 3777,
      "Ġwitness": 3778,
      "part": 3779,
      "lease": 3780,
      "Ġsto": 3781,
      "ĠCal": 3782,
      "ĠDen": 3783,
      "estival": 3784,
      "ability": 3785,
      "Ġprep": 3786,
      "Ġcinematic": 3787,
      "Ġsurprisingly": 3788,
      "Ġdisappointing": 3789,
      "Ġindivid": 3790,
      "ision": 3791,
      "Ġplaces": 3792,
      "Ġthrow": 3793,
      "Ġthrown": 3794,
      "Ġdrawn": 3795,
      "Ġbomb": 3796,
      "Ġartist": 3797,
      "Ġdetails": 3798,
      "icated": 3799,
      "Ġleg": 3800,
      "ached": 3801,
      "Ġoffer": 3802,
      "rences": 3803,
      "Ġmarriage": 3804,
      "Ġdisappointment": 3805,
      "Ġflashback": 3806,
      "Ġmakers": 3807,
      "Ġur": 3808,
      "Ġscience": 3809,
      "Ġsmart": 3810,
      "IT": 3811,
      "That": 3812,
      "Ġchall": 3813,
      "Ġalive": 3814,
      "Ġexcuse": 3815,
      "ĠAdam": 3816,
      "Ġaspects": 3817,
      "ĠSure": 3818,
      "ĠMiss": 3819,
      "Ġknowing": 3820,
      "Ġdreams": 3821,
      "Ġ60": 3822,
      "Ġinnocent": 3823,
      "cle": 3824,
      "heart": 3825,
      "ĠBer": 3826,
      "Ġstands": 3827,
      "face": 3828,
      "itude": 3829,
      "Ġhar": 3830,
      "ribe": 3831,
      "Ġlog": 3832,
      "Ġexpectations": 3833,
      "just": 3834,
      "Ġfeelings": 3835,
      "Ġsuppose": 3836,
      "Ġanimals": 3837,
      "Ġescap": 3838,
      "Ġdestroy": 3839,
      "ĠCr": 3840,
      "ĠDirector": 3841,
      "Ġoutstanding": 3842,
      "Ġslowly": 3843,
      "Ġinflu": 3844,
      "ĠPeople": 3845,
      "Ġphotography": 3846,
      "Ġokay": 3847,
      "Ġdate": 3848,
      "Ġ18": 3849,
      "Ġkey": 3850,
      "Ġboyfriend": 3851,
      "Ġrecommended": 3852,
      "Ġbehav": 3853,
      "Ġhistorical": 3854,
      "arsh": 3855,
      "Ġspec": 3856,
      "Ġdescrib": 3857,
      "Ġdiscuss": 3858,
      "Ġhoping": 3859,
      "ĠParis": 3860,
      "Ġspl": 3861,
      "aton": 3862,
      "ica": 3863,
      "ĠDick": 3864,
      "ĠPal": 3865,
      "Ġsubst": 3866,
      "Ġmedioc": 3867,
      "Ġopportunity": 3868,
      "Ġisland": 3869,
      "ĠBel": 3870,
      "Ġplus": 3871,
      "ĠStr": 3872,
      "Ġjourney": 3873,
      "Ġburn": 3874,
      "Ġinit": 3875,
      "illing": 3876,
      "aint": 3877,
      "Ġcompar": 3878,
      "Ġcentury": 3879,
      "Ġdrunk": 3880,
      "Ġaffair": 3881,
      "ini": 3882,
      "icide": 3883,
      "ĠRay": 3884,
      "ĠStill": 3885,
      "Ġdemon": 3886,
      "Ġmillion": 3887,
      "ham": 3888,
      "ĠTre": 3889,
      "Ġfilming": 3890,
      "ĠSci": 3891,
      "Ġnames": 3892,
      "Ġbreath": 3893,
      "CH": 3894,
      "anch": 3895,
      "Ġsoft": 3896,
      "Ġcommer": 3897,
      "Ġproper": 3898,
      "Ġlovely": 3899,
      "Ġphotograp": 3900,
      "Jo": 3901,
      "Some": 3902,
      "under": 3903,
      "Ġmir": 3904,
      "ĠDou": 3905,
      "asty": 3906,
      "Ġener": 3907,
      "Ġcontains": 3908,
      "Ġsurround": 3909,
      "ancy": 3910,
      "Ġemotions": 3911,
      "Ġwalking": 3912,
      "Ġmysterious": 3913,
      "Ġintended": 3914,
      "ĠAg": 3915,
      "ĠBob": 3916,
      "ploy": 3917,
      "Ġhappening": 3918,
      "oking": 3919,
      "Ġintern": 3920,
      "elebr": 3921,
      "Ġindividual": 3922,
      "ss": 3923,
      "Ġast": 3924,
      "itz": 3925,
      "ĠYet": 3926,
      "Ġpassion": 3927,
      "Ġprotagon": 3928,
      "Ġsoldiers": 3929,
      "ghed": 3930,
      "yl": 3931,
      "Ġsight": 3932,
      "Ġdin": 3933,
      "icip": 3934,
      "ĠSouth": 3935,
      "ĠBecause": 3936,
      "Ġlif": 3937,
      "ĠAllen": 3938,
      "Ġpil": 3939,
      "ĠCG": 3940,
      "Ġintense": 3941,
      "appy": 3942,
      "Ġputs": 3943,
      "Ġdrug": 3944,
      "Ġfascinating": 3945,
      "Ġcompelling": 3946,
      "IE": 3947,
      "Ġtired": 3948,
      "inct": 3949,
      "Ġfright": 3950,
      "Ġmoral": 3951,
      "Ġchanges": 3952,
      "ĠAngel": 3953,
      "Ġgovernment": 3954,
      "uous": 3955,
      "Ġacts": 3956,
      "Ġlikable": 3957,
      "gue": 3958,
      "hol": 3959,
      "pro": 3960,
      "uit": 3961,
      "Ġdim": 3962,
      "Ġdies": 3963,
      "ĠSand": 3964,
      "ĠAb": 3965,
      "ĠHigh": 3966,
      "Ġloves": 3967,
      "Ġinclude": 3968,
      "Now": 3969,
      "Ġlength": 3970,
      "ĠLet": 3971,
      "Ġdifference": 3972,
      "Ġavailable": 3973,
      "Ġfool": 3974,
      "ural": 3975,
      "Ġride": 3976,
      "Ġqual": 3977,
      "Ġbuilding": 3978,
      "Ġsilent": 3979,
      "budget": 3980,
      "lla": 3981,
      "Ġpieces": 3982,
      "entially": 3983,
      "ĠWest": 3984,
      "ĠJes": 3985,
      "ples": 3986,
      "Ġobject": 3987,
      "mar": 3988,
      "ishes": 3989,
      "Ġlad": 3990,
      "istent": 3991,
      "ĠFl": 3992,
      "Ġserv": 3993,
      "exic": 3994,
      "ĠOnly": 3995,
      "table": 3996,
      "Ġwarn": 3997,
      "Ġmat": 3998,
      "anced": 3999,
      "Ġnoir": 4000,
      "Ġmagn": 4001,
      "IG": 4002,
      "ĠPart": 4003,
      "Ġlegend": 4004,
      "ledge": 4005,
      "Ġdeveloped": 4006,
      "While": 4007,
      "ĠHard": 4008,
      "Ġship": 4009,
      "Ġhasn": 4010,
      "tend": 4011,
      "Ġteacher": 4012,
      "down": 4013,
      "ki": 4014,
      "Ġmouth": 4015,
      "Ġbase": 4016,
      "orter": 4017,
      "Ġloose": 4018,
      "Ġshare": 4019,
      "abb": 4020,
      "Ġappeared": 4021,
      "gged": 4022,
      "Ġvictims": 4023,
      "Ġfellow": 4024,
      "ken": 4025,
      "Ġthor": 4026,
      "ĠBo": 4027,
      "ĠRog": 4028,
      "ĠGo": 4029,
      "ĠAnother": 4030,
      "Ġedge": 4031,
      "Ġcritics": 4032,
      "ta": 4033,
      "ĠIS": 4034,
      "Ġord": 4035,
      "ospital": 4036,
      "text": 4037,
      "Ġdetective": 4038,
      "Ġlacks": 4039,
      "orgeous": 4040,
      "Ġdrink": 4041,
      "Ġadults": 4042,
      "Un": 4043,
      "Ġcelebr": 4044,
      "onna": 4045,
      "Ġham": 4046,
      "ĠSec": 4047,
      "ustr": 4048,
      "pret": 4049,
      "ĠMus": 4050,
      "azz": 4051,
      "Ġdamn": 4052,
      "ipp": 4053,
      "inally": 4054,
      "ander": 4055,
      "Ġthank": 4056,
      "ĠChris": 4057,
      "Ġnegative": 4058,
      "Ġmelod": 4059,
      "see": 4060,
      "raid": 4061,
      "Ġhelps": 4062,
      "Ġconfused": 4063,
      "Ġrelationships": 4064,
      "Ġnumbers": 4065,
      "ĠWhere": 4066,
      "Ġcontent": 4067,
      "Ġflaws": 4068,
      "Ġtrailer": 4069,
      "Oh": 4070,
      "erous": 4071,
      "ĠTar": 4072,
      "ĠCo": 4073,
      "ĠJones": 4074,
      "ĠYoung": 4075,
      "Ġmotion": 4076,
      "ĠCanad": 4077,
      "Ġcommercial": 4078,
      "Ġproves": 4079,
      "Ġimage": 4080,
      "Ġfollowed": 4081,
      "Ġstudent": 4082,
      "Ġcurrent": 4083,
      "kin": 4084,
      "Ġ****": 4085,
      "ift": 4086,
      "Ġjoy": 4087,
      "ushed": 4088,
      "Ġunne": 4089,
      "ĠChristopher": 4090,
      "Ġdisgust": 4091,
      "ĠX": 4092,
      "pected": 4093,
      "ĠStory": 4094,
      "Ġprim": 4095,
      "ĠBruce": 4096,
      "Ġcell": 4097,
      "Ġlatter": 4098,
      "ĠWW": 4099,
      "Ġvirt": 4100,
      "akespe": 4101,
      "Ġwondering": 4102,
      "Ġclean": 4103,
      "Ġstandards": 4104,
      "Ġconfusing": 4105,
      "ency": 4106,
      "omething": 4107,
      "ĠCharles": 4108,
      "Ġdelivers": 4109,
      "Ġlaughed": 4110,
      "Ġdread": 4111,
      "Ġdubb": 4112,
      "Ġlived": 4113,
      "ĠMexic": 4114,
      "Ġmerely": 4115,
      "Ġchildhood": 4116,
      "ĠThough": 4117,
      "Ġfalling": 4118,
      "Ġimagination": 4119,
      "Ġlighting": 4120,
      "Ġfault": 4121,
      "?!": 4122,
      "gly": 4123,
      "ront": 4124,
      "Ġahead": 4125,
      "Ġmart": 4126,
      "Ġunus": 4127,
      "Ġquiet": 4128,
      "Ġstudents": 4129,
      "Ġprovides": 4130,
      "Ġtragedy": 4131,
      "ein": 4132,
      "Ġgorgeous": 4133,
      "ĠDark": 4134,
      "Ġflicks": 4135,
      "Ġimpressed": 4136,
      "Ġirrit": 4137,
      "Ġforever": 4138,
      "Ġdiscover": 4139,
      "Ġwise": 4140,
      "oned": 4141,
      "Ġnaked": 4142,
      "ĠMark": 4143,
      "Ġrout": 4144,
      "Ġremote": 4145,
      "Ġmulti": 4146,
      "ĠHenry": 4147,
      "life": 4148,
      "Ġden": 4149,
      "ĠPol": 4150,
      "Ġlover": 4151,
      "Ġimpact": 4152,
      "Ġoppos": 4153,
      "writer": 4154,
      "Ġmediocre": 4155,
      "field": 4156,
      "Ġhide": 4157,
      "Ġdiv": 4158,
      "asure": 4159,
      "ilities": 4160,
      "Ġyouth": 4161,
      "Ġoffers": 4162,
      "Ġbrothers": 4163,
      "herent": 4164,
      "asing": 4165,
      "ĠGl": 4166,
      "ĠNor": 4167,
      "dered": 4168,
      "Ġhig": 4169,
      "Ġhost": 4170,
      "ĠGreen": 4171,
      "ĠNothing": 4172,
      "Ġindepend": 4173,
      "eal": 4174,
      "Ġpaid": 4175,
      "Ġalien": 4176,
      "ĠVery": 4177,
      "Ġhighlight": 4178,
      "Ġmainly": 4179,
      "Ġbecoming": 4180,
      "Ġformula": 4181,
      "ĠDavis": 4182,
      "Ġtragic": 4183,
      "Ġthoroughly": 4184,
      "Overall": 4185,
      "itor": 4186,
      "ĠSant": 4187,
      "ĠMag": 4188,
      "Ġchase": 4189,
      "Ġgold": 4190,
      "inese": 4191,
      "Ġcentral": 4192,
      "ĠMartin": 4193,
      "Ġattractive": 4194,
      "ĠBatman": 4195,
      "cra": 4196,
      "phen": 4197,
      "ops": 4198,
      "Ġnobody": 4199,
      "Ġrip": 4200,
      "ĠJean": 4201,
      "Ġachieve": 4202,
      "Ġmurders": 4203,
      "Ġanswer": 4204,
      "Ġfunniest": 4205,
      ".,": 4206,
      "ffe": 4207,
      "now": 4208,
      "she": 4209,
      "Ġfort": 4210,
      "Ġdisaster": 4211,
      "Ġfolks": 4212,
      "Ġfac": 4213,
      "Ġdisappe": 4214,
      "Ġoh": 4215,
      "Ġrated": 4216,
      "Ġjustice": 4217,
      "osh": 4218,
      "abl": 4219,
      "Ġrape": 4220,
      "Ġcreative": 4221,
      "Ġplanet": 4222,
      "ĠAustral": 4223,
      "Any": 4224,
      "roc": 4225,
      ".....": 4226,
      "rama": 4227,
      "ĠTwo": 4228,
      "LY": 4229,
      "Ġfiction": 4230,
      "Ġhospital": 4231,
      "aries": 4232,
      "ĠDay": 4233,
      "Ġsun": 4234,
      "good": 4235,
      "hero": 4236,
      "lled": 4237,
      "Ġdouble": 4238,
      "Ġreach": 4239,
      "Ġstuck": 4240,
      "ĠJerry": 4241,
      "Ġknock": 4242,
      "Ġsurely": 4243,
      "Ġadds": 4244,
      "Ġproducer": 4245,
      "Ġreminded": 4246,
      "Ġnons": 4247,
      "Ġheld": 4248,
      "ĠHol": 4249,
      "ĠLo": 4250,
      "Ġwilling": 4251,
      "mbol": 4252,
      "Ġspectac": 4253,
      "akespeare": 4254,
      "icious": 4255,
      "ĠHit": 4256,
      "Ġcontem": 4257,
      "ĠSteven": 4258,
      "ĠWilliams": 4259,
      "Bl": 4260,
      "ĠSee": 4261,
      "Ġprocess": 4262,
      "Ġtwice": 4263,
      "Ġseemingly": 4264,
      "azy": 4265,
      "Ġactresses": 4266,
      "Ġoccasion": 4267,
      "Ġafraid": 4268,
      "board": 4269,
      "AL": 4270,
      "No": 4271,
      "rough": 4272,
      "Ġbi": 4273,
      "Ġinformation": 4274,
      "iday": 4275,
      "Ġforgotten": 4276,
      "what": 4277,
      "Ġeight": 4278,
      "ĠBas": 4279,
      "ooks": 4280,
      "Ġblond": 4281,
      "ĠCarl": 4282,
      "Ġrented": 4283,
      "Ġapartment": 4284,
      "Ġmarket": 4285,
      "hor": 4286,
      "Ġasks": 4287,
      "irgin": 4288,
      "ĠBilly": 4289,
      "agger": 4290,
      "Ġblind": 4291,
      "Ġputting": 4292,
      "Ġcorrect": 4293,
      "Ġdescribe": 4294,
      "Ġhonestly": 4295,
      "ĠPhil": 4296,
      "Ġindustry": 4297,
      "Ġver": 4298,
      "oted": 4299,
      "ĠEy": 4300,
      "Ġresc": 4301,
      "Ġready": 4302,
      "anish": 4303,
      "Ġaside": 4304,
      "illed": 4305,
      "Ġunw": 4306,
      "ĠAmericans": 4307,
      "Ġseconds": 4308,
      "ĠJackson": 4309,
      "ĠAND": 4310,
      "ium": 4311,
      "Ġonto": 4312,
      "entious": 4313,
      "alled": 4314,
      "Ġround": 4315,
      "Ġanymore": 4316,
      "Ġrace": 4317,
      "Ġpersonality": 4318,
      "De": 4319,
      "Ġwide": 4320,
      "ament": 4321,
      "ĠMs": 4322,
      "ĠLittle": 4323,
      "Ġconvers": 4324,
      "aches": 4325,
      "Ġgiant": 4326,
      "Ġstreng": 4327,
      "AY": 4328,
      "With": 4329,
      "Ġfaces": 4330,
      "oos": 4331,
      "rog": 4332,
      "ĠBad": 4333,
      "Ġlocation": 4334,
      "Ġsadly": 4335,
      "Ġpicked": 4336,
      "zan": 4337,
      "Ġaim": 4338,
      "Ġeat": 4339,
      "Ġarea": 4340,
      "Ġturning": 4341,
      "Ġredeeming": 4342,
      "Ġclothes": 4343,
      "vol": 4344,
      "Ġthin": 4345,
      "Ġnasty": 4346,
      "Ġlose": 4347,
      "Ġrelative": 4348,
      "Ġhelped": 4349,
      "Ġdrag": 4350,
      "Ġfilmmaker": 4351,
      "Ġopera": 4352,
      "Ġprofessional": 4353,
      "IC": 4354,
      "Ġmount": 4355,
      "Ġpath": 4356,
      "Ġdesert": 4357,
      "Ġfinding": 4358,
      "Ġnews": 4359,
      "entional": 4360,
      "Ġallowed": 4361,
      "Ġcollection": 4362,
      "ech": 4363,
      "gar": 4364,
      "mes": 4365,
      "Ġbright": 4366,
      "Ġbottom": 4367,
      "ĠSpe": 4368,
      "Ġexplan": 4369,
      "Ġstruggle": 4370,
      "iac": 4371,
      "ube": 4372,
      "Ġmember": 4373,
      "Ġbegan": 4374,
      "soever": 4375,
      "Ġunderst": 4376,
      "ios": 4377,
      "ita": 4378,
      "Ġled": 4379,
      "Ġmoved": 4380,
      "Ġnecessary": 4381,
      "Ġunreal": 4382,
      "Ġshouldn": 4383,
      "Ġrac": 4384,
      "Ġaccom": 4385,
      "Ġsymbol": 4386,
      "Ġbroad": 4387,
      "Ġunexpected": 4388,
      "film": 4389,
      "win": 4390,
      "Ġgri": 4391,
      "aylor": 4392,
      "sey": 4393,
      "Ġstation": 4394,
      "eman": 4395,
      "Ġtrust": 4396,
      "Ġsuperior": 4397,
      ".'": 4398,
      "Americ": 4399,
      "Ġwhatsoever": 4400,
      "Ġ12": 4401,
      "Ġthanks": 4402,
      "Ġgrow": 4403,
      "Ġfavourite": 4404,
      "AC": 4405,
      "leep": 4406,
      "arded": 4407,
      "ĠOverall": 4408,
      "Ġincludes": 4409,
      "Ġinspired": 4410,
      "Ġwooden": 4411,
      "Ġ1950": 4412,
      "mare": 4413,
      "year": 4414,
      "requ": 4415,
      "aded": 4416,
      "ĠWin": 4417,
      "ĠWal": 4418,
      "ĠFox": 4419,
      "Ġwarm": 4420,
      "ĠArthur": 4421,
      "Ġscientist": 4422,
      "glas": 4423,
      "AM": 4424,
      "rick": 4425,
      "Ġbank": 4426,
      "Ġpen": 4427,
      "ĠLyn": 4428,
      "uman": 4429,
      "Ġinsight": 4430,
      "ĠShakespeare": 4431,
      "Ġshocking": 4432,
      "Ġhotel": 4433,
      "ropriate": 4434,
      "Ġtar": 4435,
      "usion": 4436,
      "ache": 4437,
      "Ġblock": 4438,
      "Ġartistic": 4439,
      "Ġangry": 4440,
      "Ġdrugs": 4441,
      "ka": 4442,
      "ifer": 4443,
      "Ġactions": 4444,
      "ĠON": 4445,
      "ĠChinese": 4446,
      "ĠAlan": 4447,
      "Ġdeeply": 4448,
      "Ġintelligence": 4449,
      "erk": 4450,
      "arry": 4451,
      "ateg": 4452,
      "Ġeverybody": 4453,
      "pective": 4454,
      "Ġbuff": 4455,
      "ĠBlood": 4456,
      "Ġsupposedly": 4457,
      "ET": 4458,
      "abr": 4459,
      "ras": 4460,
      "rors": 4461,
      "ashed": 4462,
      "Ġna": 4463,
      "ĠSin": 4464,
      "ĠSar": 4465,
      "Ġremem": 4466,
      "Ġtechnical": 4467,
      "Ġencoun": 4468,
      "Ġrepeated": 4469,
      "ek": 4470,
      "Ġtem": 4471,
      "owd": 4472,
      "ĠBoth": 4473,
      "ĠJon": 4474,
      "osen": 4475,
      "abe": 4476,
      "Ġwonderfully": 4477,
      "Ġdepart": 4478,
      "afe": 4479,
      "ĠBrian": 4480,
      "Ġclub": 4481,
      "Ġvision": 4482,
      "Ġfriendship": 4483,
      "Ġresemb": 4484,
      "Ġphysical": 4485,
      "Ġenergy": 4486,
      "Ġhint": 4487,
      "Ġreact": 4488,
      "ĠTheir": 4489,
      "Ġrealized": 4490,
      "ddie": 4491,
      "Ġcomedic": 4492,
      "Ġintroduced": 4493,
      "Ġsour": 4494,
      "Ġhat": 4495,
      "edding": 4496,
      "Ġweap": 4497,
      "ĠRoy": 4498,
      "Ġtears": 4499,
      "ovies": 4500,
      "Ġprovide": 4501,
      "Ġvampire": 4502,
      "mi": 4503,
      "ading": 4504,
      "ĠWalk": 4505,
      "aud": 4506,
      "Ġphone": 4507,
      "ĠMcC": 4508,
      "Ġcommentary": 4509,
      "Ġcontinue": 4510,
      "John": 4511,
      "Ġstrength": 4512,
      "wolf": 4513,
      "Ġholes": 4514,
      "Ġsell": 4515,
      "Ġemploy": 4516,
      "Ġlisten": 4517,
      "hand": 4518,
      "Ġpair": 4519,
      "Ġaware": 4520,
      "ording": 4521,
      "Ġworthy": 4522,
      "Ġdeserved": 4523,
      "Sc": 4524,
      "Ġbene": 4525,
      "Ġhook": 4526,
      "Ġdying": 4527,
      "ĠDu": 4528,
      "Ġloving": 4529,
      "apped": 4530,
      "ĠAnyway": 4531,
      "Ġneighbor": 4532,
      "vate": 4533,
      "Ġpra": 4534,
      "Ġla": 4535,
      "otes": 4536,
      "ĠTaylor": 4537,
      "ĠAc": 4538,
      "Ġplane": 4539,
      "uddy": 4540,
      "Ġanywhere": 4541,
      "Ġtend": 4542,
      "Ġpossess": 4543,
      "Ġpleasure": 4544,
      "Ġbrutal": 4545,
      "ĠDouglas": 4546,
      "Ġunnecessary": 4547,
      "Ġmartial": 4548,
      "Ġflying": 4549,
      "ĠToo": 4550,
      "Ġugly": 4551,
      "irk": 4552,
      "ĠMore": 4553,
      "Ġwearing": 4554,
      "Ġchannel": 4555,
      "Ġscared": 4556,
      "Ġremarkable": 4557,
      "do": 4558,
      "eed": 4559,
      "Ġthus": 4560,
      "illa": 4561,
      "Ġrubb": 4562,
      "ĠFord": 4563,
      "Ġagent": 4564,
      "resses": 4565,
      "Ġepic": 4566,
      "Ġelect": 4567,
      "Ġmental": 4568,
      "Ġfood": 4569,
      "Ġdu": 4570,
      "Ġder": 4571,
      "ademy": 4572,
      "Ġscare": 4573,
      "Ġdoz": 4574,
      "Ġdeb": 4575,
      "asts": 4576,
      "ĠNick": 4577,
      "ivil": 4578,
      "Ġkidn": 4579,
      "Ġsignific": 4580,
      "Ġwoods": 4581,
      "Ġunusual": 4582,
      "rical": 4583,
      "Ġsuicide": 4584,
      "Ġperform": 4585,
      "Ġslap": 4586,
      "Ġpersonally": 4587,
      "Ġmemory": 4588,
      "enge": 4589,
      "ario": 4590,
      "ĠIN": 4591,
      "cture": 4592,
      "Ġdeg": 4593,
      "Ġknowledge": 4594,
      "ipul": 4595,
      "Ġfinished": 4596,
      "Ġengaging": 4597,
      "kward": 4598,
      "Ġbirth": 4599,
      "Ġloss": 4600,
      "Ġrelie": 4601,
      "ĠNever": 4602,
      "odies": 4603,
      "Ġspeaking": 4604,
      "Ġhumans": 4605,
      "Ġcompare": 4606,
      "Ġsurprising": 4607,
      "ĠRobin": 4608,
      "undred": 4609,
      "Ġaccompl": 4610,
      "ators": 4611,
      "Ġcal": 4612,
      "ĠApp": 4613,
      "ĠVH": 4614,
      "Ġteenage": 4615,
      "ĠCGI": 4616,
      "bian": 4617,
      "father": 4618,
      "ĠDam": 4619,
      "terest": 4620,
      "ĠYe": 4621,
      "ĠShow": 4622,
      "ugs": 4623,
      "esh": 4624,
      "adow": 4625,
      "Ġcoun": 4626,
      "Ġempt": 4627,
      "Ġbits": 4628,
      "Ġexpert": 4629,
      "ĠStephen": 4630,
      "ĠEngland": 4631,
      "Ġasked": 4632,
      "Ġmotiv": 4633,
      "Ġholds": 4634,
      "Ġdesperate": 4635,
      "SE": 4636,
      "rs": 4637,
      "Ġdebut": 4638,
      "Ġawkward": 4639,
      "Ġaccount": 4640,
      "Sp": 4641,
      "Ġmild": 4642,
      "oring": 4643,
      "owell": 4644,
      "ĠJr": 4645,
      "Ġprefer": 4646,
      "Ġbland": 4647,
      "Ġgrat": 4648,
      "olds": 4649,
      "ĠBrother": 4650,
      "Ġinstance": 4651,
      "Ġvisit": 4652,
      "ĠOnce": 4653,
      "ĠDanny": 4654,
      "ĠKeaton": 4655,
      "Ġlimited": 4656,
      "Ġintriguing": 4657,
      ")<": 4658,
      "kes": 4659,
      "rous": 4660,
      "especially": 4661,
      "ousy": 4662,
      "bered": 4663,
      "ĠMany": 4664,
      "Ġvehic": 4665,
      "rifying": 4666,
      "Ġtarget": 4667,
      "port": 4668,
      "Ġted": 4669,
      "Ġpacing": 4670,
      "ĠBarb": 4671,
      "ĠLes": 4672,
      "Ġwatchable": 4673,
      "Ġwanting": 4674,
      "Ġcrowd": 4675,
      "Ġrarely": 4676,
      "Ġwinning": 4677,
      "Ġsentiment": 4678,
      "ĠRussian": 4679,
      "Ġpilot": 4680,
      "ĠHitler": 4681,
      "TV": 4682,
      "miss": 4683,
      "Ġsac": 4684,
      "Ġbal": 4685,
      "omen": 4686,
      "ĠTe": 4687,
      "ĠWH": 4688,
      "ĠRy": 4689,
      "ĠOl": 4690,
      "Ġcraft": 4691,
      "Ġreminds": 4692,
      "ĠMorgan": 4693,
      "Ġreligious": 4694,
      "UT": 4695,
      "Ġhundred": 4696,
      "ano": 4697,
      "Ġlay": 4698,
      "ĠSl": 4699,
      "ĠWil": 4700,
      "ĠLau": 4701,
      "Ġ11": 4702,
      "tered": 4703,
      "Ġimpl": 4704,
      "cient": 4705,
      "Ġhorse": 4706,
      "Ġgotten": 4707,
      "Ġsmile": 4708,
      "ĠWhite": 4709,
      "ĠZomb": 4710,
      "Ġdeserve": 4711,
      "Although": 4712,
      "Ġbelong": 4713,
      "200": 4714,
      "Even": 4715,
      "uct": 4716,
      "orious": 4717,
      "ilst": 4718,
      "Ġsuck": 4719,
      "plot": 4720,
      "teen": 4721,
      "Ġ1970": 4722,
      "Ġcriminal": 4723,
      "Ġindependent": 4724,
      "Ġbur": 4725,
      "Ġhurt": 4726,
      "ooper": 4727,
      "iro": 4728,
      "ĠJoan": 4729,
      "ĠclichÃ©s": 4730,
      "Ġaccurate": 4731,
      "Ġing": 4732,
      "Ġtour": 4733,
      "Ġmut": 4734,
      "Ġcow": 4735,
      "Ġstret": 4736,
      "ĠAndy": 4737,
      "Ġenth": 4738,
      "Ġexplos": 4739,
      "Ġborn": 4740,
      "aturally": 4741,
      "Ġcapture": 4742,
      "Ġtorture": 4743,
      ":<": 4744,
      "Just": 4745,
      "ĠSus": 4746,
      "ĠLi": 4747,
      "ĠLind": 4748,
      "ĠJew": 4749,
      "ĠJenn": 4750,
      "ourne": 4751,
      "ĠAndrew": 4752,
      "Ġplayers": 4753,
      "ominated": 4754,
      "mo": 4755,
      "oom": 4756,
      "rays": 4757,
      "xual": 4758,
      "Ġwond": 4759,
      "Ġopt": 4760,
      "Ġfreak": 4761,
      "ĠAv": 4762,
      "Ġsepar": 4763,
      "Ġris": 4764,
      "ogy": 4765,
      "ression": 4766,
      "Ġboard": 4767,
      "Ġcreature": 4768,
      "eper": 4769,
      "yer": 4770,
      "Ġchurch": 4771,
      "ĠLife": 4772,
      "Ġrul": 4773,
      "ĠNaz": 4774,
      "Ġunknown": 4775,
      "Ġanybody": 4776,
      "abor": 4777,
      "Ġblame": 4778,
      "Ġexplained": 4779,
      "Ġarts": 4780,
      "Ġlets": 4781,
      "Ġconstant": 4782,
      "Ġexplanation": 4783,
      "Ġhated": 4784,
      "aly": 4785,
      "stein": 4786,
      "entions": 4787,
      "imal": 4788,
      "ĠSad": 4789,
      "ĠDid": 4790,
      "Ġdesire": 4791,
      "ruction": 4792,
      "Ġinterpret": 4793,
      "lock": 4794,
      "rem": 4795,
      "ĠHel": 4796,
      "Ġaband": 4797,
      "ĠPac": 4798,
      "Ġmanage": 4799,
      "Ġpretentious": 4800,
      "Ġcops": 4801,
      "Ġcommunity": 4802,
      "ean": 4803,
      "reck": 4804,
      "atra": 4805,
      "Ġpet": 4806,
      "ĠPres": 4807,
      "ĠRus": 4808,
      "Ġhadn": 4809,
      "Ġbelief": 4810,
      "Ġheads": 4811,
      "Ġmedia": 4812,
      "Ġ1980": 4813,
      "Ġissue": 4814,
      "Ġmagnific": 4815,
      "Ġcateg": 4816,
      "ĠSil": 4817,
      "ĠWestern": 4818,
      "ĠJud": 4819,
      "ounds": 4820,
      "Ġcreating": 4821,
      "Ġphil": 4822,
      "Ġregret": 4823,
      "Ġguns": 4824,
      "Ġprotect": 4825,
      "âĢ": 4826,
      "atory": 4827,
      "Ġthous": 4828,
      "Ġtoward": 4829,
      "esty": 4830,
      "ĠEr": 4831,
      "Ġ13": 4832,
      "pless": 4833,
      "Ġnicely": 4834,
      "Ġconvin": 4835,
      "ĠDespite": 4836,
      "ĠLynch": 4837,
      "ĠDO": 4838,
      "unted": 4839,
      "ĠLaw": 4840,
      "ĠLady": 4841,
      "ĠJason": 4842,
      ".\"<": 4843,
      "Ġuncon": 4844,
      "Ġmixed": 4845,
      "looking": 4846,
      "Ġradio": 4847,
      "Ġcars": 4848,
      "arp": 4849,
      "othy": 4850,
      "Ġstink": 4851,
      "Ġsoap": 4852,
      "ĠJose": 4853,
      "Ġlovers": 4854,
      "Ġfloor": 4855,
      "Ġtext": 4856,
      "Ġgrad": 4857,
      "ewis": 4858,
      "Ġreturns": 4859,
      "Ġhopes": 4860,
      "ĠVHS": 4861,
      "Ar": 4862,
      "iance": 4863,
      "Ġhidden": 4864,
      "Ġgames": 4865,
      "stal": 4866,
      "sec": 4867,
      "Ġchore": 4868,
      "Ġvo": 4869,
      "Ġcontext": 4870,
      "Ġgrowing": 4871,
      "ĠAlbert": 4872,
      "Ġheroine": 4873,
      "Ġresults": 4874,
      "ĠColumb": 4875,
      "director": 4876,
      "vy": 4877,
      "hered": 4878,
      "Ġthats": 4879,
      "Ġchick": 4880,
      "Ġproceed": 4881,
      "soci": 4882,
      "Ġaward": 4883,
      "Ġfights": 4884,
      "Ġhumanity": 4885,
      "Ġvillains": 4886,
      "Ġintellect": 4887,
      "Ġtreated": 4888,
      "Ġpulled": 4889,
      "Ġcontrast": 4890,
      "ĠHorror": 4891,
      "Ġresponsible": 4892,
      "OK": 4893,
      "natural": 4894,
      "vant": 4895,
      "Ġtur": 4896,
      "Ġlies": 4897,
      "Ġarmy": 4898,
      "ĠJohnny": 4899,
      "Ġmemories": 4900,
      "Ġincluded": 4901,
      "ĠEverything": 4902,
      "Ġmonths": 4903,
      "aa": 4904,
      "ned": 4905,
      "Ġic": 4906,
      "Ġhyp": 4907,
      "Ġcharism": 4908,
      "Ġplayer": 4909,
      "Ġdesp": 4910,
      "Ġunderstanding": 4911,
      "Ġdeterm": 4912,
      "Ġskin": 4913,
      "ĠDaniel": 4914,
      "ashington": 4915,
      "ĠStreet": 4916,
      "Ġbehavior": 4917,
      ");": 4918,
      "bad": 4919,
      "cock": 4920,
      "point": 4921,
      "Ġhits": 4922,
      "Ġ/>-": 4923,
      "star": 4924,
      "Ġstock": 4925,
      "ĠSy": 4926,
      "Ġnoticed": 4927,
      "ushing": 4928,
      "ueen": 4929,
      "Ġfinest": 4930,
      "oons": 4931,
      "upp": 4932,
      "Ġfield": 4933,
      "Ġmine": 4934,
      "Ġcard": 4935,
      "omas": 4936,
      "ĠHall": 4937,
      "ĠREA": 4938,
      "ĠFre": 4939,
      "umps": 4940,
      "Ġpartner": 4941,
      "Ġskills": 4942,
      "Ġsoldier": 4943,
      "Ġcircum": 4944,
      "Ġrubbish": 4945,
      "nie": 4946,
      "vit": 4947,
      "Ġfate": 4948,
      "thony": 4949,
      "ĠRon": 4950,
      "ĠGirl": 4951,
      "oses": 4952,
      "Ġtwenty": 4953,
      "there": 4954,
      "Ġterribly": 4955,
      "Ġanimal": 4956,
      "Ġconcerned": 4957,
      "Ġrepresent": 4958,
      "Ġsafe": 4959,
      "entle": 4960,
      "iful": 4961,
      "ĠEddie": 4962,
      "ĠKate": 4963,
      "Ġlacking": 4964,
      "Ġperspective": 4965,
      "Of": 4966,
      "Rob": 4967,
      "cise": 4968,
      "Ġfrequ": 4969,
      "ĠBond": 4970,
      "ulf": 4971,
      "Ġring": 4972,
      "away": 4973,
      "ensional": 4974,
      "ivity": 4975,
      "Ġbloody": 4976,
      "Ġdangerous": 4977,
      "American": 4978,
      "Re": 4979,
      "gn": 4980,
      "sen": 4981,
      "isc": 4982,
      "ĠWas": 4983,
      "agers": 4984,
      "ĠEast": 4985,
      "They": 4986,
      "Ġfinale": 4987,
      "Ġimagin": 4988,
      "Ġtalents": 4989,
      "ĠSpanish": 4990,
      "oh": 4991,
      "Ġ?": 4992,
      "isa": 4993,
      "Ġreaction": 4994,
      "icked": 4995,
      "Ġtransl": 4996,
      "Ġdelightful": 4997,
      "fortable": 4998,
      "Ġsaved": 4999,
      "sion": 5000,
      "Ġtight": 5001,
      "Ġban": 5002,
      "ĠMi": 5003,
      "ĠCam": 5004,
      "ulous": 5005,
      "Ġnumerous": 5006,
      "Ġcontinues": 5007,
      "ĠEuropean": 5008,
      "Ġopposite": 5009,
      "Ġboo": 5010,
      "Ġearn": 5011,
      "ĠMen": 5012,
      "ĠWashington": 5013,
      "ĠLord": 5014,
      "Ġprove": 5015,
      "Ġresol": 5016,
      "Ġassist": 5017,
      "Ġlocations": 5018,
      "Why": 5019,
      "tle": 5020,
      "Ġdated": 5021,
      "Ġwealth": 5022,
      "ĠDel": 5023,
      "ĠRam": 5024,
      "ĠVer": 5025,
      "Ġincre": 5026,
      "ails": 5027,
      "screen": 5028,
      "Ġheroes": 5029,
      "Ġbreaks": 5030,
      "Ġpriest": 5031,
      "Ġloses": 5032,
      "za": 5033,
      "Ġsin": 5034,
      "ilies": 5035,
      "Ġmob": 5036,
      "rix": 5037,
      "ĠMike": 5038,
      "ĠHart": 5039,
      "Ġsucks": 5040,
      "Ġvan": 5041,
      "they": 5042,
      "Ġreviewers": 5043,
      "Ġmurdered": 5044,
      "Ġhumorous": 5045,
      "Ġtheatre": 5046,
      "Ġgags": 5047,
      "Ġnaive": 5048,
      "Ġwitch": 5049,
      "Ġcable": 5050,
      "ids": 5051,
      "ribut": 5052,
      "Ġdeals": 5053,
      "Ġmanipul": 5054,
      "Ġtroub": 5055,
      "Ġbigger": 5056,
      "ĠDeath": 5057,
      "Ġsatire": 5058,
      "Ġunfunny": 5059,
      "Ġbelow": 5060,
      "Ġtraditional": 5061,
      "Ġempty": 5062,
      "Yes": 5063,
      "Ġner": 5064,
      "etic": 5065,
      "ĠPlease": 5066,
      "ummer": 5067,
      "Ġremain": 5068,
      "Ġkinda": 5069,
      "Ġopens": 5070,
      "Ġkeeping": 5071,
      "Ġcaptured": 5072,
      "Ġdiscovered": 5073,
      "POILERS": 5074,
      "ĠJesus": 5075,
      "lle": 5076,
      "ĠCass": 5077,
      "Ġunint": 5078,
      "ĠEric": 5079,
      "Ġens": 5080,
      "Ġowner": 5081,
      "ĠSpace": 5082,
      "Ġefforts": 5083,
      "Ġsummer": 5084,
      "Ġcircumst": 5085,
      "asm": 5086,
      "sell": 5087,
      "idge": 5088,
      "Ġforces": 5089,
      "irm": 5090,
      "urity": 5091,
      "Ġorgan": 5092,
      "Ġstarting": 5093,
      "Ġcalls": 5094,
      "arently": 5095,
      "anned": 5096,
      "Ġadvice": 5097,
      "Ġdriving": 5098,
      "Ġregular": 5099,
      "Ġdealing": 5100,
      "Also": 5101,
      "However": 5102,
      "Ġreceived": 5103,
      "Ġmodel": 5104,
      "OL": 5105,
      "bur": 5106,
      "spe": 5107,
      "tw": 5108,
      "although": 5109,
      "aybe": 5110,
      "ching": 5111,
      "Ġconfront": 5112,
      "Ġdistract": 5113,
      "Ġlearned": 5114,
      "Ġsteal": 5115,
      "Ġsed": 5116,
      "Ġsal": 5117,
      "ads": 5118,
      "alling": 5119,
      "oore": 5120,
      "Ġju": 5121,
      "Ġframe": 5122,
      "Ġdisplay": 5123,
      "Ġincomp": 5124,
      "arner": 5125,
      "Ġcameo": 5126,
      "Ġpsychological": 5127,
      "Ġsurvive": 5128,
      "Ġrevealed": 5129,
      "ĠSuperman": 5130,
      "Ġnonsense": 5131,
      "some": 5132,
      "Ġtor": 5133,
      "hester": 5134,
      "Ġge": 5135,
      "ruct": 5136,
      "ups": 5137,
      "Ġinsane": 5138,
      "Ġversions": 5139,
      "Ġmarry": 5140,
      "Ġcorrupt": 5141,
      "iverse": 5142,
      "Ġmachine": 5143,
      "ĠBroad": 5144,
      "tr": 5145,
      "uh": 5146,
      "Ġbath": 5147,
      "itter": 5148,
      "atives": 5149,
      "Ġshallow": 5150,
      "unter": 5151,
      "osaur": 5152,
      "Then": 5153,
      "Ġrealism": 5154,
      "Ġcuts": 5155,
      "Ġuncle": 5156,
      "ĠSimon": 5157,
      "hearted": 5158,
      "Ġcomparison": 5159,
      "Ġphilos": 5160,
      "ILL": 5161,
      "ban": 5162,
      "Ġpark": 5163,
      "Ġgrew": 5164,
      "ĠSid": 5165,
      "ĠRose": 5166,
      "Ġproved": 5167,
      "Ġdisp": 5168,
      "Ġprint": 5169,
      "Ġdecade": 5170,
      "Ġoriginally": 5171,
      "Ġexistence": 5172,
      "Ġvisuals": 5173,
      "ĠFreddy": 5174,
      "Ġladies": 5175,
      "don": 5176,
      "mary": 5177,
      "top": 5178,
      "hent": 5179,
      "Ġhall": 5180,
      "Ġdry": 5181,
      "ĠSince": 5182,
      "hern": 5183,
      "Ġjunk": 5184,
      "Ġsomebody": 5185,
      "Ġgrown": 5186,
      "Ġsurreal": 5187,
      "ĠWhich": 5188,
      "Ġeduc": 5189,
      "Ġsword": 5190,
      "porary": 5191,
      "Ġgenuinely": 5192,
      "ĠHarris": 5193,
      "Ġremembered": 5194,
      "!).": 5195,
      "ued": 5196,
      "Ġinex": 5197,
      "Ġallows": 5198,
      "ĠJess": 5199,
      "ivered": 5200,
      "Ġcourt": 5201,
      "Ġexperiment": 5202,
      "ĠKevin": 5203,
      "Another": 5204,
      "Ġofficer": 5205,
      "Ġordinary": 5206,
      "Ġfict": 5207,
      "Ġpit": 5208,
      "ĠBet": 5209,
      "ĠColl": 5210,
      "ĠGene": 5211,
      "Ġtherefore": 5212,
      "ĠKong": 5213,
      "Ġblue": 5214,
      "ordon": 5215,
      "Ġconsist": 5216,
      "luding": 5217,
      "Ġexperien": 5218,
      "ĠAfrican": 5219,
      "Ġsegment": 5220,
      "viron": 5221,
      "mble": 5222,
      "ashes": 5223,
      "Ġinh": 5224,
      "ication": 5225,
      "ĠCapt": 5226,
      "Ġfrank": 5227,
      "ĠJan": 5228,
      "Ġuncom": 5229,
      "acc": 5230,
      "Ġoverly": 5231,
      "ometimes": 5232,
      "Ġfeaturing": 5233,
      "Ġforeign": 5234,
      "ĠEveryone": 5235,
      "Ġgangster": 5236,
      "va": 5237,
      "ym": 5238,
      "Ġsake": 5239,
      "Ġbat": 5240,
      "Ġgreen": 5241,
      "ĠRom": 5242,
      "ĠRain": 5243,
      "Ġarm": 5244,
      "ĠVal": 5245,
      "Ġspeed": 5246,
      "Ġpassed": 5247,
      "Ġhigher": 5248,
      "Ġrelief": 5249,
      "Ġtack": 5250,
      "Ġwitty": 5251,
      "Ġbear": 5252,
      "Ġseven": 5253,
      "ĠHell": 5254,
      "ĠEVER": 5255,
      "Ġarch": 5256,
      "Ġstudy": 5257,
      "ĠJimmy": 5258,
      "Ġconnect": 5259,
      "50": 5260,
      "Ste": 5261,
      "Ġtun": 5262,
      "asp": 5263,
      "Ġunable": 5264,
      "Ġplots": 5265,
      "anged": 5266,
      "ĠThose": 5267,
      "ĠFranc": 5268,
      "Ġwarning": 5269,
      "ĠTHIS": 5270,
      "ĠWelles": 5271,
      "Ġmorning": 5272,
      "???": 5273,
      "uitous": 5274,
      "Ġirritating": 5275,
      "Ġunconv": 5276,
      "enny": 5277,
      "Ġlat": 5278,
      "Ġles": 5279,
      "Ġredu": 5280,
      "ĠCent": 5281,
      "Ġsucked": 5282,
      "Ġvul": 5283,
      "Ġsheer": 5284,
      "Ġ14": 5285,
      "Ġadvert": 5286,
      "ĠHoward": 5287,
      "finitely": 5288,
      "Ġcreates": 5289,
      "ĠLeon": 5290,
      "Ġdiscovers": 5291,
      "Ġwindow": 5292,
      "Ġconnection": 5293,
      "alloween": 5294,
      "Ġscreaming": 5295,
      "Ġcurious": 5296,
      "Ġsite": 5297,
      "Ġfif": 5298,
      "Ġpress": 5299,
      "Ġpowers": 5300,
      "Ġassoci": 5301,
      "ĠHitch": 5302,
      "Ġdelivered": 5303,
      "Ġfailure": 5304,
      "Ġtypes": 5305,
      "Ġrevolution": 5306,
      "ores": 5307,
      "rie": 5308,
      "Ġhur": 5309,
      "Ġgonna": 5310,
      "Ġnet": 5311,
      "ĠMal": 5312,
      "ĠCage": 5313,
      "ĠCarr": 5314,
      "Ġconvey": 5315,
      "ĠStone": 5316,
      "Ġobl": 5317,
      "entionally": 5318,
      "Ġleader": 5319,
      "Ġmission": 5320,
      "Ġresearch": 5321,
      "ĠLuke": 5322,
      "Ġstereotypes": 5323,
      "ĠSanta": 5324,
      "Ġspectacular": 5325,
      "Ġdi": 5326,
      "icate": 5327,
      "Ġgoof": 5328,
      "theless": 5329,
      "oken": 5330,
      "Ġlesson": 5331,
      "Ġedited": 5332,
      "Ġmarvel": 5333,
      "ĠSean": 5334,
      "Ġmajority": 5335,
      "Ġtechnology": 5336,
      "Ġreferences": 5337,
      "ba": 5338,
      "lim": 5339,
      "Ġwedding": 5340,
      "arc": 5341,
      "Ġemer": 5342,
      "Ġreun": 5343,
      "ĠSund": 5344,
      "Ġnecess": 5345,
      "Ġenviron": 5346,
      "ĠYOU": 5347,
      "ĠAnthony": 5348,
      "Ġbrilliantly": 5349,
      "reedom": 5350,
      "==": 5351,
      "fit": 5352,
      "law": 5353,
      "nox": 5354,
      "iser": 5355,
      "Ġbot": 5356,
      "unning": 5357,
      "Ġkiss": 5358,
      "ĠNorth": 5359,
      "ĠEs": 5360,
      "Ġteach": 5361,
      "Ġrelate": 5362,
      "Ġsinger": 5363,
      "ĠBeat": 5364,
      "ugos": 5365,
      "Ġrefres": 5366,
      "Ġmiser": 5367,
      "orthy": 5368,
      "Ġsubtit": 5369,
      "Ġcaused": 5370,
      "hentic": 5371,
      "lly": 5372,
      "Ġshop": 5373,
      "iforn": 5374,
      "ums": 5375,
      "Ġspeech": 5376,
      "Ġprinc": 5377,
      "Ġmini": 5378,
      "Ġfamilies": 5379,
      "Ġobsc": 5380,
      "Ġlaughter": 5381,
      "Ġgrace": 5382,
      "Ġcolour": 5383,
      "Ġemotionally": 5384,
      "Ġprotagonist": 5385,
      "She": 5386,
      "ville": 5387,
      "Ġfal": 5388,
      "Ġfare": 5389,
      "stit": 5390,
      "iling": 5391,
      "ĠThing": 5392,
      "ĠDor": 5393,
      "Ġaltern": 5394,
      "ques": 5395,
      "Ġrecall": 5396,
      "ĠBrown": 5397,
      "Ġentertained": 5398,
      "Ġpainfully": 5399,
      "Ġreflect": 5400,
      "RI": 5401,
      "ser": 5402,
      "yal": 5403,
      "Ġtick": 5404,
      "Ġsole": 5405,
      "acting": 5406,
      "ĠRod": 5407,
      "indere": 5408,
      "Ġsyn": 5409,
      "Ġcrappy": 5410,
      "Ġtreatment": 5411,
      "Ġultimate": 5412,
      "dom": 5413,
      "done": 5414,
      "tt": 5415,
      "Ġgross": 5416,
      "ĠTex": 5417,
      "ĠWars": 5418,
      "Ġfrustr": 5419,
      "Ġattitude": 5420,
      "Ġcompan": 5421,
      "Ġcorny": 5422,
      "LLY": 5423,
      "Ġcombination": 5424,
      "RA": 5425,
      "mother": 5426,
      "yr": 5427,
      "Ġcyn": 5428,
      "Ġgory": 5429,
      "chan": 5430,
      "Ġsend": 5431,
      "ĠGary": 5432,
      "ĠKenn": 5433,
      "Ġtrib": 5434,
      "Ġexcited": 5435,
      "bell": 5436,
      "Ġcash": 5437,
      "ĠSH": 5438,
      "Ġran": 5439,
      "ĠFe": 5440,
      "Ġspoof": 5441,
      "Ġemp": 5442,
      "Ġbuilt": 5443,
      "........": 5444,
      "Ġskill": 5445,
      "Ġexecuted": 5446,
      "Ġidentity": 5447,
      "Ġinept": 5448,
      "Ġamateurish": 5449,
      "Ġchalleng": 5450,
      "Ġlogic": 5451,
      "ĠTrek": 5452,
      "ĠSinatra": 5453,
      "Ġvehicle": 5454,
      "Ġmagnificent": 5455,
      "inderella": 5456,
      "ker": 5457,
      "ÂĹ": 5458,
      "ether": 5459,
      "ĠHad": 5460,
      "ulation": 5461,
      "Ġdecision": 5462,
      "Ġbelieves": 5463,
      "Ġmeeting": 5464,
      "Ġveter": 5465,
      "Ġpleasant": 5466,
      "Ġgraphic": 5467,
      "ĠAcademy": 5468,
      "Ġgratuitous": 5469,
      "ifornia": 5470,
      "From": 5471,
      "ault": 5472,
      "whel": 5473,
      "ĠIT": 5474,
      "aming": 5475,
      "ĠMaster": 5476,
      "ĠMoore": 5477,
      "liver": 5478,
      "Ġappl": 5479,
      "Ġportrays": 5480,
      "ĠUnivers": 5481,
      "ynam": 5482,
      "Ġparody": 5483,
      "Ġlevels": 5484,
      "Ġestabl": 5485,
      "ĠLouis": 5486,
      "Ġassume": 5487,
      "Ġdescribed": 5488,
      "ĠTarzan": 5489,
      "Ġlone": 5490,
      "ĠIm": 5491,
      "stream": 5492,
      "iration": 5493,
      "ĠDra": 5494,
      "ĠKim": 5495,
      "Ġunderrated": 5496,
      "cohol": 5497,
      "Ġreviewer": 5498,
      "Ġtheaters": 5499,
      "Ġstopped": 5500,
      "Ġflashbacks": 5501,
      "Ġdreadful": 5502,
      "Ġoccasionally": 5503,
      "teresting": 5504,
      "ye": 5505,
      "Ġpaper": 5506,
      "stick": 5507,
      "ĠMont": 5508,
      "ĠHay": 5509,
      "outs": 5510,
      "Ġscrew": 5511,
      "Ġpeace": 5512,
      "angers": 5513,
      "Ġseasons": 5514,
      "Ġexpression": 5515,
      "Ġrefreshing": 5516,
      "Every": 5517,
      "ls": 5518,
      "Ġtape": 5519,
      "Ġbond": 5520,
      "Ġharsh": 5521,
      "omed": 5522,
      "urs": 5523,
      "ĠCast": 5524,
      "ĠGar": 5525,
      "Ġendless": 5526,
      "ĠAnderson": 5527,
      "Ġcruel": 5528,
      "Ġproduce": 5529,
      "ĠFrance": 5530,
      "Ġexcit": 5531,
      "Ġinvolves": 5532,
      "Ġlearns": 5533,
      "Ġasking": 5534,
      "Ġhandsome": 5535,
      "Ġruined": 5536,
      "Ġembarrassing": 5537,
      "Ġcontrived": 5538,
      "Ġblonde": 5539,
      "EL": 5540,
      "Let": 5541,
      "taking": 5542,
      "telling": 5543,
      "Ġfle": 5544,
      "omer": 5545,
      "ilty": 5546,
      "ama": 5547,
      "kend": 5548,
      "ĠLong": 5549,
      "Ġrange": 5550,
      "ĠGordon": 5551,
      "ights": 5552,
      "ĠViet": 5553,
      "Ġboat": 5554,
      "Ġbroken": 5555,
      "Ġcapable": 5556,
      "Ġreligion": 5557,
      "ĠVictoria": 5558,
      "Ġpractically": 5559,
      "mat": 5560,
      "ĠCinem": 5561,
      "Ġking": 5562,
      "Ġages": 5563,
      "Ġappealing": 5564,
      "Ġessentially": 5565,
      "Ġsympathetic": 5566,
      "ĠWayne": 5567,
      "ĠBroadway": 5568,
      "II": 5569,
      "ja": 5570,
      "Ġfund": 5571,
      "Ġpal": 5572,
      "Ġchoose": 5573,
      "Ġscar": 5574,
      "ĠEll": 5575,
      "phy": 5576,
      "ugg": 5577,
      "espite": 5578,
      "Ġstalk": 5579,
      "usi": 5580,
      "Ġsports": 5581,
      "Ġnormally": 5582,
      "Ġauthentic": 5583,
      "ĠParker": 5584,
      "UN": 5585,
      "ients": 5586,
      "nam": 5587,
      "inis": 5588,
      "Ġpunch": 5589,
      "Ġwel": 5590,
      "ĠHaw": 5591,
      "Ġfeet": 5592,
      "abeth": 5593,
      "urns": 5594,
      "ĠThank": 5595,
      "ĠMarie": 5596,
      "aturday": 5597,
      "Ġcosts": 5598,
      "Ġstreets": 5599,
      "Ġmurdere": 5600,
      "ĠJennifer": 5601,
      "ĠHitchcock": 5602,
      "core": 5603,
      "ichol": 5604,
      "Ġspin": 5605,
      "ĠBrad": 5606,
      "ĠThomas": 5607,
      "Ġportraying": 5608,
      "Ġcares": 5609,
      "Ġsuffering": 5610,
      "class": 5611,
      "Ġsatisfying": 5612,
      "Ġsubstance": 5613,
      "IGH": 5614,
      "ĠJoseph": 5615,
      "Ġcircumstances": 5616,
      "buster": 5617,
      "ked": 5618,
      "isher": 5619,
      "ĠCat": 5620,
      "ĠWild": 5621,
      "uns": 5622,
      "Ġvac": 5623,
      "ĠOut": 5624,
      "----": 5625,
      "Ġthoughts": 5626,
      "Ġappropriate": 5627,
      "Ġstanding": 5628,
      "Ġmonsters": 5629,
      "ĠMrs": 5630,
      "ĠGermany": 5631,
      "Ġlargely": 5632,
      "Ġjudge": 5633,
      "Ġunrealistic": 5634,
      "gent": 5635,
      "nal": 5636,
      "walk": 5637,
      "ndo": 5638,
      "Ġeating": 5639,
      "Ġwhilst": 5640,
      "amily": 5641,
      "ĠSky": 5642,
      "Ġconce": 5643,
      "udic": 5644,
      "Ġmyth": 5645,
      "Ġproud": 5646,
      "Ġevidence": 5647,
      "ĠAsian": 5648,
      "Ġdepressing": 5649,
      "ĠGrant": 5650,
      "ĠAgain": 5651,
      "Ġroutine": 5652,
      "Ġenvironment": 5653,
      "Ġexcitement": 5654,
      "Cl": 5655,
      "long": 5656,
      "ule": 5657,
      "zo": 5658,
      "Ġdressed": 5659,
      "Ġinner": 5660,
      "ĠInt": 5661,
      "ĠTime": 5662,
      "ada": 5663,
      "Ġhearing": 5664,
      "Ġancient": 5665,
      "ĠALL": 5666,
      "ĠMax": 5667,
      "ĠMiche": 5668,
      "Ġneat": 5669,
      "Ġflesh": 5670,
      "ĠAsh": 5671,
      "Ġsequels": 5672,
      "ĠAnne": 5673,
      "ĠTHAT": 5674,
      "Ġtedious": 5675,
      "Ġvoices": 5676,
      "pet": 5677,
      "erie": 5678,
      "ari": 5679,
      "Ġ/>*": 5680,
      "oting": 5681,
      "roll": 5682,
      "Ġchosen": 5683,
      "orted": 5684,
      "Ġwhenever": 5685,
      "Ġtalks": 5686,
      "Ġvisually": 5687,
      "Ġpurch": 5688,
      "Ġvillage": 5689,
      "Ġcaptures": 5690,
      "Ġtheatrical": 5691,
      "Ġconvinced": 5692,
      "ooth": 5693,
      "pass": 5694,
      "rate": 5695,
      "Ġfly": 5696,
      "Ġda": 5697,
      "ĠTO": 5698,
      "ĠPre": 5699,
      "ĠLA": 5700,
      "ĠRos": 5701,
      "ĠOver": 5702,
      "ĠKu": 5703,
      "oster": 5704,
      "Ġyeah": 5705,
      "Ġcompos": 5706,
      "Ġinvolve": 5707,
      "Ġzero": 5708,
      "Ġmatters": 5709,
      "ethod": 5710,
      "Ġfictional": 5711,
      ",'": 5712,
      "upt": 5713,
      "Ġfame": 5714,
      "Ġfits": 5715,
      "Ġcab": 5716,
      "arian": 5717,
      "ilogy": 5718,
      "Ġseat": 5719,
      "ĠWr": 5720,
      "Ġsoph": 5721,
      "ĠPitt": 5722,
      "ĠLast": 5723,
      "ĠLewis": 5724,
      "Ġunfortun": 5725,
      "Ġerotic": 5726,
      "Ġpropag": 5727,
      "Ġ1930": 5728,
      "ĠAnton": 5729,
      "ĠCanadian": 5730,
      "Ġrescue": 5731,
      "fl": 5732,
      "Ġasleep": 5733,
      "Ġvs": 5734,
      "Ġvague": 5735,
      "apes": 5736,
      "ĠUK": 5737,
      "Ġwalks": 5738,
      "ĠPrince": 5739,
      "Ġexploitation": 5740,
      "Ġinevit": 5741,
      "Ġcounter": 5742,
      "ĠFrancis": 5743,
      "__": 5744,
      "made": 5745,
      "ĠMatt": 5746,
      "ĠCare": 5747,
      "Ġcrack": 5748,
      "ĠJackie": 5749,
      "Ġcenter": 5750,
      "Ġteenager": 5751,
      "ĠWoody": 5752,
      "ĠAfrica": 5753,
      "Ġdisgusting": 5754,
      "ga": 5755,
      "nan": 5756,
      "Ġcant": 5757,
      "icol": 5758,
      "ĠTer": 5759,
      "raction": 5760,
      "Ġalcohol": 5761,
      "olic": 5762,
      "Ġstrongly": 5763,
      "Ġteenagers": 5764,
      "Ġdepicted": 5765,
      "ĠSecond": 5766,
      "mind": 5767,
      "pir": 5768,
      "produ": 5769,
      "tain": 5770,
      "Ġlousy": 5771,
      "Ġforth": 5772,
      "ĠMir": 5773,
      "ĠPowell": 5774,
      "ĠChan": 5775,
      "ĠClark": 5776,
      "Ġsteals": 5777,
      "anagh": 5778,
      "Ġcriticism": 5779,
      "):": 5780,
      "GM": 5781,
      "Ġbre": 5782,
      "Ġhol": 5783,
      "otion": 5784,
      "Ġrend": 5785,
      "imate": 5786,
      "Ġanime": 5787,
      "ĠAre": 5788,
      "ĠDar": 5789,
      "ĠDog": 5790,
      "ĠFull": 5791,
      "ĠNO": 5792,
      "ĠVER": 5793,
      "Ġexcess": 5794,
      "Ġassass": 5795,
      "Ġextraord": 5796,
      "Ġqualities": 5797,
      "Le": 5798,
      "ait": 5799,
      "Ġbodies": 5800,
      "Ġlower": 5801,
      "uther": 5802,
      "ĠTor": 5803,
      "rocious": 5804,
      "ĠMoon": 5805,
      "Ġrot": 5806,
      "ĠNancy": 5807,
      "Ġfacts": 5808,
      "Ġglass": 5809,
      "Ġgeneration": 5810,
      "Ġinitial": 5811,
      "Ġdubbed": 5812,
      "ĠRyan": 5813,
      "Ġsaving": 5814,
      "ani": 5815,
      "Ġrevel": 5816,
      "Ġsharp": 5817,
      "Ġvol": 5818,
      "ĠPlus": 5819,
      "ume": 5820,
      "Ġclue": 5821,
      "osexual": 5822,
      "Ġgrade": 5823,
      "Ġrival": 5824,
      "Ġbelieved": 5825,
      "irds": 5826,
      "Ġrefer": 5827,
      "Ġstructure": 5828,
      "Ġlosing": 5829,
      "Ġcapital": 5830,
      "Ġhyster": 5831,
      "ĠMurphy": 5832,
      "Ġunfortunate": 5833,
      "Do": 5834,
      "Pl": 5835,
      "ners": 5836,
      "chy": 5837,
      "orting": 5838,
      "ĠKarl": 5839,
      "Ġhorribly": 5840,
      "Ġrental": 5841,
      "Ġtouches": 5842,
      "199": 5843,
      "Ġunlikely": 5844,
      "Ġobsessed": 5845,
      "ĠRussell": 5846,
      "Ġcategory": 5847,
      "Ġfalse": 5848,
      "ae": 5849,
      "orb": 5850,
      "Ġpile": 5851,
      "Ġludic": 5852,
      "Ġheav": 5853,
      "etime": 5854,
      "Ġvote": 5855,
      "Ġconsequ": 5856,
      "ĠKh": 5857,
      "aret": 5858,
      "Ġpregn": 5859,
      "Ġoffensive": 5860,
      "Ġpromise": 5861,
      "Ġdescript": 5862,
      "Ġangles": 5863,
      "Ġcontrovers": 5864,
      "Ġcostume": 5865,
      "Ġvirtually": 5866,
      "Ġcontemporary": 5867,
      "Ġrelatively": 5868,
      "ĠBarbara": 5869,
      "Watch": 5870,
      "Ġ#": 5871,
      "Ġgig": 5872,
      "ĠTri": 5873,
      "Ġheaven": 5874,
      "ĠSan": 5875,
      "ĠSur": 5876,
      "ĠMil": 5877,
      "Ġchose": 5878,
      "ĠLook": 5879,
      "elle": 5880,
      "tended": 5881,
      "Ġmakeup": 5882,
      "Ġserves": 5883,
      "Ġspell": 5884,
      "---": 5885,
      "Ġaccents": 5886,
      "Ġhandled": 5887,
      "phas": 5888,
      "Ġsitcom": 5889,
      "Ġexpos": 5890,
      "198": 5891,
      "Ġfootball": 5892,
      "Ġprior": 5893,
      "Ġruin": 5894,
      "Ġlawyer": 5895,
      "Ġclaims": 5896,
      "Ġbaseball": 5897,
      "pent": 5898,
      "Â´": 5899,
      "itiz": 5900,
      "Ġdrop": 5901,
      "Ġreject": 5902,
      "Ġplans": 5903,
      "Ġcann": 5904,
      "achel": 5905,
      "Ġviewed": 5906,
      "Ġacqu": 5907,
      "ĠArt": 5908,
      "Ġreput": 5909,
      "Ġbringing": 5910,
      "Ġholding": 5911,
      "ENT": 5912,
      "Ġspoilers": 5913,
      "Ġsuffers": 5914,
      "Ġspeaks": 5915,
      "ĠBarry": 5916,
      "Ġlatest": 5917,
      "chen": 5918,
      "Ġwid": 5919,
      "ĠCle": 5920,
      "Ġatrocious": 5921,
      "ĠWhe": 5922,
      "ĠDem": 5923,
      "Ġvide": 5924,
      "Ġunfor": 5925,
      "ella": 5926,
      "ogether": 5927,
      "ĠAnna": 5928,
      "Ġexperiences": 5929,
      "Who": 5930,
      "Ġhanging": 5931,
      "Ġinfluence": 5932,
      "Ġmultiple": 5933,
      "Ġsource": 5934,
      "ĠTexas": 5935,
      "GE": 5936,
      "VE": 5937,
      "Ġcivil": 5938,
      "Ġpity": 5939,
      "ĠSun": 5940,
      "Ġsemi": 5941,
      "ĠBon": 5942,
      "Ġtrick": 5943,
      "Ġtruck": 5944,
      "Ġevening": 5945,
      "Ġreminis": 5946,
      "beat": 5947,
      "ivan": 5948,
      "Ġtraining": 5949,
      "Ġpolic": 5950,
      "Ġpresents": 5951,
      "Ġdeaths": 5952,
      "Ġpursu": 5953,
      "Ġprovided": 5954,
      "Ġpromising": 5955,
      "Ġshocked": 5956,
      "written": 5957,
      "Ġlucky": 5958,
      "Ġenthusi": 5959,
      "hi": 5960,
      "inging": 5961,
      "anity": 5962,
      "anny": 5963,
      "arning": 5964,
      "ĠBern": 5965,
      "ĠHill": 5966,
      "Ġarrest": 5967,
      "Ġrealizes": 5968,
      "Ġparticip": 5969,
      "athan": 5970,
      "Ġfactor": 5971,
      "viously": 5972,
      "Ġreporter": 5973,
      "Ġforgettable": 5974,
      "Ġexecution": 5975,
      "ĠIrish": 5976,
      "Ġharm": 5977,
      "ĠCaptain": 5978,
      "sm": 5979,
      "Ġsne": 5980,
      "Ġbound": 5981,
      "Ġbatt": 5982,
      "eness": 5983,
      "ĠHo": 5984,
      "ĠLa": 5985,
      "Ġrise": 5986,
      "ĠFestival": 5987,
      "Ġquir": 5988,
      "ĠStates": 5989,
      "Ġclassics": 5990,
      "Ġconvince": 5991,
      "Ġbrave": 5992,
      "ĠIsland": 5993,
      "Ġpolitics": 5994,
      "aura": 5995,
      "Ġuninteresting": 5996,
      "ĠAustralian": 5997,
      "Ġdegree": 5998,
      "Ġintellectual": 5999,
      "rehen": 6000,
      "Ġhen": 6001,
      "ĠSn": 6002,
      "ĠMOV": 6003,
      "ummy": 6004,
      "ĠGill": 6005,
      "aren": 6006,
      "ressive": 6007,
      "Ġcovered": 6008,
      "Ġsurprises": 6009,
      "Ġpaint": 6010,
      "Ġpainting": 6011,
      "Ġmistakes": 6012,
      "ĠWilson": 6013,
      "ION": 6014,
      "iat": 6015,
      "ship": 6016,
      "Ġbag": 6017,
      "Ġlink": 6018,
      "Ġnominated": 6019,
      "Ġhey": 6020,
      "ioned": 6021,
      "amous": 6022,
      "ĠCas": 6023,
      "Ġsho": 6024,
      "Ġende": 6025,
      "Ġmovement": 6026,
      "loved": 6027,
      "Ġweeks": 6028,
      "Ġcomplain": 6029,
      "Ġcartoons": 6030,
      "Ġcloser": 6031,
      "ausible": 6032,
      "Ġgraph": 6033,
      "ĠBrothers": 6034,
      "ugosi": 6035,
      "cr": 6036,
      "yes": 6037,
      "Ġabr": 6038,
      "Ġfreedom": 6039,
      "Ġnin": 6040,
      "ĠTit": 6041,
      "ĠAdd": 6042,
      "ĠBor": 6043,
      "ĠCaine": 6044,
      "Ġexagger": 6045,
      "ĠPage": 6046,
      "ĠGener": 6047,
      "ĠUs": 6048,
      "ighter": 6049,
      "Ġbitter": 6050,
      "Ġsupernatural": 6051,
      "including": 6052,
      "Ġfocused": 6053,
      "Ġcontinuity": 6054,
      "Ġfrankly": 6055,
      "Ġlesbian": 6056,
      "\"),": 6057,
      "Man": 6058,
      "och": 6059,
      "Ġ)": 6060,
      "inated": 6061,
      "Ġfestival": 6062,
      "Ġmask": 6063,
      "Ġcas": 6064,
      "ĠTed": 6065,
      "ida": 6066,
      "olph": 6067,
      "umph": 6068,
      "ĠNE": 6069,
      "odd": 6070,
      "Ġarg": 6071,
      "Ġoverlook": 6072,
      "formed": 6073,
      "ullivan": 6074,
      "Ġinvent": 6075,
      "ĠBefore": 6076,
      "Ġskip": 6077,
      "ĠReally": 6078,
      "ennis": 6079,
      "Ġpreviously": 6080,
      "ĠPatrick": 6081,
      "Ġidiot": 6082,
      "ĠPacino": 6083,
      "Ġpropaganda": 6084,
      "ixt": 6085,
      "Ġsection": 6086,
      "ĠCamp": 6087,
      "ĠHaving": 6088,
      "ĠHoff": 6089,
      "cker": 6090,
      "ulated": 6091,
      "ĠFer": 6092,
      "ĠKill": 6093,
      "Ġpoign": 6094,
      "Ġcrude": 6095,
      "Ġkillers": 6096,
      "Ġemphas": 6097,
      "Ġkinds": 6098,
      "Ġdistribut": 6099,
      "Ġcommit": 6100,
      "Ġadmire": 6101,
      "Ġwalked": 6102,
      "Ġcombined": 6103,
      "Ġrecognize": 6104,
      "!),": 6105,
      "IR": 6106,
      "Ġdirty": 6107,
      "icit": 6108,
      "Ġgas": 6109,
      "lection": 6110,
      "Ġeld": 6111,
      "Ġstol": 6112,
      "ĠSE": 6113,
      "Ġhaunting": 6114,
      "ĠWat": 6115,
      "ĠDet": 6116,
      "udes": 6117,
      "Ġoverwhel": 6118,
      "Ġcontest": 6119,
      "ĠUp": 6120,
      "airs": 6121,
      "Ġcommitted": 6122,
      "Ġstruggling": 6123,
      "Ġoccasional": 6124,
      "Ġoffered": 6125,
      "Ġfrightening": 6126,
      "iens": 6127,
      "wy": 6128,
      "Ġtable": 6129,
      "Ġlie": 6130,
      "ston": 6131,
      "ĠCru": 6132,
      "ĠDian": 6133,
      "ĠPri": 6134,
      "ĠNichol": 6135,
      "ĠKore": 6136,
      "acle": 6137,
      "Ġsurface": 6138,
      "Ġterm": 6139,
      "umbling": 6140,
      "Ġcreatures": 6141,
      "Ġconcent": 6142,
      "Ġsorts": 6143,
      "Ġnarration": 6144,
      "ĠComm": 6145,
      "Ġaccidentally": 6146,
      "AA": 6147,
      "ij": 6148,
      "Ġsink": 6149,
      "eds": 6150,
      "Ġnude": 6151,
      "Ġanger": 6152,
      "ĠBE": 6153,
      "ĠMGM": 6154,
      "uls": 6155,
      "Ġsche": 6156,
      "Ġoutrage": 6157,
      "Ġrough": 6158,
      "Ġblow": 6159,
      "Ġcris": 6160,
      "Ġriver": 6161,
      "Ġmainstream": 6162,
      "Ġfairy": 6163,
      "Ġprivate": 6164,
      "Ġlandsc": 6165,
      "Ġimprove": 6166,
      "Ġrules": 6167,
      "Ġexperienced": 6168,
      "Is": 6169,
      "Mar": 6170,
      "arant": 6171,
      "Ġdynam": 6172,
      "ashy": 6173,
      "ader": 6174,
      "Ġhealth": 6175,
      "ĠSat": 6176,
      "ĠMod": 6177,
      "ĠComp": 6178,
      "ĠHong": 6179,
      "ĠGet": 6180,
      "ĠNone": 6181,
      "icted": 6182,
      "Ġspite": 6183,
      "Ġideal": 6184,
      "ĠWend": 6185,
      "ĠUnited": 6186,
      "Ġcolors": 6187,
      "ĠGrand": 6188,
      "Ġdollars": 6189,
      "Ġremotely": 6190,
      "Ġreputation": 6191,
      "11": 6192,
      "ona": 6193,
      "add": 6194,
      "Ġstom": 6195,
      "Ġwear": 6196,
      "ĠCap": 6197,
      "Ġabuse": 6198,
      "Ġdirectly": 6199,
      "Ġguard": 6200,
      "Ġspends": 6201,
      "Ġprice": 6202,
      "Ġcutting": 6203,
      "shi": 6204,
      "Ġfeatured": 6205,
      "Ġpsycho": 6206,
      "Ġposition": 6207,
      "Ġmassive": 6208,
      "ĠRoger": 6209,
      "ĠSadly": 6210,
      "gie": 6211,
      "noon": 6212,
      "Ġ0": 6213,
      "onel": 6214,
      "ĠLater": 6215,
      "Ġtrilogy": 6216,
      "Ġeverywhere": 6217,
      "Ġflo": 6218,
      "ĠVinc": 6219,
      "Ġcastle": 6220,
      "Ġdownright": 6221,
      "Ġcaptiv": 6222,
      "ungle": 6223,
      "Ġfigures": 6224,
      "ĠQueen": 6225,
      "Ġdemonstr": 6226,
      "ĠWalter": 6227,
      "ĠHoffman": 6228,
      "By": 6229,
      "wing": 6230,
      "Ġmethod": 6231,
      "ĠBros": 6232,
      "ĠMer": 6233,
      "Ġshut": 6234,
      "ĠDream": 6235,
      "Ġjail": 6236,
      "usive": 6237,
      "Ġwerewolf": 6238,
      "izabeth": 6239,
      "Ġeffectively": 6240,
      "apping": 6241,
      "Ġaccomp": 6242,
      "Ġworthwhile": 6243,
      "Ġfigured": 6244,
      "Ġsuffer": 6245,
      "Ġdesigned": 6246,
      "Ġstatement": 6247,
      "Ġmelodrama": 6248,
      "Ġbothered": 6249,
      "mal": 6250,
      "ya": 6251,
      "Ġtill": 6252,
      "Ġpaced": 6253,
      "Ġgentle": 6254,
      "ĠBaby": 6255,
      "ĠBBC": 6256,
      "ĠCH": 6257,
      "ĠCount": 6258,
      "ĠWall": 6259,
      "ĠEvil": 6260,
      "Ġperformed": 6261,
      "Ġimagery": 6262,
      "Ġfavorites": 6263,
      "Ġrequired": 6264,
      "BI": 6265,
      "Fi": 6266,
      "cause": 6267,
      "girl": 6268,
      "kins": 6269,
      "laim": 6270,
      "mate": 6271,
      "inals": 6272,
      "Ġliber": 6273,
      "ĠHalloween": 6274,
      "ems": 6275,
      "iform": 6276,
      "Ġscale": 6277,
      "ĠPict": 6278,
      "ĠRoman": 6279,
      "ĠFar": 6280,
      "Ġprostit": 6281,
      "ĠOff": 6282,
      "ĠOliver": 6283,
      "Ġnostal": 6284,
      "Ġteens": 6285,
      "Ġ25": 6286,
      "Ġexplains": 6287,
      "Ġswim": 6288,
      "ĠEdward": 6289,
      "Ġpulls": 6290,
      "Ġsuspenseful": 6291,
      "ĠDoes": 6292,
      "ĠPlan": 6293,
      "Ġsensitive": 6294,
      "Ġ1960": 6295,
      "Ġunconvincing": 6296,
      "Ġsubtitles": 6297,
      "ĠVERY": 6298,
      "Ġnostalg": 6299,
      "dim": 6300,
      "low": 6301,
      "Ġfu": 6302,
      "Ġfab": 6303,
      "Ġfix": 6304,
      "Ġhired": 6305,
      "ĠSaturday": 6306,
      "ĠHope": 6307,
      "ĠDrew": 6308,
      "Ġupset": 6309,
      "Ġincident": 6310,
      "ĠJohnson": 6311,
      "Ġformat": 6312,
      "Ġsnow": 6313,
      "Ġstayed": 6314,
      "belief": 6315,
      "Ġtremend": 6316,
      "Ġcrying": 6317,
      "Ġsympathy": 6318,
      "ĠColumbo": 6319,
      "UR": 6320,
      "stone": 6321,
      "ura": 6322,
      "ĠHa": 6323,
      "ĠLugosi": 6324,
      "ĠRem": 6325,
      "ĠNat": 6326,
      "Ġloyal": 6327,
      "Ġguest": 6328,
      "Ġcontract": 6329,
      "Ġcourage": 6330,
      "Ġbuying": 6331,
      "Ġcamer": 6332,
      "Ġextras": 6333,
      "Ġreveals": 6334,
      "Ġencou": 6335,
      "ĠCalifornia": 6336,
      "Ġdinosaur": 6337,
      "Ġencounter": 6338,
      "ĠAvoid": 6339,
      "Ġstolen": 6340,
      "Dav": 6341,
      "Ne": 6342,
      "gen": 6343,
      "mond": 6344,
      "Ġtask": 6345,
      "Ġbore": 6346,
      "Ġcore": 6347,
      "Ġded": 6348,
      "Ġstays": 6349,
      "ĠSk": 6350,
      "ĠSal": 6351,
      "ĠBourne": 6352,
      "ĠCur": 6353,
      "ulp": 6354,
      "ĠDun": 6355,
      "Ġscares": 6356,
      "ĠEve": 6357,
      "Ġ16": 6358,
      "Ġspark": 6359,
      "Ġawards": 6360,
      "Ġsimpl": 6361,
      "onsider": 6362,
      "ĠFran": 6363,
      "Ġamazed": 6364,
      "Ġfocuses": 6365,
      "Ġtwisted": 6366,
      "Ġfaithful": 6367,
      "ĠApparently": 6368,
      "ww": 6369,
      "wor": 6370,
      "atically": 6371,
      "Ġthro": 6372,
      "Ġdom": 6373,
      "ĠAst": 6374,
      "ĠCinderella": 6375,
      "Ġjeal": 6376,
      "ĠFair": 6377,
      "ĠFlor": 6378,
      "ĠFinally": 6379,
      "Ġscenario": 6380,
      "Ġguilty": 6381,
      "Ġcru": 6382,
      "Ġsurf": 6383,
      "stery": 6384,
      "Ġaccording": 6385,
      "ĠThrough": 6386,
      "Ġpassing": 6387,
      ".)<": 6388,
      "Ġstatus": 6389,
      "Ġlegendary": 6390,
      "Ġsignificant": 6391,
      "ĠVietnam": 6392,
      "after": 6393,
      "Ġice": 6394,
      "athy": 6395,
      "Ġcust": 6396,
      "Ġcook": 6397,
      "Ġtoler": 6398,
      "Ġpage": 6399,
      "Ġhaunted": 6400,
      "ĠMuch": 6401,
      "ĠCurt": 6402,
      "Ġworry": 6403,
      "Ġunp": 6404,
      "Ġdiss": 6405,
      "weet": 6406,
      "Ġgritty": 6407,
      "Ġviews": 6408,
      "Ġtrapped": 6409,
      "Ġjobs": 6410,
      "Ġminds": 6411,
      "197": 6412,
      "Ġdevice": 6413,
      "Ġvariety": 6414,
      "Ġ1990": 6415,
      "Ġbreathtaking": 6416,
      "Ġconversation": 6417,
      "Ġabandoned": 6418,
      "ĠFreeman": 6419,
      "Ġnecessarily": 6420,
      "Ġheavily": 6421,
      "bit": 6422,
      "ease": 6423,
      "mates": 6424,
      "Ġwound": 6425,
      "ĠBett": 6426,
      "ĠWor": 6427,
      "ela": 6428,
      "ante": 6429,
      "oln": 6430,
      "Ġintens": 6431,
      "plays": 6432,
      "plend": 6433,
      "Ġ192": 6434,
      "reek": 6435,
      "Ġstrict": 6436,
      "Ġmagical": 6437,
      "ĠclichÃ©d": 6438,
      "Ġdozen": 6439,
      "Michael": 6440,
      "bid": 6441,
      "hem": 6442,
      "ĠMST": 6443,
      "Ġscr": 6444,
      "ola": 6445,
      "ĠGi": 6446,
      "Ġflow": 6447,
      "Ġteeth": 6448,
      "Ġgrues": 6449,
      "Ġcontact": 6450,
      "Ġdecades": 6451,
      "Ġdistinct": 6452,
      "Ġcommand": 6453,
      "ĠDonald": 6454,
      "Ġdelivery": 6455,
      "Ġpaying": 6456,
      "Ġweekend": 6457,
      "Ġvampires": 6458,
      "ĠActually": 6459,
      "Ġdestroyed": 6460,
      "Ġservice": 6461,
      "Anyway": 6462,
      "Ġstomach": 6463,
      "aust": 6464,
      "Ġfond": 6465,
      "Ġbesides": 6466,
      "itious": 6467,
      "Ġheck": 6468,
      "ĠSpr": 6469,
      "ĠWonder": 6470,
      "onda": 6471,
      "Ġade": 6472,
      "iano": 6473,
      "Ġevol": 6474,
      "Ġevident": 6475,
      "Ġconfess": 6476,
      "ĠDevil": 6477,
      "ronic": 6478,
      "Ġcomplicated": 6479,
      "Ġintegr": 6480,
      "ĠANY": 6481,
      "Ġignor": 6482,
      "Ġinhab": 6483,
      "ĠSunday": 6484,
      "ĠEspecially": 6485,
      "Ġveteran": 6486,
      "Ġludicrous": 6487,
      "\").": 6488,
      "Good": 6489,
      "IA": 6490,
      "world": 6491,
      "inch": 6492,
      "Ġtheory": 6493,
      "rees": 6494,
      "Ġwand": 6495,
      "Ġbab": 6496,
      "enced": 6497,
      "Ġgre": 6498,
      "amor": 6499,
      "Ġdeeper": 6500,
      "arden": 6501,
      "ramatic": 6502,
      "Ġsounded": 6503,
      "Ġunderstood": 6504,
      "Ġpregnant": 6505,
      "OP": 6506,
      "called": 6507,
      "orig": 6508,
      "ali": 6509,
      "ĠMill": 6510,
      "outhern": 6511,
      "Ġplaced": 6512,
      "ĠPo": 6513,
      "Ġuniform": 6514,
      "incoln": 6515,
      "Ġchanging": 6516,
      "Ġanticip": 6517,
      "Ġappreciated": 6518,
      "Ġsettings": 6519,
      "Ġclosing": 6520,
      "ĠMexico": 6521,
      "craft": 6522,
      "Ġfacial": 6523,
      "Ġpraise": 6524,
      "Ġmurderer": 6525,
      "IM": 6526,
      "Paul": 6527,
      "case": 6528,
      "fall": 6529,
      "Ġpan": 6530,
      "Ġnaturally": 6531,
      "ĠBu": 6532,
      "Ġlift": 6533,
      "than": 6534,
      "Ġunbe": 6535,
      "iger": 6536,
      "ĠOld": 6537,
      "ĠKid": 6538,
      "assion": 6539,
      "Ġsecurity": 6540,
      "Ġdepiction": 6541,
      "Ġdriven": 6542,
      "ĠCarol": 6543,
      "Ġwinner": 6544,
      "Ġprofound": 6545,
      "Ġexecut": 6546,
      "Ġanswers": 6547,
      "Ġcontribut": 6548,
      "Ġgruesome": 6549,
      "BO": 6550,
      "ipped": 6551,
      "something": 6552,
      "ught": 6553,
      "Ġfil": 6554,
      "Ġfet": 6555,
      "Ġdress": 6556,
      "Ġash": 6557,
      "ĠSher": 6558,
      "ĠBog": 6559,
      "Ġlibr": 6560,
      "agal": 6561,
      "ĠJay": 6562,
      "Ġgreater": 6563,
      "Ġdisbelief": 6564,
      "Ġblat": 6565,
      "ĠYour": 6566,
      "Ġobnox": 6567,
      "Ġaccess": 6568,
      "Ġextent": 6569,
      "Ġadvant": 6570,
      "Ġrenting": 6571,
      "Ġlistening": 6572,
      "ĠWithout": 6573,
      "lover": 6574,
      "ĠAnyone": 6575,
      "Ġmetap": 6576,
      "Ġslapstick": 6577,
      "ns": 6578,
      "erved": 6579,
      "asant": 6580,
      "entist": 6581,
      "ethe": 6582,
      "eter": 6583,
      "Ġblah": 6584,
      "Ġtear": 6585,
      "atherine": 6586,
      "Christ": 6587,
      "Ġjournal": 6588,
      "Ġfunnier": 6589,
      "ĠMexican": 6590,
      "ĠSarah": 6591,
      "Ġwelcome": 6592,
      "IGHT": 6593,
      "Ġdescription": 6594,
      "Br": 6595,
      "apl": 6596,
      "fess": 6597,
      "hib": 6598,
      "Ġmature": 6599,
      "Ġ/>(": 6600,
      "Ġnative": 6601,
      "eturn": 6602,
      "ĠWarner": 6603,
      "Ġstorytelling": 6604,
      "oyd": 6605,
      "Ġdisag": 6606,
      "Ġprime": 6607,
      "Ġpicks": 6608,
      "ĠIndia": 6609,
      "Ġtreasure": 6610,
      "Ġdesperately": 6611,
      "list": 6612,
      "Ġtong": 6613,
      "Ġsides": 6614,
      "Ġbuddy": 6615,
      "imm": 6616,
      "Ġseve": 6617,
      "Ġchief": 6618,
      "ĠDuring": 6619,
      "ĠGand": 6620,
      "Ġmere": 6621,
      "ĠKiller": 6622,
      "ĠChild": 6623,
      "prise": 6624,
      "ĠBranagh": 6625,
      "Ġhelping": 6626,
      "ographer": 6627,
      "Ġexamples": 6628,
      "Ġbasis": 6629,
      "Ġmiscast": 6630,
      "Ġtouched": 6631,
      "Ġnovels": 6632,
      "Ġstereotypical": 6633,
      "Ġchoices": 6634,
      "ĠMOVIE": 6635,
      "Despite": 6636,
      "Ġton": 6637,
      "adays": 6638,
      "aying": 6639,
      "ĠSometimes": 6640,
      "rol": 6641,
      "Ġhack": 6642,
      "Ġcomical": 6643,
      "ĠRachel": 6644,
      "ĠEach": 6645,
      "Ġ17": 6646,
      "Ġenh": 6647,
      "Ġpreview": 6648,
      "Ġguarant": 6649,
      "Ġincor": 6650,
      "igned": 6651,
      "Ġoriginality": 6652,
      "ibilities": 6653,
      "Ġhandle": 6654,
      "Ġirre": 6655,
      "ĠMean": 6656,
      "ĠEmma": 6657,
      "Tw": 6658,
      "Will": 6659,
      "aver": 6660,
      "zel": 6661,
      "Ġwins": 6662,
      "Ġcand": 6663,
      "oration": 6664,
      "Ġisol": 6665,
      "Ġsea": 6666,
      "ĠMovies": 6667,
      "ĠCome": 6668,
      "ĠCub": 6669,
      "Ġchuck": 6670,
      "ifies": 6671,
      "ĠLincoln": 6672,
      "Ġseek": 6673,
      "ĠBrooks": 6674,
      "ĠArmy": 6675,
      "Ġlights": 6676,
      "Ġstarred": 6677,
      "ĠMcG": 6678,
      "Ġforest": 6679,
      "Ġsisters": 6680,
      "Ġcauses": 6681,
      "Ġcampy": 6682,
      "Ġsucceeds": 6683,
      "Ġproperly": 6684,
      "ĠMusic": 6685,
      "Ġdivor": 6686,
      "ĠPresident": 6687,
      "Ġlonely": 6688,
      "Ġextraordinary": 6689,
      "Here": 6690,
      "Ġwrest": 6691,
      "oms": 6692,
      "ĠMin": 6693,
      "ĠHA": 6694,
      "Ġkung": 6695,
      "Ġvir": 6696,
      "Ġvivid": 6697,
      "ĠRoc": 6698,
      "Ġthrows": 6699,
      "Ġblown": 6700,
      "Ġserve": 6701,
      "Ġafternoon": 6702,
      "azing": 6703,
      "Ġconsum": 6704,
      "Ġartists": 6705,
      "ĠDean": 6706,
      "ception": 6707,
      "Ġrepet": 6708,
      "Ġcritical": 6709,
      "Ġdeliber": 6710,
      "!!!!!!!!": 6711,
      "Ġprepared": 6712,
      "Ġinternational": 6713,
      "Ġwarned": 6714,
      "Ġracist": 6715,
      "Ġreminiscent": 6716,
      "Like": 6717,
      "Ġcous": 6718,
      "ico": 6719,
      "uty": 6720,
      "Ġbeloved": 6721,
      "Ġreward": 6722,
      "ĠSO": 6723,
      "ĠCole": 6724,
      "ĠLat": 6725,
      "ĠLOV": 6726,
      "Ġsheriff": 6727,
      "ĠInc": 6728,
      "Ġraised": 6729,
      "Ġscreening": 6730,
      "ucky": 6731,
      "Ġmusicals": 6732,
      "Ġcriminals": 6733,
      "iveness": 6734,
      "ĠAbout": 6735,
      "Ġdepartment": 6736,
      "Ġmildly": 6737,
      "wyck": 6738,
      "dimensional": 6739,
      "etheless": 6740,
      "Ġtiny": 6741,
      "onest": 6742,
      "lected": 6743,
      "ils": 6744,
      "Ġyell": 6745,
      "ooge": 6746,
      "ĠCooper": 6747,
      "Ġshape": 6748,
      "Ġvast": 6749,
      "Ġuniverse": 6750,
      "tending": 6751,
      "Ġcheese": 6752,
      "Ġcaring": 6753,
      "Ġcarried": 6754,
      "Ġcarries": 6755,
      "ĠBeaut": 6756,
      "ĠMarg": 6757,
      "Ġfemin": 6758,
      "ĠCharl": 6759,
      "Ġsummary": 6760,
      "Ġinspiration": 6761,
      "Ġintroduction": 6762,
      "ĠHardy": 6763,
      "Ġsophistic": 6764,
      "rehens": 6765,
      "80": 6766,
      "breaking": 6767,
      "Ġain": 6768,
      "Ġmas": 6769,
      "Ġbow": 6770,
      "Ġboot": 6771,
      "ĠIre": 6772,
      "ĠMic": 6773,
      "ĠDep": 6774,
      "ĠOb": 6775,
      "Ġargu": 6776,
      "ĠChina": 6777,
      "Ġcrash": 6778,
      "Ġsubsequ": 6779,
      "ĠFriday": 6780,
      "except": 6781,
      "Ġinteract": 6782,
      "Ġdemand": 6783,
      "Ġcultural": 6784,
      "Ġcondition": 6785,
      "Ġessential": 6786,
      "Ġhomosexual": 6787,
      "Ġjoin": 6788,
      "ĠPhilip": 6789,
      "ĠSidney": 6790,
      "fun": 6791,
      "Ġske": 6792,
      "Ġsplend": 6793,
      "Ġhip": 6794,
      "arg": 6795,
      "Ġnu": 6796,
      "Ġnation": 6797,
      "utter": 6798,
      "Ġshadow": 6799,
      "ĠDa": 6800,
      "ustrated": 6801,
      "Ġjumps": 6802,
      "eston": 6803,
      "ĠPa": 6804,
      "osity": 6805,
      "ĠNed": 6806,
      "Ġarr": 6807,
      "Ġenter": 6808,
      "Ġcontain": 6809,
      "Ġhappiness": 6810,
      "ancing": 6811,
      "coming": 6812,
      "Ġrule": 6813,
      "ĠPhill": 6814,
      "ĠEnter": 6815,
      "Ġchallenge": 6816,
      "Ġescapes": 6817,
      "Ġdrinking": 6818,
      "Ġweapons": 6819,
      "Ġquirky": 6820,
      "kind": 6821,
      "zil": 6822,
      "ilton": 6823,
      "ieu": 6824,
      "semble": 6825,
      "char": 6826,
      "ĠBall": 6827,
      "ĠBac": 6828,
      "Ġwears": 6829,
      "ĠWid": 6830,
      "ouses": 6831,
      "aste": 6832,
      "Ġrank": 6833,
      "ianc": 6834,
      "atholic": 6835,
      "Ġenjoying": 6836,
      "onscious": 6837,
      "Ġrelated": 6838,
      "Ġinstall": 6839,
      "Ġhalfway": 6840,
      "Ġsky": 6841,
      "iko": 6842,
      "Ġpresentation": 6843,
      "ĠUSA": 6844,
      "Ġpurely": 6845,
      "Ġautom": 6846,
      "Ġsteps": 6847,
      "Ġembarrassed": 6848,
      "OOD": 6849,
      "ĠOtherwise": 6850,
      "Ġarrives": 6851,
      "Ġreplaced": 6852,
      "Ġmountain": 6853,
      "ĠSusan": 6854,
      "Ġinterpretation": 6855,
      "Ġsinister": 6856,
      "utherland": 6857,
      "Ġgraphics": 6858,
      "\"?": 6859,
      "Ex": 6860,
      "Ġbreaking": 6861,
      "order": 6862,
      "Ġdub": 6863,
      "Ġnom": 6864,
      "alph": 6865,
      "ĠSon": 6866,
      "ĠDie": 6867,
      "Ġsuffe": 6868,
      "Ġexists": 6869,
      "ĠLarry": 6870,
      "Ġrub": 6871,
      "Ġunivers": 6872,
      "igr": 6873,
      "ounding": 6874,
      "ĠKnight": 6875,
      "ĠVirgin": 6876,
      "ĠAlice": 6877,
      "Ġfriendly": 6878,
      "Ġstylish": 6879,
      "Ġconcert": 6880,
      "Ġcorpor": 6881,
      "Ġsuccessfully": 6882,
      "Ġpsychiat": 6883,
      "Ġignore": 6884,
      "Ġcarrying": 6885,
      "ĠSandler": 6886,
      "ĠRogers": 6887,
      "ĠNazi": 6888,
      "CT": 6889,
      "Ġtorn": 6890,
      "iner": 6891,
      "Ġcases": 6892,
      "Ġlazy": 6893,
      "ĠTy": 6894,
      "oooo": 6895,
      "ĠSir": 6896,
      "ĠAL": 6897,
      "ĠAp": 6898,
      "ĠBak": 6899,
      "ĠMiller": 6900,
      "Ġvirgin": 6901,
      "ĠLost": 6902,
      "ĠLisa": 6903,
      "umber": 6904,
      "Ġenemy": 6905,
      "Ġadop": 6906,
      "Ġeveryday": 6907,
      "Ġthrowing": 6908,
      "ĠStud": 6909,
      "Ġresist": 6910,
      "Ġrights": 6911,
      "Ġborder": 6912,
      "Ġportra": 6913,
      "Ġconfusion": 6914,
      "Ġattempting": 6915,
      "ĠAtl": 6916,
      "Ġindie": 6917,
      "Ġdaughters": 6918,
      "Ġsleazy": 6919,
      "Ġmentally": 6920,
      "ĠJulie": 6921,
      "ĠWatching": 6922,
      "Ġreference": 6923,
      "ĠZombie": 6924,
      "Ġdetermined": 6925,
      "penter": 6926,
      "Ġobnoxious": 6927,
      "Okay": 6928,
      "ĠMAN": 6929,
      "Ġchair": 6930,
      "ago": 6931,
      "Ġvia": 6932,
      "Ġcharge": 6933,
      "Ġtiming": 6934,
      "irected": 6935,
      "beit": 6936,
      "ĠUnder": 6937,
      "Ġraise": 6938,
      "ĠArn": 6939,
      "Ġdeadly": 6940,
      "Ġratings": 6941,
      "ielberg": 6942,
      "Ġattacked": 6943,
      "Ġadventures": 6944,
      "ĠMatth": 6945,
      "Ġproductions": 6946,
      "Ġrisk": 6947,
      "David": 6948,
      "Per": 6949,
      "Ġcy": 6950,
      "Ġpool": 6951,
      "style": 6952,
      "Ġul": 6953,
      "Ġanal": 6954,
      "ira": 6955,
      "roph": 6956,
      "ĠBesides": 6957,
      "Ġvi": 6958,
      "ĠLem": 6959,
      "Ġclips": 6960,
      "aped": 6961,
      "ĠChannel": 6962,
      "Ġhorrific": 6963,
      "Ġcalling": 6964,
      "ĠSoon": 6965,
      "spired": 6966,
      "ĠReed": 6967,
      "Ġmagaz": 6968,
      "Ġspoiler": 6969,
      "ĠJulia": 6970,
      "Ġgoofy": 6971,
      "Ġintensity": 6972,
      "Director": 6973,
      "Fr": 6974,
      "US": 6975,
      "hay": 6976,
      "Ġbon": 6977,
      "Ġdign": 6978,
      "ams": 6979,
      "Ġdogs": 6980,
      "actic": 6981,
      "ĠRec": 6982,
      "Ġarms": 6983,
      "...\"": 6984,
      "Ġgrim": 6985,
      "Ġdecl": 6986,
      "ĠAlt": 6987,
      "Ġtopic": 6988,
      "ĠElizabeth": 6989,
      "Ġimmense": 6990,
      "Ġpupp": 6991,
      "ĠSwed": 6992,
      "ĠHolmes": 6993,
      "Ġneighborhood": 6994,
      "Ġbalance": 6995,
      "Ġaccompan": 6996,
      "Ġashamed": 6997,
      "fits": 6998,
      "zed": 6999,
      "Ġwishes": 7000,
      "erior": 7001,
      "Ġbill": 7002,
      "Ġlaid": 7003,
      "verse": 7004,
      "rial": 7005,
      "ĠPower": 7006,
      "Ġdisgu": 7007,
      "Ġrelax": 7008,
      "ibal": 7009,
      "Ġcoinc": 7010,
      "Ġnightmare": 7011,
      "ĠBeck": 7012,
      "ĠMaria": 7013,
      "Ġtitles": 7014,
      "Ġdriver": 7015,
      "Ġrefuses": 7016,
      "ification": 7017,
      "Ġstops": 7018,
      "Ġatmospher": 7019,
      "going": 7020,
      "Ġrevolves": 7021,
      "ĠTracy": 7022,
      "anchise": 7023,
      "Ġprincip": 7024,
      "Ad": 7025,
      "CK": 7026,
      "die": 7027,
      "lance": 7028,
      "mod": 7029,
      "tes": 7030,
      "isand": 7031,
      "Ġped": 7032,
      "ĠTake": 7033,
      "ety": 7034,
      "ĠSullivan": 7035,
      "rael": 7036,
      "ĠCus": 7037,
      "ĠDal": 7038,
      "Ġovercome": 7039,
      "Ġdislike": 7040,
      "Ġserved": 7041,
      "Ġcheer": 7042,
      "aze": 7043,
      "ĠShar": 7044,
      "umbs": 7045,
      "Ġgrave": 7046,
      "Ġstruggles": 7047,
      "Ġexpressions": 7048,
      "Ġregarding": 7049,
      "ĠStanwyck": 7050,
      "lynn": 7051,
      "Ġsentimental": 7052,
      "Ġfrequently": 7053,
      "Ġestablished": 7054,
      "Ġfabulous": 7055,
      "Ġadvantage": 7056,
      "Bra": 7057,
      "Having": 7058,
      "KE": 7059,
      "can": 7060,
      "iques": 7061,
      "eral": 7062,
      "Ġlust": 7063,
      "story": 7064,
      "ila": 7065,
      "Ġstunt": 7066,
      "cellent": 7067,
      "rab": 7068,
      "Ġattend": 7069,
      "ĠWes": 7070,
      "Ġplastic": 7071,
      "ĠRick": 7072,
      "Ġcance": 7073,
      "Ġlearning": 7074,
      "Ġmansion": 7075,
      "ogical": 7076,
      "ĠVamp": 7077,
      "Ġhorrend": 7078,
      "Ġterrifying": 7079,
      "Ġretarded": 7080,
      "Ã©e": 7081,
      "iamond": 7082,
      "ĠJewish": 7083,
      "Ġimaginative": 7084,
      "Ġpoignant": 7085,
      "ĠBettie": 7086,
      "vably": 7087,
      "Ġtrap": 7088,
      "Ġtense": 7089,
      "Ġphen": 7090,
      "ĠTurn": 7091,
      "iments": 7092,
      "ĠAward": 7093,
      "ĠBack": 7094,
      "ĠHal": 7095,
      "Ġneck": 7096,
      "ĠNel": 7097,
      "Ġlocked": 7098,
      "gettable": 7099,
      "Ġslo": 7100,
      "Ġstupidity": 7101,
      "Ġcredible": 7102,
      "Ġcredibility": 7103,
      "Ġthrilling": 7104,
      "Ġpersonalities": 7105,
      "Ġsleeping": 7106,
      "ĠStanley": 7107,
      "vira": 7108,
      "Ġinterviews": 7109,
      "Ġcynical": 7110,
      "Ġelder": 7111,
      "jud": 7112,
      "mitted": 7113,
      "Ġho": 7114,
      "Ġdude": 7115,
      "Ġmock": 7116,
      "ĠSutherland": 7117,
      "ulate": 7118,
      "Ġdece": 7119,
      "ĠFBI": 7120,
      "ĠNY": 7121,
      "Ġarrog": 7122,
      "Ġprevent": 7123,
      "erek": 7124,
      "ĠChapl": 7125,
      "Ġinco": 7126,
      "ĠBeing": 7127,
      "Ġamazingly": 7128,
      "ONE": 7129,
      "Ġangle": 7130,
      "Ġobsession": 7131,
      "Ġpuzz": 7132,
      "Ġtongue": 7133,
      "60": 7134,
      "end": 7135,
      "when": 7136,
      "watch": 7137,
      "Ġtempt": 7138,
      "inate": 7139,
      "Ġfulf": 7140,
      "adget": 7141,
      "amie": 7142,
      "Ġweight": 7143,
      "Ġshark": 7144,
      "ulk": 7145,
      "ĠDennis": 7146,
      "ĠRen": 7147,
      "ĠRaj": 7148,
      "Ġlegs": 7149,
      "place": 7150,
      "mentioned": 7151,
      "Ġgreatly": 7152,
      "Ġbetray": 7153,
      "Ġrolling": 7154,
      "forward": 7155,
      "Ġspoken": 7156,
      "ersonally": 7157,
      "Ġglimp": 7158,
      "Ġcountries": 7159,
      "Ġdrives": 7160,
      "Ġguessing": 7161,
      "Ġtechnique": 7162,
      "Ġcomedian": 7163,
      "Ġinnov": 7164,
      "Ġattacks": 7165,
      "Ġbroke": 7166,
      "Ġuncomfortable": 7167,
      "Ġsuffered": 7168,
      "Ġglimpse": 7169,
      "fire": 7170,
      "ugh": 7171,
      "vo": 7172,
      "worth": 7173,
      "Ġwasting": 7174,
      "ĠBL": 7175,
      "ĠBaker": 7176,
      "ĠLore": 7177,
      "Ġtrite": 7178,
      "Ġensemble": 7179,
      "berl": 7180,
      "Ġminimal": 7181,
      "Ġtraum": 7182,
      "Ġourselves": 7183,
      "Ġlesser": 7184,
      "Ġmindless": 7185,
      "phan": 7186,
      "Ġsket": 7187,
      "ĠBritain": 7188,
      "Ġpatient": 7189,
      "Ġamongst": 7190,
      "Ġflawed": 7191,
      "liners": 7192,
      "ĠMatrix": 7193,
      "fest": 7194,
      "ipping": 7195,
      "sch": 7196,
      "Ġtree": 7197,
      "inge": 7198,
      "Ġeth": 7199,
      "Ġbutt": 7200,
      "Ġnotable": 7201,
      "Ġalright": 7202,
      "Ġmanager": 7203,
      "Ġenjoyment": 7204,
      "Ġinvis": 7205,
      "Ġmedical": 7206,
      "Ġironic": 7207,
      "Ġweakness": 7208,
      "Ġ2000": 7209,
      "sett": 7210,
      "Unfortunately": 7211,
      "Ġwealthy": 7212,
      "Ġmarvelous": 7213,
      "ĠRochester": 7214,
      "Maybe": 7215,
      "from": 7216,
      "llo": 7217,
      "arm": 7218,
      "iled": 7219,
      "ĠSav": 7220,
      "ĠBurt": 7221,
      "ĠBrend": 7222,
      "Ġshines": 7223,
      "aki": 7224,
      "Ġunh": 7225,
      "ooky": 7226,
      "Ġraw": 7227,
      "Ġtriumph": 7228,
      "Ġconspir": 7229,
      "Ġadding": 7230,
      "Ġshorts": 7231,
      "Ġfallen": 7232,
      "ĠSpielberg": 7233,
      "Ġannoun": 7234,
      "ĠIsrael": 7235,
      "Ġirony": 7236,
      "Ġconnected": 7237,
      "Ġphysically": 7238,
      "ĠBrando": 7239,
      "Ġghosts": 7240,
      "Ġseparate": 7241,
      "Ġcontroversial": 7242,
      "ĠMeanwhile": 7243,
      "ĠWidmark": 7244,
      "LD": 7245,
      "Mr": 7246,
      "TER": 7247,
      "inci": 7248,
      "Ġhors": 7249,
      "Ġgain": 7250,
      "Ġchilling": 7251,
      "Ġchoos": 7252,
      "ĠDi": 7253,
      "ĠDrag": 7254,
      "Ġfranchise": 7255,
      "Ġexer": 7256,
      "acter": 7257,
      "ĠProdu": 7258,
      "ĠLI": 7259,
      "ĠLiving": 7260,
      "ĠRalph": 7261,
      "Ġenorm": 7262,
      "Ġnowadays": 7263,
      "Ġtrial": 7264,
      "Ġperfection": 7265,
      "ĠBlair": 7266,
      "Ġopened": 7267,
      "Ġexceptional": 7268,
      "Ġparall": 7269,
      "Ġequal": 7270,
      "Ġunfold": 7271,
      "Ġsuggests": 7272,
      "Ġinnocence": 7273,
      "Ġspiritual": 7274,
      "ĠBurton": 7275,
      "Ġinitially": 7276,
      "Ġaston": 7277,
      "Ġprotagonists": 7278,
      "ĠBasically": 7279,
      "Ġgripping": 7280,
      "ĠLeslie": 7281,
      "ĠCamer": 7282,
      "ĠJessica": 7283,
      "ĠMatthau": 7284,
      "oved": 7285,
      "Ġtune": 7286,
      "Ġinj": 7287,
      "utch": 7288,
      "ĠSol": 7289,
      "Ġnoted": 7290,
      "ĠDaw": 7291,
      "iffe": 7292,
      "ĠLand": 7293,
      "ĠRep": 7294,
      "Ġrat": 7295,
      "Ġmechan": 7296,
      "inda": 7297,
      "ĠNol": 7298,
      "Ġqueen": 7299,
      "obb": 7300,
      "Ġscripts": 7301,
      "Ġconsists": 7302,
      "Ġelabor": 7303,
      "Ġcaric": 7304,
      "Ġdevelops": 7305,
      "Ġoccup": 7306,
      "Ġmiles": 7307,
      "ĠItaly": 7308,
      "Ġrobot": 7309,
      "ĠWWII": 7310,
      "Ġweapon": 7311,
      "ĠOliv": 7312,
      "ĠAndrews": 7313,
      "Ġthousands": 7314,
      "Ġoblig": 7315,
      "Ġunbear": 7316,
      "Ġatmospheric": 7317,
      "?),": 7318,
      "BS": 7319,
      "Most": 7320,
      "hard": 7321,
      "hold": 7322,
      "wife": 7323,
      "Ġtied": 7324,
      "Ġsings": 7325,
      "Ġbudd": 7326,
      "Ġgather": 7327,
      "Ġstumb": 7328,
      "ĠCandy": 7329,
      "ĠHave": 7330,
      "ĠDE": 7331,
      "ements": 7332,
      "ĠRun": 7333,
      "ĠKen": 7334,
      "Ġspy": 7335,
      "Ġspots": 7336,
      "ĠChurch": 7337,
      "ĠVeg": 7338,
      "ĠIntern": 7339,
      "ocr": 7340,
      "ĠSeagal": 7341,
      "ĠCarpenter": 7342,
      "Ġannoyed": 7343,
      "ĠGeor": 7344,
      "Ġsexuality": 7345,
      "ĠStreisand": 7346,
      "Ġdubbing": 7347,
      "ĠPolice": 7348,
      "Ġhundreds": 7349,
      "ĠVincent": 7350,
      "ĠChaplin": 7351,
      "Wow": 7352,
      "cut": 7353,
      "ket": 7354,
      "writ": 7355,
      "onne": 7356,
      "Ġtow": 7357,
      "bra": 7358,
      "lee": 7359,
      "Ġstates": 7360,
      "Ġaliens": 7361,
      "ĠLion": 7362,
      "ĠRee": 7363,
      "ĠGreg": 7364,
      "Ġmeat": 7365,
      "Ġlovable": 7366,
      "ĠOw": 7367,
      "Ġnose": 7368,
      "Ġmyst": 7369,
      "Ġlessons": 7370,
      "Ġpresum": 7371,
      "annon": 7372,
      "Ġcameos": 7373,
      "Ġdarkness": 7374,
      "ĠOscars": 7375,
      "Ġhoped": 7376,
      "Ġprogress": 7377,
      "ĠTrue": 7378,
      "Ġaccepted": 7379,
      "Ġmeaningful": 7380,
      "ĠIran": 7381,
      "Ġneighb": 7382,
      "Ġmirror": 7383,
      "Ġracism": 7384,
      "Ġperformers": 7385,
      "ĠYeah": 7386,
      "Ġbelongs": 7387,
      "ĠREALLY": 7388,
      "Ġassistant": 7389,
      "Ġwidow": 7390,
      "ĠNelson": 7391,
      "Where": 7392,
      "ez": 7393,
      "Ġaired": 7394,
      "Ġfest": 7395,
      "Ġfirm": 7396,
      "Ġcock": 7397,
      "Ġthick": 7398,
      "idents": 7399,
      "ĠBollywood": 7400,
      "ĠHy": 7401,
      "opath": 7402,
      "ĠRa": 7403,
      "ĠFle": 7404,
      "awa": 7405,
      "Ġguilt": 7406,
      "Ġbackd": 7407,
      "Ġscreenwriter": 7408,
      "retty": 7409,
      "ĠClaire": 7410,
      "ĠRoberts": 7411,
      "Ġlarger": 7412,
      "ĠGuy": 7413,
      "THE": 7414,
      "Ġambig": 7415,
      "Ġspecific": 7416,
      "ĠMichelle": 7417,
      "ĠGeneral": 7418,
      "Am": 7419,
      "ito": 7420,
      "only": 7421,
      "Ġhiding": 7422,
      "Ġlying": 7423,
      "Ġbeating": 7424,
      "Ġreli": 7425,
      "Ġstorm": 7426,
      "oops": 7427,
      "ĠBAD": 7428,
      "ĠWOR": 7429,
      "unn": 7430,
      "Ġactiv": 7431,
      "ĠPL": 7432,
      "ĠFlynn": 7433,
      "ĠGriff": 7434,
      "udson": 7435,
      "acre": 7436,
      "Ġfinan": 7437,
      "Ġletting": 7438,
      "emption": 7439,
      "ĠScar": 7440,
      "Ġeleg": 7441,
      "comedy": 7442,
      "ologist": 7443,
      "Ġmetal": 7444,
      "Ġsurviv": 7445,
      "Arthur": 7446,
      "Ġturkey": 7447,
      "Ġsplendid": 7448,
      "UL": 7449,
      "ype": 7450,
      "hest": 7451,
      "Ġbeach": 7452,
      "seud": 7453,
      "ĠBoll": 7454,
      "Ġcha": 7455,
      "ĠDad": 7456,
      "ifying": 7457,
      "elve": 7458,
      "aky": 7459,
      "ĠLum": 7460,
      "ĠRand": 7461,
      "Ġintention": 7462,
      "ĠFoster": 7463,
      "ĠGhost": 7464,
      "ĠOur": 7465,
      "Ġperpet": 7466,
      "Ġproof": 7467,
      "Ġpointed": 7468,
      "ocal": 7469,
      "Ġsmooth": 7470,
      "ĠThree": 7471,
      "rett": 7472,
      "ĠFriend": 7473,
      "Ġsuperfic": 7474,
      "rified": 7475,
      "Ġafford": 7476,
      "Ġidiotic": 7477,
      "Ġconcerns": 7478,
      "Ġsegments": 7479,
      "ĠUniversal": 7480,
      "Ġadequ": 7481,
      "Rich": 7482,
      "len": 7483,
      "loyd": 7484,
      "Ġwanna": 7485,
      "Ġwreck": 7486,
      "Ġtoile": 7487,
      "Ġnational": 7488,
      "Ġupper": 7489,
      "Ġsends": 7490,
      "ĠCow": 7491,
      "ĠDerek": 7492,
      "ĠPort": 7493,
      "ĠFay": 7494,
      "ĠGoth": 7495,
      "ĠGlover": 7496,
      "Ġunre": 7497,
      "udge": 7498,
      "Ġseeking": 7499,
      "ĠKurt": 7500,
      "avor": 7501,
      "eremy": 7502,
      "ĠHeaven": 7503,
      "Ġexplicit": 7504,
      "ographic": 7505,
      "Ġdialogs": 7506,
      "Ġinfamous": 7507,
      "Ġsolve": 7508,
      "Ġcomplaint": 7509,
      "Ġachieved": 7510,
      "Ġ1940": 7511,
      "ĠLucy": 7512,
      "Ġbroadcast": 7513,
      "ĠWalken": 7514,
      "Ġhooked": 7515,
      "Robert": 7516,
      "Ġtroubled": 7517,
      "Ġbattles": 7518,
      "Ġendearing": 7519,
      "Ġdisagree": 7520,
      "Ġportrait": 7521,
      "ĠArnold": 7522,
      "Ġultra": 7523,
      "Ġhorses": 7524,
      "Gr": 7525,
      "OD": 7526,
      "Tr": 7527,
      "gun": 7528,
      "Ġafore": 7529,
      "hew": 7530,
      "ingu": 7531,
      "asion": 7532,
      "imag": 7533,
      "Ġstiff": 7534,
      "ĠBuck": 7535,
      "ĠMa": 7536,
      "Ġjungle": 7537,
      "Ġrhy": 7538,
      "umble": 7539,
      "Ġpreach": 7540,
      "Ġflu": 7541,
      "Ġunderground": 7542,
      "ĠDefinitely": 7543,
      "Ġhomeless": 7544,
      "Ġexpensive": 7545,
      "Ġdrown": 7546,
      "Ġappearances": 7547,
      "Ġ:)": 7548,
      "Ġessence": 7549,
      "Ġofficial": 7550,
      "ĠLucas": 7551,
      "Ġsearching": 7552,
      "Ġdinner": 7553,
      "horror": 7554,
      "Ġcharisma": 7555,
      "ĠCurtis": 7556,
      "Con": 7557,
      "El": 7558,
      "cies": 7559,
      "hh": 7560,
      "hill": 7561,
      "rich": 7562,
      "Ġtax": 7563,
      "Ġsaves": 7564,
      "Ġmont": 7565,
      "Ġbik": 7566,
      "Ġdump": 7567,
      "Ġguts": 7568,
      "Ġeager": 7569,
      "entric": 7570,
      "ooby": 7571,
      "ĠAz": 7572,
      "ĠAud": 7573,
      "urse": 7574,
      "ĠHome": 7575,
      "Ġchases": 7576,
      "Ġcomfort": 7577,
      "aka": 7578,
      "aude": 7579,
      "ĠEN": 7580,
      "Ġknife": 7581,
      "Ġentry": 7582,
      "Ġripped": 7583,
      "Ġhappily": 7584,
      "Ġfarm": 7585,
      "gging": 7586,
      "ograph": 7587,
      "Ġdragged": 7588,
      "Ġswitch": 7589,
      "Ġdealt": 7590,
      "ANT": 7591,
      "Ġdevil": 7592,
      "Ġdisappear": 7593,
      "Ġdaily": 7594,
      "Ġincoherent": 7595,
      "En": 7596,
      "Jack": 7597,
      "tan": 7598,
      "too": 7599,
      "Ġoil": 7600,
      "Ġhole": 7601,
      "Ġinfect": 7602,
      "brick": 7603,
      "Ġeerie": 7604,
      "ĠTem": 7605,
      "adows": 7606,
      "ĠAge": 7607,
      "ĠCel": 7608,
      "ĠHanks": 7609,
      "ĠDin": 7610,
      "acked": 7611,
      "Ġgoal": 7612,
      "ellar": 7613,
      "ĠKrist": 7614,
      "ogue": 7615,
      "plete": 7616,
      "Ġaged": 7617,
      "Ġspread": 7618,
      "Ġnewsp": 7619,
      "ĠClass": 7620,
      "Ġthrillers": 7621,
      "ĠSomeone": 7622,
      "oilers": 7623,
      "Ġchecking": 7624,
      "Ġstriking": 7625,
      "conom": 7626,
      "Ġcompetent": 7627,
      "Ġurban": 7628,
      "Ġsplit": 7629,
      "Ġreactions": 7630,
      "ĠHelen": 7631,
      "ĠEastwood": 7632,
      "Ġinexplic": 7633,
      "Ġunforgettable": 7634,
      "Ġabrupt": 7635,
      "13": 7636,
      "?).": 7637,
      "vest": 7638,
      "Ġhill": 7639,
      "Ġpseud": 7640,
      "asingly": 7641,
      "lear": 7642,
      "ctions": 7643,
      "ĠSomething": 7644,
      "irit": 7645,
      "ĠWere": 7646,
      "Ġplant": 7647,
      "Ġplague": 7648,
      "Ġvent": 7649,
      "ĠFel": 7650,
      "quis": 7651,
      "Ġtender": 7652,
      "Ġcovers": 7653,
      "Ġrestaur": 7654,
      "ĠBlue": 7655,
      "ĠReyn": 7656,
      "ĠUnlike": 7657,
      "Ġshoots": 7658,
      "Ġtechniques": 7659,
      "Ġ2006": 7660,
      "ĠElvis": 7661,
      "Ġboredom": 7662,
      "ĠSchool": 7663,
      "Ġcolorful": 7664,
      "Ġcrafted": 7665,
      "Ġingred": 7666,
      "ĠCusack": 7667,
      "SPOILERS": 7668,
      "hoe": 7669,
      "iable": 7670,
      "iently": 7671,
      "rep": 7672,
      "Ġcere": 7673,
      "enstein": 7674,
      "Ġthread": 7675,
      "Ġgal": 7676,
      "imum": 7677,
      "Ġsevent": 7678,
      "ĠBach": 7679,
      "uristic": 7680,
      "ĠMom": 7681,
      "ĠHeston": 7682,
      "agan": 7683,
      "Ġalt": 7684,
      "Ġrushed": 7685,
      "ĠJac": 7686,
      "Ġtricks": 7687,
      "ĠOkay": 7688,
      "icker": 7689,
      "Ġposter": 7690,
      "Ġagg": 7691,
      "ishment": 7692,
      "Ġgrows": 7693,
      "Ġ24": 7694,
      "Ġincons": 7695,
      "Ġterrit": 7696,
      "Ġsexually": 7697,
      "Ġexplore": 7698,
      "ierce": 7699,
      "ĠClub": 7700,
      "ĠReg": 7701,
      "Ġcountless": 7702,
      "Ġstrangely": 7703,
      "EAD": 7704,
      "ĠGrace": 7705,
      "Ġmillions": 7706,
      "Ġfolk": 7707,
      "Ġburst": 7708,
      "Ġtribute": 7709,
      "30": 7710,
      "Ġtag": 7711,
      "rell": 7712,
      "Ġthirty": 7713,
      "Ġtoss": 7714,
      "Ġlur": 7715,
      "idel": 7716,
      "ĠMann": 7717,
      "Ġwebs": 7718,
      "ĠHot": 7719,
      "ĠHudson": 7720,
      "ĠFamily": 7721,
      "umm": 7722,
      "ĠGen": 7723,
      "ĠKirk": 7724,
      "Ġshower": 7725,
      "Ġresour": 7726,
      "Ġcarefully": 7727,
      "Ġbasement": 7728,
      "Ġhopefully": 7729,
      "Ġclosely": 7730,
      "Ġstronger": 7731,
      "Ġtransfer": 7732,
      "uclear": 7733,
      "Ġbusy": 7734,
      "ambling": 7735,
      "afia": 7736,
      "Ġstunts": 7737,
      "Ġprofessor": 7738,
      "Ġrepeat": 7739,
      "Ġrepresents": 7740,
      "ĠIII": 7741,
      "minute": 7742,
      "Ġphotographer": 7743,
      "Ġsurrounding": 7744,
      "Ġsurrounded": 7745,
      "ĠThings": 7746,
      "ĠKarloff": 7747,
      "Ġcousin": 7748,
      "Ġhorrendous": 7749,
      "70": 7750,
      "ELL": 7751,
      "book": 7752,
      "rd": 7753,
      "via": 7754,
      "Ġsons": 7755,
      "Ġfish": 7756,
      "atures": 7757,
      "atisf": 7758,
      "arter": 7759,
      "alo": 7760,
      "Ġstated": 7761,
      "rig": 7762,
      "ushes": 7763,
      "ĠLam": 7764,
      "ĠLake": 7765,
      "ĠLane": 7766,
      "Ġintentions": 7767,
      "ĠFu": 7768,
      "ĠFin": 7769,
      "redict": 7770,
      "ĠEst": 7771,
      "Ġfeed": 7772,
      "Ġfears": 7773,
      "Ġquote": 7774,
      "Ġpoet": 7775,
      "new": 7776,
      "Ġdetract": 7777,
      "Ġattempted": 7778,
      "Ġmessages": 7779,
      "Ġcorner": 7780,
      "urious": 7781,
      "Ġlimit": 7782,
      "Ġrequires": 7783,
      "Ġwalls": 7784,
      "Ġoccurs": 7785,
      "Ġstretch": 7786,
      "Ġcharismatic": 7787,
      "Ġvirus": 7788,
      "Ġexercise": 7789,
      "BLE": 7790,
      "Finally": 7791,
      "gain": 7792,
      "why": 7793,
      "Ġ***": 7794,
      "Ġfra": 7795,
      "Ġfired": 7796,
      "esc": 7797,
      "ora": 7798,
      "onse": 7799,
      "ĠIra": 7800,
      "allo": 7801,
      "ĠAT": 7802,
      "ĠCry": 7803,
      "cket": 7804,
      "ifting": 7805,
      "ĠPoint": 7806,
      "ĠLaura": 7807,
      "ĠLloyd": 7808,
      "erty": 7809,
      "ĠAndre": 7810,
      "Ġattached": 7811,
      "riller": 7812,
      "Ġdramas": 7813,
      "Ġdrags": 7814,
      "Ġeasier": 7815,
      "Ġhonor": 7816,
      "ĠCheck": 7817,
      "Ġmadness": 7818,
      "Ġidentify": 7819,
      "Ġsuspects": 7820,
      "ĠCanada": 7821,
      "Ġthousand": 7822,
      "Ġincreasingly": 7823,
      "Ġvacation": 7824,
      "Ġphenomen": 7825,
      "bal": 7826,
      "den": 7827,
      "dated": 7828,
      "Ġwicked": 7829,
      "oni": 7830,
      "ĠMU": 7831,
      "Ġnotch": 7832,
      "Ġexch": 7833,
      "Ġkicks": 7834,
      "ĠLog": 7835,
      "ĠRoll": 7836,
      "ĠKap": 7837,
      "ĠKath": 7838,
      "plots": 7839,
      "....<": 7840,
      "Ġworkers": 7841,
      "ĠChuck": 7842,
      "anging": 7843,
      "thew": 7844,
      "Ġbelieving": 7845,
      "ibl": 7846,
      "ointed": 7847,
      "Ġrestra": 7848,
      "Ġelsewhere": 7849,
      "Ġelev": 7850,
      "Ġbrilliance": 7851,
      "Ġ2001": 7852,
      "Ġfourth": 7853,
      "ĠPrinc": 7854,
      "Ġadapted": 7855,
      "Ġprojects": 7856,
      "Ġprofession": 7857,
      "Ġdropped": 7858,
      "Ġnetwork": 7859,
      "Ġinevitable": 7860,
      "Ġvideos": 7861,
      "Ġlibrary": 7862,
      "Int": 7863,
      "cil": 7864,
      "fact": 7865,
      "hs": 7866,
      "iors": 7867,
      "Ġwave": 7868,
      "orc": 7869,
      "Ġdomin": 7870,
      "Ġeconom": 7871,
      "ĠBol": 7872,
      "ĠBook": 7873,
      "ĠMid": 7874,
      "ĠMass": 7875,
      "Ġshy": 7876,
      "ĠWater": 7877,
      "ĠWoman": 7878,
      "ĠPG": 7879,
      "Ġdepe": 7880,
      "ĠRitter": 7881,
      "Ġramp": 7882,
      "ĠFire": 7883,
      "ĠFalk": 7884,
      "udos": 7885,
      "Ġimit": 7886,
      "Ġflight": 7887,
      "Ġspending": 7888,
      "Ġattraction": 7889,
      "ructed": 7890,
      "Ġhandful": 7891,
      "existent": 7892,
      "Ġpresident": 7893,
      "ĠDev": 7894,
      "Ġrelevant": 7895,
      "Ġconclud": 7896,
      "Ġthrills": 7897,
      "194": 7898,
      "chell": 7899,
      "Ġacceptable": 7900,
      "Ġstrip": 7901,
      "Ġfortune": 7902,
      "Ġencounters": 7903,
      "accur": 7904,
      "Ġassociated": 7905,
      "Ġcabin": 7906,
      "ĠTitanic": 7907,
      "works": 7908,
      "ĠReynolds": 7909,
      "cont": 7910,
      "nes": 7911,
      "pse": 7912,
      "pieces": 7913,
      "such": 7914,
      "hey": 7915,
      "Ġwra": 7916,
      "Ġmes": 7917,
      "ata": 7918,
      "ato": 7919,
      "Ġetern": 7920,
      "entin": 7921,
      "Ġstood": 7922,
      "ĠBette": 7923,
      "ĠCox": 7924,
      "acters": 7925,
      "anting": 7926,
      "Ġalike": 7927,
      "ĠJake": 7928,
      "ĠEnd": 7929,
      "odes": 7930,
      "obe": 7931,
      "Ġenters": 7932,
      "Ġkillings": 7933,
      "Ġrain": 7934,
      "Ġappearing": 7935,
      "Ġpleased": 7936,
      "Ġriding": 7937,
      "unky": 7938,
      "Ġimportance": 7939,
      "ĠDoctor": 7940,
      "rifice": 7941,
      "Ġhype": 7942,
      "ĠMiike": 7943,
      "Ġvulner": 7944,
      "ĠObviously": 7945,
      "ĠDawson": 7946,
      "iation": 7947,
      "nic": 7948,
      "woman": 7949,
      "Ġfaced": 7950,
      "itchen": 7951,
      "Ġcave": 7952,
      "orrow": 7953,
      "ĠAir": 7954,
      "ĠHug": 7955,
      "Ġchasing": 7956,
      "ĠWow": 7957,
      "ĠWitch": 7958,
      "Ġjerk": 7959,
      "Ġruth": 7960,
      "mann": 7961,
      "ccentric": 7962,
      "Ġsuburb": 7963,
      "ĠBrid": 7964,
      "ords": 7965,
      "Ġchildish": 7966,
      "Ġworthless": 7967,
      "Ġuseless": 7968,
      "ĠCarter": 7969,
      "ĠCarrey": 7970,
      "Ġselfish": 7971,
      "Ġimportantly": 7972,
      "ambo": 7973,
      "ĠGolden": 7974,
      "Ġmedium": 7975,
      "ĠActing": 7976,
      "Ġdollar": 7977,
      "ĠScience": 7978,
      "handed": 7979,
      "Ġtorment": 7980,
      "Ġcrisis": 7981,
      "Act": 7982,
      "AIN": 7983,
      "Tit": 7984,
      "cul": 7985,
      "kick": 7986,
      "tte": 7987,
      "inent": 7988,
      "Ġwann": 7989,
      "Ġfitting": 7990,
      "Ġfianc": 7991,
      "Ġhipp": 7992,
      "Ġpush": 7993,
      "ĠImp": 7994,
      "Ġnuts": 7995,
      "Ġmoon": 7996,
      "Ġreb": 7997,
      "Ġhes": 7998,
      "ĠSuch": 7999,
      "roy": 8000,
      "urai": 8001,
      "race": 8002,
      "ĠHunter": 8003,
      "agn": 8004,
      "ĠRing": 8005,
      "ĠRub": 8006,
      "ĠNavy": 8007,
      "Ġune": 8008,
      "Ġunple": 8009,
      "igan": 8010,
      "ĠKane": 8011,
      "Ġprecise": 8012,
      "Ġrealise": 8013,
      "Ġperforming": 8014,
      "Ġcrimes": 8015,
      "ĠAlong": 8016,
      "Ġstranger": 8017,
      "Ġinstantly": 8018,
      "kshay": 8019,
      "Ġadvance": 8020,
      "ĠIndeed": 8021,
      "ĠConn": 8022,
      "Ġcontinued": 8023,
      "Ġinsulting": 8024,
      "Ġkidnapped": 8025,
      "Ġwondered": 8026,
      "âĢĻ": 8027,
      "itizen": 8028,
      "ĠPlanet": 8029,
      "Ġtremendous": 8030,
      "original": 8031,
      "onestly": 8032,
      "Richard": 8033,
      "Ġaforementioned": 8034,
      "!.": 8035,
      "Ġwake": 8036,
      "stop": 8037,
      "rior": 8038,
      "ĠCook": 8039,
      "ĠCatholic": 8040,
      "uments": 8041,
      "ĠGive": 8042,
      "ĠGabr": 8043,
      "Ġbridge": 8044,
      "Ġappalling": 8045,
      "ĠBrook": 8046,
      "Ġinsist": 8047,
      "Ġcreation": 8048,
      "Ġtalked": 8049,
      "Ġmenacing": 8050,
      "ĠReal": 8051,
      "shine": 8052,
      "Ġlisted": 8053,
      "Ġnonetheless": 8054,
      "Ġpleasantly": 8055,
      "Ġflawless": 8056,
      "ĠNightmare": 8057,
      "Ġhomage": 8058,
      "Ġscientists": 8059,
      "Ġindividuals": 8060,
      "ĠMuslim": 8061,
      "ĠAustralia": 8062,
      "ĠCinema": 8063,
      "Ġbreasts": 8064,
      "Ġrevelation": 8065,
      "ĠSatan": 8066,
      "ĠAstaire": 8067,
      "ĠBakshi": 8068,
      "Ġsuperficial": 8069,
      "Ġtoilet": 8070,
      "Pe": 8071,
      "Very": 8072,
      "itchell": 8073,
      "Ġpig": 8074,
      "Ġpushed": 8075,
      "Ġinaccur": 8076,
      "icop": 8077,
      "ado": 8078,
      "ĠBus": 8079,
      "ĠBurns": 8080,
      "Ġchamp": 8081,
      "ĠWind": 8082,
      "Ġallowing": 8083,
      "agney": 8084,
      "ĠLos": 8085,
      "Ġconven": 8086,
      "issy": 8087,
      "Ġbucks": 8088,
      "Ġletter": 8089,
      "ĠSpike": 8090,
      "Ġdrivel": 8091,
      "Ġillustr": 8092,
      "Ġdestruction": 8093,
      "Ġdancer": 8094,
      "Ġloser": 8095,
      "Ġattracted": 8096,
      "Ġbriefly": 8097,
      "Before": 8098,
      "Ġinvestigation": 8099,
      "Ġlabor": 8100,
      "ĠBobby": 8101,
      "Ġresolution": 8102,
      "Ġconsequences": 8103,
      "ĠKorean": 8104,
      "Ġsophisticated": 8105,
      "lon": 8106,
      "ran": 8107,
      "sl": 8108,
      "ux": 8109,
      "van": 8110,
      "Ġtons": 8111,
      "Ġsam": 8112,
      "isions": 8113,
      "Ġhun": 8114,
      "aris": 8115,
      "Ġdust": 8116,
      "Ġdare": 8117,
      "icing": 8118,
      "Ġgift": 8119,
      "Ġnuclear": 8120,
      "Ġheight": 8121,
      "ĠSPOILERS": 8122,
      "urg": 8123,
      "ĠMet": 8124,
      "ĠMother": 8125,
      "ĠHop": 8126,
      "ĠWould": 8127,
      "ĠDom": 8128,
      "acted": 8129,
      "ortal": 8130,
      "Ġrocks": 8131,
      "Ġdisease": 8132,
      "Ġbeings": 8133,
      "ĠShep": 8134,
      "Ġstrang": 8135,
      "Ġpersona": 8136,
      "isms": 8137,
      "Ġartific": 8138,
      "ERE": 8139,
      "Ġsuperhero": 8140,
      "Ġcreators": 8141,
      "......": 8142,
      "ĠArm": 8143,
      "grade": 8144,
      "Ġopposed": 8145,
      "Ġmistaken": 8146,
      "Ġplanning": 8147,
      "ĠElvira": 8148,
      "Ġslightest": 8149,
      "Ġrobber": 8150,
      "Ġcuriosity": 8151,
      "ĠSecret": 8152,
      "Ġcowboy": 8153,
      "Ġwonders": 8154,
      "Ġphilosoph": 8155,
      "ĠDorothy": 8156,
      "ĠFrancisco": 8157,
      "Ġargument": 8158,
      "Ġjealous": 8159,
      "Ġrepetitive": 8160,
      ",,": 8161,
      "erning": 8162,
      "nda": 8163,
      "Ġbold": 8164,
      "ĠIce": 8165,
      "Ġgee": 8166,
      "oto": 8167,
      "Ġnut": 8168,
      "Ġbeast": 8169,
      "ĠSU": 8170,
      "ĠMitch": 8171,
      "raw": 8172,
      "ĠCatherine": 8173,
      "Ġjack": 8174,
      "ĠPan": 8175,
      "ĠFather": 8176,
      "quel": 8177,
      "ĠGRE": 8178,
      "Ġwatches": 8179,
      "Ġgrasp": 8180,
      "ertainly": 8181,
      "icularly": 8182,
      "Ġburied": 8183,
      "Ġeditor": 8184,
      "ixon": 8185,
      "ĠScr": 8186,
      "Ġlacked": 8187,
      "Ġconvol": 8188,
      "pses": 8189,
      "Ġforgive": 8190,
      "Ġsecretary": 8191,
      "spector": 8192,
      "Char": 8193,
      "ĠComedy": 8194,
      "Ġjudg": 8195,
      "Ġpacked": 8196,
      "Ġaccomplished": 8197,
      "Ġincompet": 8198,
      "Ġreunion": 8199,
      "Ġholiday": 8200,
      "Ġpsychiatrist": 8201,
      "Ġinvisible": 8202,
      "Ġunpleasant": 8203,
      "Dan": 8204,
      "corn": 8205,
      "lines": 8206,
      "ped": 8207,
      "Ġcarn": 8208,
      "Ġcared": 8209,
      "Ġpin": 8210,
      "ala": 8211,
      "ĠAlf": 8212,
      "ĠABC": 8213,
      "ĠMA": 8214,
      "ĠCould": 8215,
      "ĠCagney": 8216,
      "Ġjew": 8217,
      "Ġalb": 8218,
      "ĠFarre": 8219,
      "ĠEva": 8220,
      "type": 8221,
      "Ġcharacterization": 8222,
      "obi": 8223,
      "Ġremaining": 8224,
      "Ġdirectorial": 8225,
      "Ġsubplot": 8226,
      "Ġreluct": 8227,
      "veloped": 8228,
      "Ġstruck": 8229,
      "Ġstealing": 8230,
      "Ġinspiring": 8231,
      "Ġambitious": 8232,
      "Ġreplace": 8233,
      "Ġphotographed": 8234,
      "Ġfifteen": 8235,
      "Ġticket": 8236,
      "Ġexaggerated": 8237,
      "Ġoverlooked": 8238,
      "Ġoutrageous": 8239,
      "Ġcaptivating": 8240,
      "Ġinstallment": 8241,
      "writers": 8242,
      "'.<": 8243,
      "uate": 8244,
      "Ġbust": 8245,
      "Ġhitting": 8246,
      "Ġhunting": 8247,
      "Ġdire": 8248,
      "ĠId": 8249,
      "iders": 8250,
      "Ġasp": 8251,
      "Ġshout": 8252,
      "ĠDomin": 8253,
      "think": 8254,
      "Ġrow": 8255,
      "inder": 8256,
      "Ġtimeless": 8257,
      "elli": 8258,
      "Ġoverdone": 8259,
      "Ġprev": 8260,
      "weight": 8261,
      "ĠShaw": 8262,
      "ĠWhatever": 8263,
      "Ġborrow": 8264,
      "ĠUncle": 8265,
      "Ġhearts": 8266,
      "Ġgenerous": 8267,
      "oiler": 8268,
      "ĠGrade": 8269,
      "Ġdocumentaries": 8270,
      "ĠNeed": 8271,
      "Ġrevealing": 8272,
      "Ġstrike": 8273,
      "Ġredemption": 8274,
      "Ġresponse": 8275,
      "Ġestate": 8276,
      "Ġraped": 8277,
      "ĠProbably": 8278,
      "Ġcompetition": 8279,
      "Ġbullets": 8280,
      "Ġbeaten": 8281,
      "Ġmelodramatic": 8282,
      "ĠSilver": 8283,
      "ĠLeonard": 8284,
      "Ġmiserably": 8285,
      "ĠBrosnan": 8286,
      "Ġsubsequent": 8287,
      "ĠCameron": 8288,
      "hoeven": 8289,
      "See": 8290,
      "iber": 8291,
      "Ġsail": 8292,
      "Ġsaf": 8293,
      "aning": 8294,
      "Ġpa": 8295,
      "Ġeccentric": 8296,
      "Ġnail": 8297,
      "aled": 8298,
      "seen": 8299,
      "ĠBart": 8300,
      "ĠMas": 8301,
      "ĠCIA": 8302,
      "Ġchap": 8303,
      "istically": 8304,
      "ĠRuth": 8305,
      "ĠKaz": 8306,
      "Ġclues": 8307,
      "Ġgrou": 8308,
      "Ġ21": 8309,
      "Ġfactory": 8310,
      "Ġcompassion": 8311,
      "Ġembr": 8312,
      "Ġfarce": 8313,
      "Ġabsorb": 8314,
      "ĠClint": 8315,
      "Ġstyl": 8316,
      "Ġmorality": 8317,
      "Ġbrand": 8318,
      "Ġtechnically": 8319,
      "Ġpulling": 8320,
      "ĠNext": 8321,
      "ĠPlay": 8322,
      "Ġignored": 8323,
      "Ġreduced": 8324,
      "onsidering": 8325,
      "Ġstrictly": 8326,
      "Ġdignity": 8327,
      "bidden": 8328,
      "ration": 8329,
      "isation": 8330,
      "Ġmaid": 8331,
      "Ġhung": 8332,
      "Ġtoy": 8333,
      "Ġtool": 8334,
      "Ġsticks": 8335,
      "keys": 8336,
      "ĠSally": 8337,
      "ĠAcc": 8338,
      "ĠMild": 8339,
      "ĠMach": 8340,
      "ĠCre": 8341,
      "Ġfrustrated": 8342,
      "Ġvicious": 8343,
      "Ġvenge": 8344,
      "estic": 8345,
      "Ġwheel": 8346,
      "ĠFisher": 8347,
      "ĠJer": 8348,
      "ablish": 8349,
      "Ġprec": 8350,
      "hattan": 8351,
      "anski": 8352,
      "Ġaccused": 8353,
      "Ġdarker": 8354,
      "ĠDavies": 8355,
      "AND": 8356,
      "Star": 8357,
      "ventually": 8358,
      "ĠGoldberg": 8359,
      "Ġdraws": 8360,
      "Once": 8361,
      "Ġuninspired": 8362,
      "Ġintrigued": 8363,
      "ĠDenzel": 8364,
      "Ġachievement": 8365,
      "Ġingen": 8366,
      "Ġobscure": 8367,
      "ĠNEVER": 8368,
      "ĠFranco": 8369,
      "Ġelderly": 8370,
      "Ġterritory": 8371,
      "Ge": 8372,
      "cula": 8373,
      "ds": 8374,
      "paced": 8375,
      "uity": 8376,
      "video": 8377,
      "Ġsag": 8378,
      "rer": 8379,
      "Ġwrap": 8380,
      "Ġought": 8381,
      "ingers": 8382,
      "Ġcorn": 8383,
      "oric": 8384,
      "Ġhire": 8385,
      "Ġhunt": 8386,
      "Ġinher": 8387,
      "Ġnine": 8388,
      "terday": 8389,
      "ĠCost": 8390,
      "ĠHas": 8391,
      "Ġareas": 8392,
      "Ġshall": 8393,
      "Ġexhib": 8394,
      "Ġcomics": 8395,
      "Ġabys": 8396,
      "ophy": 8397,
      "Ġintr": 8398,
      "ĠFall": 8399,
      "ĠGal": 8400,
      "ortion": 8401,
      "Ġnoble": 8402,
      "abel": 8403,
      "ables": 8404,
      "wered": 8405,
      "because": 8406,
      "Ġchest": 8407,
      "Ġdiff": 8408,
      "Ġstring": 8409,
      "ĠThink": 8410,
      "Ġaddict": 8411,
      "ĠScooby": 8412,
      "Ġtales": 8413,
      "Ġassault": 8414,
      "Ġpatri": 8415,
      "Ġreturned": 8416,
      "Ġmarks": 8417,
      "Ġsuperbly": 8418,
      "Ġobser": 8419,
      "Ġgrandmother": 8420,
      "Ġsympath": 8421,
      "Ġbleak": 8422,
      "ĠCraven": 8423,
      "Ġlogical": 8424,
      "Ġdiscussion": 8425,
      "Ġmotivation": 8426,
      "Ġsacrifice": 8427,
      "ĠVerhoeven": 8428,
      "Ġunintentionally": 8429,
      "ĠKubrick": 8430,
      "Ġthroat": 8431,
      "Perhaps": 8432,
      "ĠFelix": 8433,
      "Ġconvoluted": 8434,
      "Great": 8435,
      "HING": 8436,
      "Tom": 8437,
      "iar": 8438,
      "rase": 8439,
      "sky": 8440,
      "Ġ**": 8441,
      "Ġcandy": 8442,
      "Ġhood": 8443,
      "Ġgimm": 8444,
      "also": 8445,
      "ilted": 8446,
      "verty": 8447,
      "sex": 8448,
      "Ġstead": 8449,
      "Ġchain": 8450,
      "Ġsuits": 8451,
      "antis": 8452,
      "Ġoutcome": 8453,
      "ĠFul": 8454,
      "ĠNet": 8455,
      "ello": 8456,
      "plo": 8457,
      "Ġclown": 8458,
      "erto": 8459,
      "Ġspooky": 8460,
      "obal": 8461,
      "izard": 8462,
      "Ġhorrid": 8463,
      "Ġslim": 8464,
      "Ġreasonable": 8465,
      "Ġreasonably": 8466,
      "Ġhelicop": 8467,
      "Ġmaint": 8468,
      "Ġconserv": 8469,
      "Its": 8470,
      "Ġdistance": 8471,
      "ĠRobb": 8472,
      "onym": 8473,
      "ĠWells": 8474,
      "Ġadmitted": 8475,
      "196": 8476,
      "Ġpolitic": 8477,
      "ĠPerry": 8478,
      "ĠNeil": 8479,
      "Ġspoiled": 8480,
      "ĠFilms": 8481,
      "Ġrequire": 8482,
      "ĠAlexander": 8483,
      "Ġdefend": 8484,
      "Ġduo": 8485,
      "ĠLaurel": 8486,
      "Ġcardboard": 8487,
      "Ġhysterical": 8488,
      "Ġmagazine": 8489,
      "Ġelaborate": 8490,
      "Sec": 8491,
      "ees": 8492,
      "mail": 8493,
      "town": 8494,
      "yc": 8495,
      "ĠâĢ": 8496,
      "Ġfrag": 8497,
      "Ġcried": 8498,
      "Ġgar": 8499,
      "otal": 8500,
      "stars": 8501,
      "ĠTen": 8502,
      "Ġstone": 8503,
      "ĠAle": 8504,
      "ĠMars": 8505,
      "ĠMupp": 8506,
      "Ġnotorious": 8507,
      "Ġwhoever": 8508,
      "Ġworried": 8509,
      "ĠJosh": 8510,
      "igo": 8511,
      "Ġpretend": 8512,
      "Ġpartly": 8513,
      "Ġtea": 8514,
      "Ġrelent": 8515,
      "nery": 8516,
      "Ġdistant": 8517,
      "Ġfailing": 8518,
      "Ġcollabor": 8519,
      "195": 8520,
      "Ġangel": 8521,
      "Ġpremie": 8522,
      "Ġboxing": 8523,
      "Though": 8524,
      "Ġrapid": 8525,
      "Ġoccurred": 8526,
      "Ġinternet": 8527,
      "Ġlifetime": 8528,
      "ĠEyre": 8529,
      "Ġaimed": 8530,
      "ĠDuke": 8531,
      "Ġbathroom": 8532,
      "Ġarrested": 8533,
      "Ġlandscape": 8534,
      "rehensible": 8535,
      "Ġunbearable": 8536,
      "box": 8537,
      "dri": 8538,
      "hour": 8539,
      "jo": 8540,
      "ni": 8541,
      "rink": 8542,
      "Ġ;": 8543,
      "Ġfox": 8544,
      "itar": 8545,
      "Ġdict": 8546,
      "Ġreached": 8547,
      "Ġasse": 8548,
      "ĠSN": 8549,
      "ĠSab": 8550,
      "urance": 8551,
      "ĠHind": 8552,
      "ĠDri": 8553,
      "olves": 8554,
      "ĠRome": 8555,
      "Ġranks": 8556,
      "Ġintent": 8557,
      "Ġconve": 8558,
      "ĠGun": 8559,
      "ĠNic": 8560,
      "Ġunsett": 8561,
      "Ġpoverty": 8562,
      "Ġprecious": 8563,
      "Ġdisplays": 8564,
      "aws": 8565,
      "Ġblank": 8566,
      "atingly": 8567,
      "ĠAlmost": 8568,
      "Ġdifferences": 8569,
      "ortunately": 8570,
      "Ġdefinite": 8571,
      "Ġstudios": 8572,
      "oubted": 8573,
      "Ġdemons": 8574,
      "Ġdemands": 8575,
      "Ġsatir": 8576,
      "Ġiron": 8577,
      "Ġpicking": 8578,
      "Ġreturning": 8579,
      "Still": 8580,
      "Ġengine": 8581,
      "Ġexisted": 8582,
      "bsolute": 8583,
      "Ġblend": 8584,
      "ĠSeriously": 8585,
      "Ġarrive": 8586,
      "Ġfatal": 8587,
      "Ġmerit": 8588,
      "Ġaffected": 8589,
      "Ġcommercials": 8590,
      "Ġrepeatedly": 8591,
      "Ġresembles": 8592,
      "ĠNevertheless": 8593,
      "Ġsedu": 8594,
      "ĠRomero": 8595,
      "Ġinhabit": 8596,
      "Ġsloppy": 8597,
      "Ġrestaurant": 8598,
      "pin": 8599,
      "ti": 8600,
      "Ġthrew": 8601,
      "Ġdre": 8602,
      "Ġinform": 8603,
      "Ġlake": 8604,
      "Ġ/>'": 8605,
      "Ġbeer": 8606,
      "ione": 8607,
      "ĠSC": 8608,
      "ĠMitchell": 8609,
      "Ġchances": 8610,
      "ĠJeremy": 8611,
      "ĠEX": 8612,
      "ĠOz": 8613,
      "Ġnoise": 8614,
      "eller": 8615,
      "abs": 8616,
      "ĠKat": 8617,
      "ĠVo": 8618,
      "Ġrive": 8619,
      "Ġenjoys": 8620,
      "oviet": 8621,
      "Ġ45": 8622,
      "Ġproviding": 8623,
      "Ġpsychotic": 8624,
      "Ġridiculously": 8625,
      "Ġmovements": 8626,
      "Ġswear": 8627,
      "Ġantics": 8628,
      "Ġilleg": 8629,
      "Ġreceive": 8630,
      "Ġimproved": 8631,
      "Ġidiots": 8632,
      "Donald": 8633,
      "ĠBerg": 8634,
      "Ġburned": 8635,
      "Ġelectric": 8636,
      "Ġchoreography": 8637,
      "ĠBeatty": 8638,
      "Ġinvolvement": 8639,
      "ĠPicture": 8640,
      "Ġconspiracy": 8641,
      "ĠGothic": 8642,
      "Ġwebsite": 8643,
      "Com": 8644,
      "Other": 8645,
      "got": 8646,
      "lers": 8647,
      "lest": 8648,
      "makers": 8649,
      "Ġ..": 8650,
      "Ġsize": 8651,
      "Ġwack": 8652,
      "Ġfoul": 8653,
      "Ġcul": 8654,
      "enes": 8655,
      "Ġdentist": 8656,
      "icism": 8657,
      "Ġgut": 8658,
      "Ġgif": 8659,
      "Ġnerv": 8660,
      "ĠTur": 8661,
      "verted": 8662,
      "idy": 8663,
      "cend": 8664,
      "ĠSorry": 8665,
      "ĠBush": 8666,
      "ĠMort": 8667,
      "ĠRather": 8668,
      "ĠGrey": 8669,
      "Ġuneven": 8670,
      "Ġtrade": 8671,
      "Ġblast": 8672,
      "Ġsport": 8673,
      "Ġafterwards": 8674,
      "Ġhumili": 8675,
      "Ġscripted": 8676,
      "ĠShah": 8677,
      "Ġabsence": 8678,
      "ĠSeason": 8679,
      "193": 8680,
      "ĠIndians": 8681,
      "Ġoddly": 8682,
      "ĠMorris": 8683,
      "Ġstrikes": 8684,
      "Ġobserv": 8685,
      "Ġrespond": 8686,
      "ĠTimothy": 8687,
      "Ġrecognized": 8688,
      "Ġjumping": 8689,
      "Ġtortured": 8690,
      "Ġthreatening": 8691,
      "Ġunwatch": 8692,
      "Ġproceedings": 8693,
      "Ġjuven": 8694,
      "Ġmetaphor": 8695,
      "ĠAltman": 8696,
      "ĠTurner": 8697,
      "ĠGriffith": 8698,
      "\";": 8699,
      "CE": 8700,
      "SS": 8701,
      "mit": 8702,
      "Ġmaker": 8703,
      "itudes": 8704,
      "atched": 8705,
      "ĠIan": 8706,
      "ĠIng": 8707,
      "Ġnause": 8708,
      "ĠCher": 8709,
      "ĠDirect": 8710,
      "Ġextended": 8711,
      "ĠRiver": 8712,
      "ĠGil": 8713,
      "Ġargue": 8714,
      "Ġpoison": 8715,
      "ĠUltim": 8716,
      "Ġsettle": 8717,
      "Ġgotta": 8718,
      "ĠJoey": 8719,
      "Ġinsert": 8720,
      "cover": 8721,
      "ecess": 8722,
      "ĠBlake": 8723,
      "Ġfancy": 8724,
      "Ġmisses": 8725,
      "lands": 8726,
      "Ġimagined": 8727,
      "Ġexposed": 8728,
      "ĠMystery": 8729,
      "Ġconcerning": 8730,
      "Ġsadness": 8731,
      "Ġsadistic": 8732,
      "Ġpopulation": 8733,
      "ĠDanes": 8734,
      "Ġunfair": 8735,
      "Ġscreams": 8736,
      "related": 8737,
      "Ġinvestigate": 8738,
      "ĠHamilton": 8739,
      "opsis": 8740,
      "Ġsymbolism": 8741,
      "ĠCentury": 8742,
      "ĠKennedy": 8743,
      "Ġdynamic": 8744,
      "Ġastonishing": 8745,
      "Ġruthless": 8746,
      "La": 8747,
      "Ser": 8748,
      "burn": 8749,
      "foot": 8750,
      "ho": 8751,
      "la": 8752,
      "Ġ=": 8753,
      "Ġack": 8754,
      "Ġsales": 8755,
      "Ġcroc": 8756,
      "Ġpiano": 8757,
      "Ġbefriend": 8758,
      "imated": 8759,
      "ĠMade": 8760,
      "ĠCont": 8761,
      "emark": 8762,
      "Ġkitchen": 8763,
      "Ġalbeit": 8764,
      "ĠPu": 8765,
      "ĠRow": 8766,
      "Ġcliff": 8767,
      "...)": 8768,
      "Ġroot": 8769,
      "Ġfunction": 8770,
      "eping": 8771,
      "obic": 8772,
      "ĠHeart": 8773,
      "ruci": 8774,
      "ographed": 8775,
      "Ġtypically": 8776,
      "ĠPeck": 8777,
      "Ġdevast": 8778,
      "Ġdevoted": 8779,
      "Ġengaged": 8780,
      "Ġtrend": 8781,
      "Ġintrigue": 8782,
      "Ġmachines": 8783,
      "Ġwesterns": 8784,
      "ĠJesse": 8785,
      "Ġhighlights": 8786,
      "Ġbirthday": 8787,
      "Ġgradually": 8788,
      "====": 8789,
      "Ġoverwhelming": 8790,
      "Two": 8791,
      "ketball": 8792,
      "Ġnewspaper": 8793,
      "ĠKapoor": 8794,
      "ĠPrincess": 8795,
      "ĠMildred": 8796,
      "Ġacknow": 8797,
      "Qu": 8798,
      "Se": 8799,
      "bing": 8800,
      "fle": 8801,
      "fight": 8802,
      "gers": 8803,
      "rim": 8804,
      "oral": 8805,
      "Ġpitch": 8806,
      "Ġstaff": 8807,
      "ĠMO": 8808,
      "ĠHank": 8809,
      "uloid": 8810,
      "Ġcomfortable": 8811,
      "ĠPersonally": 8812,
      "ĠLine": 8813,
      "Ġnep": 8814,
      "ĠRoth": 8815,
      "ĠNational": 8816,
      "Ġmaniac": 8817,
      "Ġload": 8818,
      "Ġoverrated": 8819,
      "aware": 8820,
      "eps": 8821,
      "Ġblows": 8822,
      "ipes": 8823,
      "Ġcringe": 8824,
      "Ġimperson": 8825,
      "Ġgenres": 8826,
      "Ġworlds": 8827,
      "Ġacclaim": 8828,
      "Ġliking": 8829,
      "Ġpopcorn": 8830,
      "Ġfuturistic": 8831,
      "Ġ2005": 8832,
      "Ġnearby": 8833,
      "********": 8834,
      "Ġcombat": 8835,
      "Ġmeaningless": 8836,
      "Ġerrors": 8837,
      "OME": 8838,
      "Ġdefeat": 8839,
      "ĠPalma": 8840,
      "Ġdrunken": 8841,
      "ĠNorman": 8842,
      "ffee": 8843,
      "Ġblockbuster": 8844,
      "minded": 8845,
      "ĠModesty": 8846,
      "ĠIreland": 8847,
      "redictable": 8848,
      "des": 8849,
      "ipe": 8850,
      "uated": 8851,
      "Ġaunt": 8852,
      "Ġward": 8853,
      "Ġbog": 8854,
      "Ġbott": 8855,
      "Ġpsy": 8856,
      "ĠMun": 8857,
      "Ġnotes": 8858,
      "Ġnotably": 8859,
      "ĠCold": 8860,
      "Ġabilities": 8861,
      "agine": 8862,
      "thriller": 8863,
      "ĠRes": 8864,
      "ĠRings": 8865,
      "Ġoffering": 8866,
      "obody": 8867,
      "Ġhorrors": 8868,
      "lik": 8869,
      "Ġheaded": 8870,
      "ĠScot": 8871,
      "Ġstyles": 8872,
      "ĠAtt": 8873,
      "Ġtitled": 8874,
      "mares": 8875,
      "Ġnarrator": 8876,
      "Ġdetailed": 8877,
      "Ġexploit": 8878,
      "ĠCorb": 8879,
      "Ġlabel": 8880,
      "Ġescaped": 8881,
      "Ġconversations": 8882,
      "Ġresemblance": 8883,
      "series": 8884,
      "ĠNicholson": 8885,
      "Ġinnovative": 8886,
      "Ġpseudo": 8887,
      "Ġingredients": 8888,
      "Ġmesmer": 8889,
      "Ġgroups": 8890,
      "oubtedly": 8891,
      "Go": 8892,
      "James": 8893,
      "Or": 8894,
      "jointed": 8895,
      "love": 8896,
      "maybe": 8897,
      "uable": 8898,
      "water": 8899,
      "Ã¨": 8900,
      "Ġtame": 8901,
      "Ġtires": 8902,
      "heim": 8903,
      "Ġsill": 8904,
      "itches": 8905,
      "Ġcig": 8906,
      "Ġdaring": 8907,
      "icient": 8908,
      "Ġech": 8909,
      "stage": 8910,
      "Ġbears": 8911,
      "Ġbeats": 8912,
      "Ġstress": 8913,
      "ĠSing": 8914,
      "ĠSummer": 8915,
      "ĠAW": 8916,
      "ĠMiles": 8917,
      "Ġweb": 8918,
      "aks": 8919,
      "ĠPam": 8920,
      "ĠPoor": 8921,
      "ĠLily": 8922,
      "Ġrural": 8923,
      "ĠFOR": 8924,
      "ĠJamie": 8925,
      "umsy": 8926,
      "ĠGarb": 8927,
      "ĠGinger": 8928,
      "aux": 8929,
      "oder": 8930,
      "ĠKay": 8931,
      "plane": 8932,
      "Ġclic": 8933,
      "Ġaging": 8934,
      "ĠVideo": 8935,
      "Ġremoved": 8936,
      "ionship": 8937,
      "Ġapolog": 8938,
      "Ġrelies": 8939,
      "Ġharder": 8940,
      "Ġcoherent": 8941,
      "ERS": 8942,
      "Ġglory": 8943,
      "Ġpossibility": 8944,
      "ĠManhattan": 8945,
      "Ġmisunder": 8946,
      "Ġmurderous": 8947,
      "Ġstaying": 8948,
      "ONG": 8949,
      "Ġproducing": 8950,
      "Ġdisturbed": 8951,
      "ĠWoods": 8952,
      "ĠJuliet": 8953,
      "Ġscientific": 8954,
      "Ġunbelievably": 8955,
      "ĠSeries": 8956,
      "Ġbullet": 8957,
      "Ġsucceeded": 8958,
      "Ġdigital": 8959,
      "Ġorders": 8960,
      "Ġfortun": 8961,
      "ĠTechn": 8962,
      "Ġexplosion": 8963,
      "Ġexplosions": 8964,
      "Ġdistracting": 8965,
      "Ġscheme": 8966,
      "Ġcameras": 8967,
      "ĠLOVE": 8968,
      "ĠMargaret": 8969,
      "ĠFulci": 8970,
      "Ġunwatchable": 8971,
      "Em": 8972,
      "Look": 8973,
      "Su": 8974,
      "hil": 8975,
      "rad": 8976,
      "Ġbes": 8977,
      "Ġcup": 8978,
      "Ġlit": 8979,
      "Ġgro": 8980,
      "Ġego": 8981,
      "ieve": 8982,
      "cean": 8983,
      "ĠSoviet": 8984,
      "ĠAkshay": 8985,
      "ĠHan": 8986,
      "ĠDave": 8987,
      "emies": 8988,
      "estyle": 8989,
      "ĠPur": 8990,
      "ĠFonda": 8991,
      "ĠEver": 8992,
      "ellers": 8993,
      "ĠKar": 8994,
      "aph": 8995,
      "never": 8996,
      "angel": 8997,
      "cience": 8998,
      "ĠStiller": 8999,
      "ocative": 9000,
      "Ġhanded": 9001,
      "Ġcareers": 9002,
      "ahl": 9003,
      "Ġexcruci": 9004,
      "Ġpasses": 9005,
      "Ġbuilds": 9006,
      "ARD": 9007,
      "Ġodds": 9008,
      "Ġdancers": 9009,
      "Ġcatches": 9010,
      "ĠMatthew": 9011,
      "Ġimmigr": 9012,
      "plicity": 9013,
      "Ġclothing": 9014,
      "ACK": 9015,
      "ĠCastle": 9016,
      "Ġjournalist": 9017,
      "Ġdeliberately": 9018,
      "Ġwannabe": 9019,
      "Dr": 9020,
      "gal": 9021,
      "Ġ_": 9022,
      "Ġfart": 9023,
      "Ġbanned": 9024,
      "Ġhunter": 9025,
      "Ġpatter": 9026,
      "ido": 9027,
      "idal": 9028,
      "Ġselling": 9029,
      "ĠMed": 9030,
      "Ġnotion": 9031,
      "ĠDown": 9032,
      "Ġplat": 9033,
      "Ġdear": 9034,
      "ĠReturn": 9035,
      "ĠGw": 9036,
      "ĠGreek": 9037,
      "Ġmeasure": 9038,
      "Ġshel": 9039,
      "ĠKaren": 9040,
      "ourt": 9041,
      "Ġamuse": 9042,
      "Ġslave": 9043,
      "Ġsmoke": 9044,
      "Ġkidding": 9045,
      "Ġexplored": 9046,
      "Ġglamor": 9047,
      "Ġportion": 9048,
      "Ġconventional": 9049,
      "Ġgrab": 9050,
      "Ġsadd": 9051,
      "Ġpredecess": 9052,
      "Ġsubjects": 9053,
      "udden": 9054,
      "Ġdrawing": 9055,
      "Ġsouls": 9056,
      "ĠCraig": 9057,
      "Ġaffection": 9058,
      "ĠHighly": 9059,
      "Ġimplausible": 9060,
      "ixture": 9061,
      "ĠWallace": 9062,
      "ĠFlorida": 9063,
      "Ġscratch": 9064,
      "school": 9065,
      "ĠDragon": 9066,
      "Ġbackdrop": 9067,
      "Ġfinancial": 9068,
      "Ġadequate": 9069,
      "Ġjuvenile": 9070,
      "Hey": 9071,
      "Please": 9072,
      "conscious": 9073,
      "gren": 9074,
      "rict": 9075,
      "ses": 9076,
      "say": 9077,
      "zen": 9078,
      "zilla": 9079,
      "Ġbin": 9080,
      "itched": 9081,
      "oner": 9082,
      "oning": 9083,
      "aser": 9084,
      "Ġinapp": 9085,
      "Ġease": 9086,
      "ĠTodd": 9087,
      "ayed": 9088,
      "Ġanx": 9089,
      "aman": 9090,
      "ameless": 9091,
      "rah": 9092,
      "Ġshadows": 9093,
      "ularly": 9094,
      "ĠDoc": 9095,
      "Ġdoors": 9096,
      "ĠPy": 9097,
      "ĠPretty": 9098,
      "ĠFore": 9099,
      "ĠFool": 9100,
      "Ġleague": 9101,
      "odge": 9102,
      "Ġimpe": 9103,
      "Ġadoles": 9104,
      "Ġcharacteristic": 9105,
      "Ġslick": 9106,
      "Ġdecisions": 9107,
      "Ġtracks": 9108,
      "ĠShir": 9109,
      "Ġcoffee": 9110,
      "Ġinterrupt": 9111,
      "ĠRevol": 9112,
      "Ġindul": 9113,
      "Ġcorpse": 9114,
      "umentary": 9115,
      "Ġtransp": 9116,
      "Ġadmir": 9117,
      "Ġmotor": 9118,
      "ĠGodfather": 9119,
      "Ġcountryside": 9120,
      "Ġunfolds": 9121,
      "Ġcausing": 9122,
      "gypt": 9123,
      "Ġsilver": 9124,
      "Ġoffended": 9125,
      "Ġloosely": 9126,
      "Ġprimary": 9127,
      "Ġhideous": 9128,
      "ĠGlenn": 9129,
      "Ġdozens": 9130,
      "ĠLawrence": 9131,
      "Ġconsistently": 9132,
      "Ġvulgar": 9133,
      "Ġliberal": 9134,
      "ĠBrooklyn": 9135,
      "ĠVoight": 9136,
      "\"...": 9137,
      "bed": 9138,
      "gate": 9139,
      "Ġsand": 9140,
      "Ġmic": 9141,
      "Ġmixture": 9142,
      "Ġbone": 9143,
      "Ġhates": 9144,
      "omn": 9145,
      "Ġreaches": 9146,
      "Ġstro": 9147,
      "ĠBull": 9148,
      "ĠMol": 9149,
      "ĠHung": 9150,
      "ĠHomer": 9151,
      "ĠPot": 9152,
      "ĠFurther": 9153,
      "Ġclumsy": 9154,
      "nered": 9155,
      "Ġawe": 9156,
      "ĠStars": 9157,
      "Ġperformer": 9158,
      "ĠUN": 9159,
      "Ġcomposed": 9160,
      "Ġtrio": 9161,
      "Ġthoughtful": 9162,
      "ĠBrady": 9163,
      "gger": 9164,
      "Ġcoach": 9165,
      "ĠThanks": 9166,
      "Ġdialogues": 9167,
      "fined": 9168,
      "incingly": 9169,
      "ĠMcL": 9170,
      "Ġsteam": 9171,
      "Ġdevoid": 9172,
      "ĠWarren": 9173,
      "chest": 9174,
      "Ġtrees": 9175,
      "Ġavoided": 9176,
      "Ġtrademark": 9177,
      "Ġsatisfied": 9178,
      "Ġtravels": 9179,
      "warming": 9180,
      "ĠHamlet": 9181,
      "Ġdescribes": 9182,
      "Ġlifestyle": 9183,
      "Ġgolden": 9184,
      "Black": 9185,
      "Ġmountains": 9186,
      "Ġbenefit": 9187,
      "Ġsacrific": 9188,
      "ĠNazis": 9189,
      "Ġphilosophy": 9190,
      "Ġfrustration": 9191,
      "yrics": 9192,
      "Ġblatant": 9193,
      "Ġunsettling": 9194,
[...]
