{
  "version": "1.0",
  "truncation": null,
  "padding": null,
  "added_tokens": [
    {
      "id": 0,
      "content": "<s>",
      "single_word": false,
      "lstrip": false,
      "rstrip": false,
      "normalized": false,
      "special": true
    },
    {
      "id": 1,
      "content": "<pad>",
      "single_word": false,
      "lstrip": false,
      "rstrip": false,
      "normalized": false,
      "special": true
    },
    {
      "id": 2,
      "content": "</s>",
      "single_word": false,
      "lstrip": false,
      "rstrip": false,
      "normalized": false,
      "special": true
    },
    {
      "id": 3,
      "content": "<unk>",
      "single_word": false,
      "lstrip": false,
      "rstrip": false,
      "normalized": false,
      "special": true
    }
  ],
  "normalizer": {
    "type": "NFD"
  },
  "pre_tokenizer": {
    "type": "ByteLevel",
    "add_prefix_space": true,
    "trim_offsets": true,
    "use_regex": true
  },
  "post_processor": null,
  "decoder": null,
  "model": {
    "type": "BPE",
    "dropout": null,
    "unk_token": "<unk>",
    "continuing_subword_prefix": null,
    "end_of_word_suffix": null,
    "fuse_unk": false,
    "byte_fallback": false,
    "ignore_merges": false,
    "vocab": {
      "<s>": 0,
      "<pad>": 1,
      "</s>": 2,
      "<unk>": 3,
      "!": 4,
      "\"": 5,
      "#": 6,
      "$": 7,
      "%": 8,
      "&": 9,
      "'": 10,
      "(": 11,
      ")": 12,
      "*": 13,
      "+": 14,
      ",": 15,
      "-": 16,
      ".": 17,
      "/": 18,
      "0": 19,
      "1": 20,
      "2": 21,
      "3": 22,
      "4": 23,
      "5": 24,
      "6": 25,
      "7": 26,
      "8": 27,
      "9": 28,
      ":": 29,
      ";": 30,
      "<": 31,
      "=": 32,
      ">": 33,
      "?": 34,
      "@": 35,
      "A": 36,
      "B": 37,
      "C": 38,
      "D": 39,
      "E": 40,
      "F": 41,
      "G": 42,
      "H": 43,
      "I": 44,
      "J": 45,
      "K": 46,
      "L": 47,
      "M": 48,
      "N": 49,
      "O": 50,
      "P": 51,
      "Q": 52,
      "R": 53,
      "S": 54,
      "T": 55,
      "U": 56,
      "V": 57,
      "W": 58,
      "X": 59,
      "Y": 60,
      "Z": 61,
      "[": 62,
      "\\": 63,
      "]": 64,
      "^": 65,
      "_": 66,
      "`": 67,
      "a": 68,
      "b": 69,
      "c": 70,
      "d": 71,
      "e": 72,
      "f": 73,
      "g": 74,
      "h": 75,
      "i": 76,
      "j": 77,
      "k": 78,
      "l": 79,
      "m": 80,
      "n": 81,
      "o": 82,
      "p": 83,
      "q": 84,
      "r": 85,
      "s": 86,
      "t": 87,
      "u": 88,
      "v": 89,
      "w": 90,
      "x": 91,
      "y": 92,
      "z": 93,
      "|": 94,
      "~": 95,
      "¡": 96,
      "¢": 97,
      "£": 98,
      "¤": 99,
      "¥": 100,
      "¦": 101,
      "§": 102,
      "¨": 103,
      "©": 104,
      "ª": 105,
      "«": 106,
      "¬": 107,
      "®": 108,
      "¯": 109,
      "°": 110,
      "±": 111,
      "²": 112,
      "³": 113,
      "´": 114,
      "µ": 115,
      "¶": 116,
      "·": 117,
      "¸": 118,
      "¹": 119,
      "º": 120,
      "»": 121,
      "¼": 122,
      "½": 123,
      "¾": 124,
      "¿": 125,
      "Â": 126,
      "Ã": 127,
      "Ä": 128,
      "Å": 129,
      "É": 130,
      "Ê": 131,
      "Ë": 132,
      "Ì": 133,
      "Í": 134,
      "Î": 135,
      "Ï": 136,
      "Ð": 137,
      "Ñ": 138,
      "Ö": 139,
      "×": 140,
      "Ø": 141,
      "Ù": 142,
      "Ü": 143,
      "à": 144,
      "á": 145,
      "â": 146,
      "ã": 147,
      "ä": 148,
      "å": 149,
      "æ": 150,
      "ç": 151,
      "è": 152,
      "é": 153,
      "ï": 154,
      "Ċ": 155,
      "Ġ": 156,
      "Ģ": 157,
      "ģ": 158,
      "Ĥ": 159,
      "ĥ": 160,
      "Ħ": 161,
      "ħ": 162,
      "Ĩ": 163,
      "ĩ": 164,
      "Ī": 165,
      "ī": 166,
      "Ĭ": 167,
      "ĭ": 168,
      "Į": 169,
      "į": 170,
      "İ": 171,
      "ı": 172,
      "Ĳ": 173,
      "ĳ": 174,
      "Ĵ": 175,
      "ĵ": 176,
      "Ķ": 177,
      "ķ": 178,
      "ĸ": 179,
      "Ĺ": 180,
      "ĺ": 181,
      "Ļ": 182,
      "ļ": 183,
      "Ľ": 184,
      "ľ": 185,
      "Ŀ": 186,
      "ŀ": 187,
      "Ł": 188,
      "ł": 189,
      "Ń": 190,
      "Ġt": 191,
      "he": 192,
      "Ġa": 193,
      "in": 194,
      "Ġthe": 195,
      "er": 196,
      "on": 197,
      "Ġ,": 198,
      "re": 199,
      "Ġs": 200,
      "ed": 201,
      "Ġw": 202,
      "Ġo": 203,
      "nd": 204,
      "at": 205,
      "Ġ.": 206,
      "or": 207,
      "Ġc": 208,
      "it": 209,
      "en": 210,
      "Ġf": 211,
      "is": 212,
      "es": 213,
      "ar": 214,
      "Ġb": 215,
      "Ġof": 216,
      "an": 217,
      "Ġin": 218,
      "al": 219,
      "ing": 220,
      "Ġp": 221,
      "as": 222,
      "Ġand": 223,
      "Ġto": 224,
      "Ġm": 225,
      "ro": 226,
      "ic": 227,
      "Ġd": 228,
      "Ġh": 229,
      "ion": 230,
      "le": 231,
      "ou": 232,
      "ĠT": 233,
      "ĠĊ": 234,
      "Ġre": 235,
      "Ġ\"": 236,
      "ĠA": 237,
      "ent": 238,
      "Ġth": 239,
      "il": 240,
      "ĠS": 241,
      "Ġ1": 242,
      "st": 243,
      "Ġl": 244,
      "el": 245,
      "om": 246,
      "am": 247,
      "Ġe": 248,
      "Ġn": 249,
      "ĠC": 250,
      "Ġ@": 251,
      "ad": 252,
      "ac": 253,
      "Ġwas": 254,
      "ur": 255,
      "ĠM": 256,
      "ĠThe": 257,
      "Ġon": 258,
      "ly": 259,
      "ec": 260,
      "Ġg": 261,
      "Ġ'": 262,
      "ĠI": 263,
      "ĠB": 264,
      "et": 265,
      "ol": 266,
      "id": 267,
      "iv": 268,
      "im": 269,
      "Ġfor": 270,
      "ir": 271,
      "-@": 272,
      "Ġ@-@": 273,
      "ig": 274,
      "ot": 275,
      "Ġas": 276,
      "ter": 277,
      "us": 278,
      "ow": 279,
      "ĠH": 280,
      "Ġst": 281,
      "ith": 282,
      "ut": 283,
      "ay": 284,
      "Ġ2": 285,
      "Ġbe": 286,
      "Ġthat": 287,
      "ver": 288,
      "her": 289,
      "Ġwith": 290,
      "ation": 291,
      "ĠP": 292,
      "ce": 293,
      "th": 294,
      "Ġis": 295,
      "un": 296,
      "ĠR": 297,
      "em": 298,
      "Ġwh": 299,
      "ĠD": 300,
      "Ġby": 301,
      "ul": 302,
      "Ġal": 303,
      "ĠF": 304,
      "ch": 305,
      "Ġcon": 306,
      "ĠW": 307,
      "ra": 308,
      "Ġ)": 309,
      "Ġ(": 310,
      "os": 311,
      "Ġat": 312,
      "ĠG": 313,
      "Ġit": 314,
      "ers": 315,
      "ĠN": 316,
      "ct": 317,
      "ĠL": 318,
      "rom": 319,
      "Ġan": 320,
      "and": 321,
      "Ġ19": 322,
      "um": 323,
      "est": 324,
      "Ġhe": 325,
      "ĠJ": 326,
      "ag": 327,
      "00": 328,
      "ain": 329,
      "av": 330,
      "od": 331,
      "Ġhis": 332,
      "ri": 333,
      "ĠO": 334,
      "Ġfrom": 335,
      "ĠE": 336,
      "Ġcom": 337,
      "ist": 338,
      "Ġpro": 339,
      "res": 340,
      "op": 341,
      "ies": 342,
      "Ġv": 343,
      "if": 344,
      "ort": 345,
      "ere": 346,
      "ill": 347,
      "Ġde": 348,
      "ld": 349,
      "Ġsu": 350,
      "pp": 351,
      "ore": 352,
      "Ġr": 353,
      "Ġse": 354,
      "ĠIn": 355,
      "Ġwere": 356,
      "ew": 357,
      "ong": 358,
      "igh": 359,
      "ate": 360,
      "all": 361,
      "ard": 362,
      "ak": 363,
      "art": 364,
      "ich": 365,
      "Ġor": 366,
      "Ġch": 367,
      "ab": 368,
      "ud": 369,
      "ant": 370,
      "Ġex": 371,
      "ber": 372,
      "ated": 373,
      "oc": 374,
      "gh": 375,
      "ity": 376,
      "ess": 377,
      "Ġpl": 378,
      "ear": 379,
      "ame": 380,
      "qu": 381,
      "ĠK": 382,
      "ive": 383,
      "pt": 384,
      "Ġare": 385,
      "rou": 386,
      "Ġsh": 387,
      "Ġk": 388,
      "ect": 389,
      "Ġhad": 390,
      "ack": 391,
      "se": 392,
      "Ġwhich": 393,
      "ĠU": 394,
      "red": 395,
      "ov": 396,
      "Ġsp": 397,
      "ast": 398,
      "Ġâ": 399,
      "Ġy": 400,
      "Ġle": 401,
      "ian": 402,
      "ge": 403,
      "Ġnot": 404,
      "ment": 405,
      "ĠSt": 406,
      "ally": 407,
      "ĠâĢ": 408,
      "ord": 409,
      "ine": 410,
      "our": 411,
      "ip": 412,
      "ell": 413,
      "ost": 414,
      "rit": 415,
      "Ġu": 416,
      "ight": 417,
      "ther": 418,
      "ish": 419,
      "oun": 420,
      "ap": 421,
      "ave": 422,
      "ia": 423,
      "Ġ3": 424,
      "ust": 425,
      "ary": 426,
      "ĠCh": 427,
      "Ġun": 428,
      "Ġinc": 429,
      "ous": 430,
      "cc": 431,
      "irst": 432,
      "og": 433,
      "Ġ200": 434,
      "Ġcomp": 435,
      "ĠV": 436,
      "Ġtheir": 437,
      "Ġbut": 438,
      "ru": 439,
      "so": 440,
      "Ġint": 441,
      "Ġcont": 442,
      "ide": 443,
      "fter": 444,
      "ions": 445,
      "Ġ;": 446,
      "Ġfirst": 447,
      "Ġar": 448,
      "ure": 449,
      "ould": 450,
      "Ġits": 451,
      "ial": 452,
      "Ġwhe": 453,
      "hed": 454,
      "wo": 455,
      "ical": 456,
      "out": 457,
      "Ġher": 458,
      "ub": 459,
      "Ġalso": 460,
      "ue": 461,
      "ff": 462,
      "own": 463,
      "Ġcl": 464,
      "ok": 465,
      "Ġ20": 466,
      "ie": 467,
      "ater": 468,
      "per": 469,
      "ome": 470,
      "ran": 471,
      "ign": 472,
      "Ġab": 473,
      "end": 474,
      "Ġres": 475,
      "ass": 476,
      "Ġad": 477,
      "ork": 478,
      "Ġus": 479,
      "ire": 480,
      "orm": 481,
      "ry": 482,
      "Ġhave": 483,
      "Ġrec": 484,
      "ĠHe": 485,
      "age": 486,
      "Ġone": 487,
      "Ġ:": 488,
      "Ġhas": 489,
      "Ġro": 490,
      "ond": 491,
      "mer": 492,
      "ĠâĢĵ": 493,
      "low": 494,
      "Ġbeen": 495,
      "ĠTh": 496,
      "Ġtwo": 497,
      "Ġ4": 498,
      "Ġper": 499,
      "ime": 500,
      "land": 501,
      "Ġ5": 502,
      "du": 503,
      "ence": 504,
      ".@": 505,
      "Ġ@.@": 506,
      "ough": 507,
      "Ġwho": 508,
      "ile": 509,
      "ree": 510,
      "Ġ18": 511,
      "uring": 512,
      "Ġsc": 513,
      "ult": 514,
      "Ġthis": 515,
      "Ġbec": 516,
      "Ġdis": 517,
      "pl": 518,
      "Ġapp": 519,
      "iz": 520,
      "ĠIt": 521,
      "ition": 522,
      "ĠAl": 523,
      "ric": 524,
      "lud": 525,
      "ade": 526,
      "ach": 527,
      "Ġj": 528,
      "ely": 529,
      "Ġplay": 530,
      "Ġman": 531,
      "Ġthey": 532,
      "ations": 533,
      "Ġpart": 534,
      "Ġag": 535,
      "Ġyear": 536,
      "Ġdes": 537,
      "ount": 538,
      "act": 539,
      "Ġover": 540,
      "are": 541,
      "ory": 542,
      "Ġother": 543,
      "ound": 544,
      "Ġafter": 545,
      "Ġ201": 546,
      "Ġser": 547,
      "ib": 548,
      "Ġen": 549,
      "over": 550,
      "Ġoff": 551,
      "ite": 552,
      "Ġim": 553,
      "te": 554,
      ",@": 555,
      "Ġ@,@": 556,
      "ke": 557,
      "Ġinclud": 558,
      "urn": 559,
      "Ġatt": 560,
      "ress": 561,
      "ĠY": 562,
      "Ġout": 563,
      "wn": 564,
      "ace": 565,
      "ction": 566,
      "ark": 567,
      "ance": 568,
      "ang": 569,
      "ice": 570,
      "Ġpre": 571,
      "ember": 572,
      "Ġup": 573,
      "ens": 574,
      "Ġfin": 575,
      "Ġev": 576,
      "ced": 577,
      "rough": 578,
      "Ġtime": 579,
      "Ġinto": 580,
      "nder": 581,
      "man": 582,
      "ph": 583,
      "Ìģ": 584,
      "one": 585,
      "we": 586,
      "port": 587,
      "ĠOn": 588,
      "Ġshe": 589,
      "int": 590,
      "ren": 591,
      "ose": 592,
      "Ġcomm": 593,
      "les": 594,
      "Ġwould": 595,
      "Ġmore": 596,
      "Ġte": 597,
      "ied": 598,
      "vel": 599,
      "Ġall": 600,
      "round": 601,
      "ason": 602,
      "Ġwe": 603,
      "rib": 604,
      "ever": 605,
      "ward": 606,
      "able": 607,
      "Ġhim": 608,
      "ased": 609,
      "ited": 610,
      "ĠUn": 611,
      "amp": 612,
      "tern": 613,
      "ents": 614,
      "Ġ6": 615,
      "ings": 616,
      "ces": 617,
      "ood": 618,
      "ors": 619,
      "Ġcent": 620,
      "oy": 621,
      "ious": 622,
      "ates": 623,
      "Ġwork": 624,
      "ild": 625,
      "Ġpo": 626,
      "ix": 627,
      "Ġ7": 628,
      "ĠAn": 629,
      "old": 630,
      "ase": 631,
      "als": 632,
      "rop": 633,
      "iss": 634,
      "Ġfe": 635,
      "Ġthem": 636,
      "ath": 637,
      "ict": 638,
      "ey": 639,
      "Ġbet": 640,
      "Ġwhen": 641,
      "Ġsec": 642,
      "gan": 643,
      "Ġrem": 644,
      "ail": 645,
      "fer": 646,
      "Ġear": 647,
      "Ġsong": 648,
      "Ġkn": 649,
      "aw": 650,
      "ep": 651,
      "aus": 652,
      "ake": 653,
      "Ġmost": 654,
      "ubl": 655,
      "Ġcons": 656,
      "form": 657,
      "Ġduring": 658,
      "Ġnew": 659,
      "ered": 660,
      "Ġonly": 661,
      "Ġdec": 662,
      "orth": 663,
      "Ġgame": 664,
      "ved": 665,
      "ilm": 666,
      "ick": 667,
      "Ġtr": 668,
      "ĠAs": 669,
      "ft": 670,
      "oth": 671,
      "Ġ8": 672,
      "ons": 673,
      "att": 674,
      "ug": 675,
      "Ġ9": 676,
      "reat": 677,
      "ween": 678,
      "Ġcan": 679,
      "ollow": 680,
      "Ġrel": 681,
      "ook": 682,
      "ind": 683,
      "way": 684,
      "outh": 685,
      "ĠMar": 686,
      "Ġabout": 687,
      "ĠEn": 688,
      "Ġagain": 689,
      "ters": 690,
      "Ġthree": 691,
      "Ġunder": 692,
      "Ġthan": 693,
      "Ġme": 694,
      "Ġseason": 695,
      "Ġne": 696,
      "ral": 697,
      "Ġbetween": 698,
      "ular": 699,
      "ve": 700,
      "ational": 701,
      "Ġfl": 702,
      "Ġ199": 703,
      "Ġchar": 704,
      "Ġcol": 705,
      "hn": 706,
      "fore": 707,
      "Ġthrough": 708,
      "Ġrecord": 709,
      "ron": 710,
      "Ġ00": 711,
      "iew": 712,
      "Ġlater": 713,
      "hip": 714,
      "Ġnum": 715,
      "Ġend": 716,
      "ob": 717,
      "ision": 718,
      "Ġpos": 719,
      "Ġwhile": 720,
      "orn": 721,
      "ĠCom": 722,
      "Ġver": 723,
      "ock": 724,
      "Ġact": 725,
      "Ġfilm": 726,
      "ĠAr": 727,
      "Ġwrit": 728,
      "Ġprodu": 729,
      "ames": 730,
      "Ġrele": 731,
      "ished": 732,
      "Ġpr": 733,
      "Ġreg": 734,
      "Ġass": 735,
      "Ġform": 736,
      "Ġmade": 737,
      "ans": 738,
      "Ġpe": 739,
      "ted": 740,
      "Ġso": 741,
      "Ġsub": 742,
      "ury": 743,
      "Ġret": 744,
      "Ġacc": 745,
      "Ġwhere": 746,
      "ts": 747,
      "Ġmov": 748,
      "Ġqu": 749,
      "olog": 750,
      "ating": 751,
      "ĠSe": 752,
      "Ġspec": 753,
      "Ġra": 754,
      "Ġinter": 755,
      "Ġlar": 756,
      "Ġsome": 757,
      "ĠNew": 758,
      "ener": 759,
      "hes": 760,
      "orld": 761,
      "Ġco": 762,
      "Ġbu": 763,
      "Ġdef": 764,
      "meric": 765,
      "ĠAmeric": 766,
      "Ġac": 767,
      "ived": 768,
      "Ġsuch": 769,
      "bum": 770,
      "Ġfollow": 771,
      "Ġmus": 772,
      "Ġam": 773,
      "Ġsecond": 774,
      "Ġfour": 775,
      "ĠAt": 776,
      "Ġind": 777,
      "ike": 778,
      "Ġused": 779,
      "ual": 780,
      "hen": 781,
      "ins": 782,
      "ann": 783,
      "Ġday": 784,
      "ĠLe": 785,
      "ĠThis": 786,
      "ific": 787,
      "lect": 788,
      "Ġcall": 789,
      "Ġpubl": 790,
      "Ġ000": 791,
      "iel": 792,
      "Ġdo": 793,
      "Ġbefore": 794,
      "ĠJo": 795,
      "ily": 796,
      "Ġalbum": 797,
      "ĠRe": 798,
      "Ġ0": 799,
      "any": 800,
      "ll": 801,
      "Ġbeing": 802,
      "aid": 803,
      "ros": 804,
      "rans": 805,
      "Ġsupp": 806,
      "Ġep": 807,
      "Ġthere": 808,
      "Ġsy": 809,
      "owever": 810,
      "ĠSh": 811,
      "ĠEng": 812,
      "ics": 813,
      "uc": 814,
      "Ġfound": 815,
      "ars": 816,
      "Ġyears": 817,
      "Ġset": 818,
      "Ġno": 819,
      "Ġhigh": 820,
      "Ġent": 821,
      "ird": 822,
      "iver": 823,
      "other": 824,
      "Ġsur": 825,
      "Ġ10": 826,
      "ines": 827,
      "Ġtra": 828,
      "io": 829,
      "ject": 830,
      "ised": 831,
      "ten": 832,
      "Ġbl": 833,
      "Ġseries": 834,
      "Ġnumber": 835,
      "Ġloc": 836,
      "ale": 837,
      "ities": 838,
      "ause": 839,
      "Ġ12": 840,
      "aj": 841,
      "ode": 842,
      "ek": 843,
      "Ġpres": 844,
      "Ġsever": 845,
      "Ġboth": 846,
      "ton": 847,
      "ince": 848,
      "Ġthen": 849,
      "ier": 850,
      "ise": 851,
      "velop": 852,
      "ank": 853,
      "Ġincluding": 854,
      "Ġepis": 855,
      "row": 856,
      "irect": 857,
      "ĠSc": 858,
      "ife": 859,
      "Ġwell": 860,
      "Ġbecame": 861,
      "Ġ16": 862,
      "Ġagainst": 863,
      "ĠBrit": 864,
      "igin": 865,
      "Ġknown": 866,
      "Ġexp": 867,
      "son": 868,
      "ane": 869,
      "Ġgo": 870,
      "Ġadd": 871,
      "Ġtrans": 872,
      "Ġdep": 873,
      "Ġcharac": 874,
      "iet": 875,
      "ained": 876,
      "Ġsing": 877,
      "Ġem": 878,
      "Ġinv": 879,
      "Ġ/": 880,
      "Ġpop": 881,
      "urch": 882,
      "Ġback": 883,
      "ather": 884,
      "ident": 885,
      "Ġrep": 886,
      "ram": 887,
      "ures": 888,
      "Ġmon": 889,
      "Ġmain": 890,
      "ful": 891,
      "ĠâĢĶ": 892,
      "ning": 893,
      "Ġdesc": 894,
      "though": 895,
      "Ġmany": 896,
      "ield": 897,
      "Ġlong": 898,
      "ĠZ": 899,
      "its": 900,
      "Ġstud": 901,
      "Ġperform": 902,
      "air": 903,
      "led": 904,
      "ert": 905,
      "ower": 906,
      "ool": 907,
      "ined": 908,
      "Ġop": 909,
      "Ġ198": 910,
      "ement": 911,
      "Ġ15": 912,
      "ĠUnited": 913,
      "Ġmet": 914,
      "Ġrece": 915,
      "ĠJohn": 916,
      "up": 917,
      "Ġest": 918,
      "Ġteam": 919,
      "uch": 920,
      "Ġmin": 921,
      "ober": 922,
      "Ġcentury": 923,
      "ley": 924,
      "Ġshow": 925,
      "ern": 926,
      "Ġconc": 927,
      "Ġ11": 928,
      "ĠShe": 929,
      "elf": 930,
      "ative": 931,
      "ute": 932,
      "Ġdevelop": 933,
      "Ġcre": 934,
      "Ġ17": 935,
      "Ġorigin": 936,
      "ared": 937,
      "iam": 938,
      "Ġsm": 939,
      "yl": 940,
      "ĠAfter": 941,
      "az": 942,
      "Ġseveral": 943,
      "ivers": 944,
      "Ġmill": 945,
      "Ġob": 946,
      "Ġbegan": 947,
      "Ġlead": 948,
      "pr": 949,
      "ually": 950,
      "Ġdif": 951,
      "Ġ194": 952,
      "Ġrev": 953,
      "Ġcontin": 954,
      "ired": 955,
      "erm": 956,
      "ized": 957,
      "Ġsign": 958,
      "Ġext": 959,
      "Ġdirect": 960,
      "overn": 961,
      "emb": 962,
      "Ġpol": 963,
      "oot": 964,
      "Ġmay": 965,
      "ross": 966,
      "ik": 967,
      "ments": 968,
      "Ġcomple": 969,
      "au": 970,
      "Ġ196": 971,
      "der": 972,
      "Ġcould": 973,
      "Ġcrit": 974,
      "til": 975,
      "Ġcalled": 976,
      "Ġdid": 977,
      "els": 978,
      "ah": 979,
      "ued": 980,
      "Ġbel": 981,
      "Ġnear": 982,
      "ĠWh": 983,
      "Ġart": 984,
      "Ġepisode": 985,
      "Ġearly": 986,
      "ĠInd": 987,
      "Ġdescrib": 988,
      "roup": 989,
      "apt": 990,
      "Ġbro": 991,
      "Ġalong": 992,
      "ople": 993,
      "ĠIs": 994,
      "aking": 995,
      "yp": 996,
      "Ġdown": 997,
      "imes": 998,
      "Ġrun": 999,
      "Ġdisc": 1000,
      "une": 1001,
      "ccess": 1002,
      "Ġinst": 1003,
      "ĠBr": 1004,
      "Ġfeat": 1005,
      "Ġsaid": 1006,
      "Ġ197": 1007,
      "Ġthese": 1008,
      "Ġins": 1009,
      "Ġdist": 1010,
      "Ġmil": 1011,
      "gest": 1012,
      "Ġinf": 1013,
      "Ġimp": 1014,
      "ĠAmerican": 1015,
      "ĠGer": 1016,
      "ured": 1017,
      "ven": 1018,
      "Ġthough": 1019,
      "Ġship": 1020,
      "itt": 1021,
      "ĠAust": 1022,
      "ium": 1023,
      "Ġprev": 1024,
      "ull": 1025,
      "Ġuntil": 1026,
      "Ġresp": 1027,
      "ink": 1028,
      "ĠMay": 1029,
      "amed": 1030,
      "ĠCon": 1031,
      "Ġhist": 1032,
      "Ġoper": 1033,
      "Ġstart": 1034,
      "Ġcar": 1035,
      "Ġcity": 1036,
      "ĠBritish": 1037,
      "enn": 1038,
      "Ġsame": 1039,
      "ided": 1040,
      "Ġgener": 1041,
      "ially": 1042,
      "ruct": 1043,
      "Ġland": 1044,
      "Ġreleased": 1045,
      "Ġany": 1046,
      "ains": 1047,
      "ists": 1048,
      "Ġown": 1049,
      "ty": 1050,
      "cept": 1051,
      "ove": 1052,
      "Ġprov": 1053,
      "ĠThey": 1054,
      "Ġair": 1055,
      "Ġreturn": 1056,
      "Ġkm": 1057,
      "Ġwar": 1058,
      "Ġmillion": 1059,
      "oman": 1060,
      "ĠBl": 1061,
      "Ġbecause": 1062,
      "ible": 1063,
      "Ġmusic": 1064,
      "Ġsim": 1065,
      "osed": 1066,
      "Ġarea": 1067,
      "xt": 1068,
      "ĠCar": 1069,
      "Ġconst": 1070,
      "Ġuse": 1071,
      "Ġdesign": 1072,
      "Ġfam": 1073,
      "Ġappear": 1074,
      "Ġmat": 1075,
      "Ġocc": 1076,
      "Ġopen": 1077,
      "Ġlike": 1078,
      "Ġsuccess": 1079,
      "ĠAug": 1080,
      "ism": 1081,
      "ĠAugust": 1082,
      "Ġpass": 1083,
      "ajor": 1084,
      "ouse": 1085,
      "Ġcount": 1086,
      "ash": 1087,
      "Ġpeople": 1088,
      "Ġ13": 1089,
      "rist": 1090,
      "Ġph": 1091,
      "chool": 1092,
      "und": 1093,
      "ony": 1094,
      "Ġoffic": 1095,
      "stem": 1096,
      "Ġeff": 1097,
      "ole": 1098,
      "Ġsix": 1099,
      "ange": 1100,
      "oss": 1101,
      "my": 1102,
      "uth": 1103,
      "ĠWar": 1104,
      "Ġsupport": 1105,
      "Ġaround": 1106,
      "ĠHowever": 1107,
      "ues": 1108,
      "Ġsmall": 1109,
      "Ġwin": 1110,
      "Ġ%": 1111,
      "Ġdam": 1112,
      "ets": 1113,
      "Ġmod": 1114,
      "Ġgroup": 1115,
      "ĠSp": 1116,
      "Ġnorth": 1117,
      "Ġadv": 1118,
      "ĠSept": 1119,
      "Ġhead": 1120,
      "erson": 1121,
      "Ġbr": 1122,
      "Ġconsid": 1123,
      "ales": 1124,
      "ĠJu": 1125,
      "Ġcharacter": 1126,
      "Ġeach": 1127,
      "Ġgr": 1128,
      "ient": 1129,
      "Ġele": 1130,
      "Ġ195": 1131,
      "erv": 1132,
      "Ġpoint": 1133,
      "ĠSeptember": 1134,
      "ĠGerman": 1135,
      "Ġed": 1136,
      "Ġann": 1137,
      "Ġfollowing": 1138,
      "anc": 1139,
      "ĠAustral": 1140,
      "Ġfive": 1141,
      "ged": 1142,
      "Ġwill": 1143,
      "Ġgu": 1144,
      "Ġgovern": 1145,
      "Ġattack": 1146,
      "Ġvar": 1147,
      "Ġever": 1148,
      "Ġcontro": 1149,
      "ĠCl": 1150,
      "Ġresult": 1151,
      "ĠComm": 1152,
      "Ġlarge": 1153,
      "ĠCol": 1154,
      "ck": 1155,
      "ĠHer": 1156,
      "ĠAd": 1157,
      "wards": 1158,
      "ina": 1159,
      "ording": 1160,
      "Ġreport": 1161,
      "ution": 1162,
      "lish": 1163,
      "Ġbook": 1164,
      "ys": 1165,
      "ural": 1166,
      "ĠPl": 1167,
      "ĠMe": 1168,
      "ĠQ": 1169,
      "Ġ193": 1170,
      "aced": 1171,
      "ĠWorld": 1172,
      "ended": 1173,
      "ĠAll": 1174,
      "ble": 1175,
      "ilt": 1176,
      "ĠNorth": 1177,
      "Ġweek": 1178,
      "eb": 1179,
      "Ġtit": 1180,
      "Ġ191": 1181,
      "ĠEu": 1182,
      "ored": 1183,
      "ĠUS": 1184,
      "hel": 1185,
      "ĠFran": 1186,
      "ately": 1187,
      "Ġprom": 1188,
      "ives": 1189,
      "ont": 1190,
      "aving": 1191,
      "med": 1192,
      "ĠFor": 1193,
      "ĠII": 1194,
      "Ġstr": 1195,
      "ling": 1196,
      "dom": 1197,
      "Ġsince": 1198,
      "Ġfinal": 1199,
      "ox": 1200,
      "Ġmajor": 1201,
      "ats": 1202,
      "Ġ14": 1203,
      "raph": 1204,
      "ague": 1205,
      "Ġreceived": 1206,
      "ĠStates": 1207,
      "Ġsouth": 1208,
      "Ġhel": 1209,
      "Ġpartic": 1210,
      "ĠJune": 1211,
      "ĠJan": 1212,
      "Ġname": 1213,
      "rote": 1214,
      "ĠGu": 1215,
      "ected": 1216,
      "Ġrest": 1217,
      "Ġpublic": 1218,
      "Ġsystem": 1219,
      "Ġstate": 1220,
      "ivision": 1221,
      "ĠOct": 1222,
      "ĠSouth": 1223,
      "Ġwhat": 1224,
      "gin": 1225,
      "Ġdescribed": 1226,
      "Ġ$": 1227,
      "Ġlast": 1228,
      "ĠChrist": 1229,
      "Ġbatt": 1230,
      "ility": 1231,
      "Ġline": 1232,
      "Ġlife": 1233,
      "ting": 1234,
      "ional": 1235,
      "Ġincre": 1236,
      "ery": 1237,
      "rand": 1238,
      "Ġdet": 1239,
      "iving": 1240,
      "ĠKing": 1241,
      "ĠOctober": 1242,
      "uary": 1243,
      "Ġtook": 1244,
      "ĠBe": 1245,
      "ified": 1246,
      "empt": 1247,
      "Ġclass": 1248,
      "Ġnow": 1249,
      "aim": 1250,
      "get": 1251,
      "raft": 1252,
      "ively": 1253,
      "ĠDe": 1254,
      "ages": 1255,
      "Ġbuild": 1256,
      "..": 1257,
      "Ġlate": 1258,
      "ĠNov": 1259,
      "Ġprot": 1260,
      "Ġplayed": 1261,
      "ax": 1262,
      "Ġ[": 1263,
      "Ġmar": 1264,
      "ants": 1265,
      "Ġ]": 1266,
      "Ġworld": 1267,
      "ody": 1268,
      "ae": 1269,
      "Ġwrote": 1270,
      "Ġwon": 1271,
      "ĠJuly": 1272,
      "ĠPar": 1273,
      "Ġ...": 1274,
      "esp": 1275,
      "ĠDuring": 1276,
      "ians": 1277,
      "Ġmuch": 1278,
      "aur": 1279,
      "by": 1280,
      "Ġ25": 1281,
      "ĠYork": 1282,
      "Ġport": 1283,
      "Ġref": 1284,
      "Ġdue": 1285,
      "omet": 1286,
      "Ġallow": 1287,
      "Ġshort": 1288,
      "yc": 1289,
      "app": 1290,
      "Ġconf": 1291,
      "ĠDec": 1292,
      "Ġdiffer": 1293,
      "iod": 1294,
      "Ġjust": 1295,
      "ropical": 1296,
      "Ġsingle": 1297,
      "ai": 1298,
      "ves": 1299,
      "ret": 1300,
      "Ġchild": 1301,
      "ection": 1302,
      "ology": 1303,
      "ĠEurop": 1304,
      "ically": 1305,
      "Ġcamp": 1306,
      "ball": 1307,
      "ris": 1308,
      "Ġsl": 1309,
      "Ġanother": 1310,
      "sion": 1311,
      "Ġstar": 1312,
      "ech": 1313,
      "Ġposs": 1314,
      "ract": 1315,
      "Ġgun": 1316,
      "Ġincluded": 1317,
      "ission": 1318,
      "ner": 1319,
      "Ġold": 1320,
      "Ġstorm": 1321,
      "Ġdeath": 1322,
      "ital": 1323,
      "Ġleft": 1324,
      "omin": 1325,
      "ĠCan": 1326,
      "Ġappro": 1327,
      "ĠMc": 1328,
      "Ġvis": 1329,
      "Ġeven": 1330,
      "Ġspecies": 1331,
      "Ġwithin": 1332,
      "Ġnamed": 1333,
      "ideo": 1334,
      "Ġbased": 1335,
      "ger": 1336,
      "ple": 1337,
      "Ġif": 1338,
      "Ġalthough": 1339,
      "ham": 1340,
      "Ġtri": 1341,
      "Ġpar": 1342,
      "Ġestab": 1343,
      "Ġattempt": 1344,
      "ĠEngland": 1345,
      "ched": 1346,
      "Ġ30": 1347,
      "ĠJanuary": 1348,
      "Ġcare": 1349,
      "Ġvery": 1350,
      "Ġtop": 1351,
      "Ġprog": 1352,
      "ĠAnd": 1353,
      "Ġbelie": 1354,
      "Ġwater": 1355,
      "ene": 1356,
      "Ġthird": 1357,
      "Ġbre": 1358,
      "Ġtrack": 1359,
      "Ġorgan": 1360,
      "ÌĦ": 1361,
      "Ġhum": 1362,
      "ently": 1363,
      "Ġgames": 1364,
      "inc": 1365,
      "Ġpower": 1366,
      "Ġevent": 1367,
      "Ġprevious": 1368,
      "itions": 1369,
      "Ġschool": 1370,
      "Ġbest": 1371,
      "ĠApr": 1372,
      "ilar": 1373,
      "ĠGe": 1374,
      "ĠApril": 1375,
      "ards": 1376,
      "Ġfamily": 1377,
      "ness": 1378,
      "Ġmen": 1379,
      "ĠHis": 1380,
      "que": 1381,
      "Ġfur": 1382,
      "ms": 1383,
      "Ġway": 1384,
      "ĠPro": 1385,
      "ulation": 1386,
      "ĠNovember": 1387,
      "orp": 1388,
      "Ġperiod": 1389,
      "Ġexpl": 1390,
      "Ġreview": 1391,
      "ĠBy": 1392,
      "ĠMarch": 1393,
      "Ġtyp": 1394,
      "Ġgovernment": 1395,
      "Ġhome": 1396,
      "Ġturn": 1397,
      "Ġthose": 1398,
      "Ġhand": 1399,
      "Ġcap": 1400,
      "ĠDecember": 1401,
      "Ġplace": 1402,
      "ached": 1403,
      "Ġstory": 1404,
      "ience": 1405,
      "aster": 1406,
      "ĠThere": 1407,
      "Ġbuilt": 1408,
      "ĠEurope": 1409,
      "let": 1410,
      "Ġlist": 1411,
      "aged": 1412,
      "hest": 1413,
      "Ġgreat": 1414,
      "oint": 1415,
      "oci": 1416,
      "Ġ100": 1417,
      "iven": 1418,
      "Ġkill": 1419,
      "Ġmonth": 1420,
      "ĠPh": 1421,
      "avy": 1422,
      "arn": 1423,
      "ances": 1424,
      "ĠWhen": 1425,
      "Ġopp": 1426,
      "Ġsent": 1427,
      "Ġmake": 1428,
      "Ġdr": 1429,
      "elt": 1430,
      "Ġoriginal": 1431,
      "itary": 1432,
      "Ġrequ": 1433,
      "ature": 1434,
      "ense": 1435,
      "Ġ192": 1436,
      "Ġhal": 1437,
      "Ġauth": 1438,
      "amb": 1439,
      "ĠMus": 1440,
      "iversity": 1441,
      "Ġcommand": 1442,
      "gy": 1443,
      "Ġmed": 1444,
      "ention": 1445,
      "ĠCity": 1446,
      "ented": 1447,
      "Ġsug": 1448,
      "Ġdem": 1449,
      "Ġserv": 1450,
      "eder": 1451,
      "ences": 1452,
      "Ġant": 1453,
      "akes": 1454,
      "ĠÂ": 1455,
      "ĠNational": 1456,
      "Ġeng": 1457,
      "Ġperson": 1458,
      "Ġmark": 1459,
      "urric": 1460,
      "ĠFl": 1461,
      "Ġclub": 1462,
      "Ġview": 1463,
      "oad": 1464,
      "bs": 1465,
      "line": 1466,
      "oard": 1467,
      "Ġcapt": 1468,
      "Ġmoved": 1469,
      "ides": 1470,
      "Ġstill": 1471,
      "riend": 1472,
      "ops": 1473,
      "rench": 1474,
      "Ġlocal": 1475,
      "Ġrepl": 1476,
      "Ġvideo": 1477,
      "ĠRiver": 1478,
      "Ġled": 1479,
      "ival": 1480,
      "Ġ2009": 1481,
      "alk": 1482,
      "Ġleg": 1483,
      "Ġterm": 1484,
      "aining": 1485,
      "Ġ2010": 1486,
      "Ġcame": 1487,
      "Ġdest": 1488,
      "aken": 1489,
      "eng": 1490,
      "Ġiss": 1491,
      "ruction": 1492,
      "Ġrole": 1493,
      "side": 1494,
      "Ġoften": 1495,
      "Ġdra": 1496,
      "ĠBro": 1497,
      "ott": 1498,
      "Ġstand": 1499,
      "Ġcaus": 1500,
      "ories": 1501,
      "Ġaddition": 1502,
      "Ġ2008": 1503,
      "ler": 1504,
      "ung": 1505,
      "Ġcommon": 1506,
      "idge": 1507,
      "Ġfew": 1508,
      "lev": 1509,
      "ĠMan": 1510,
      "ĠPr": 1511,
      "Ġtrad": 1512,
      "Ġsuggest": 1513,
      "read": 1514,
      "Ġconsidered": 1515,
      "Ġplayer": 1516,
      "Ġmid": 1517,
      "Ġnext": 1518,
      "Ġcour": 1519,
      "Ġbas": 1520,
      "Ġdeb": 1521,
      "Ġhelp": 1522,
      "ead": 1523,
      "uted": 1524,
      "ĠWe": 1525,
      "Ġexper": 1526,
      "atter": 1527,
      "ript": 1528,
      "Ġsimilar": 1529,
      "sh": 1530,
      "Ġinit": 1531,
      "Ġright": 1532,
      "ĠOne": 1533,
      "be": 1534,
      "rew": 1535,
      "Ġside": 1536,
      "astern": 1537,
      "ĠFrench": 1538,
      "Ġeffect": 1539,
      "mp": 1540,
      "Ġreal": 1541,
      "ĠOr": 1542,
      "Ġimport": 1543,
      "Ġrecorded": 1544,
      "ĠEnglish": 1545,
      "self": 1546,
      "ister": 1547,
      "ays": 1548,
      "Ġcompany": 1549,
      "Ġclaim": 1550,
      "ior": 1551,
      "Ġcontinued": 1552,
      "Ġsold": 1553,
      "Ġtown": 1554,
      "ĠAcc": 1555,
      "Ġexc": 1556,
      "Ġdifferent": 1557,
      "Ġpublished": 1558,
      "ĠNo": 1559,
      "ining": 1560,
      "Ġwind": 1561,
      "ĠAb": 1562,
      "Ġprop": 1563,
      "Ġyou": 1564,
      "Ġarch": 1565,
      "Ġtake": 1566,
      "Ġwithout": 1567,
      "Ġtot": 1568,
      "lu": 1569,
      "Ġsongs": 1570,
      "Ġheld": 1571,
      "Ġtw": 1572,
      "Ġformer": 1573,
      "Ġlevel": 1574,
      "Ġamong": 1575,
      "Ġtem": 1576,
      "Ġmemb": 1577,
      "Ġcover": 1578,
      "Ġpolit": 1579,
      "Ġrefer": 1580,
      "ches": 1581,
      "Ġfield": 1582,
      "Ġel": 1583,
      "ĠWith": 1584,
      "Ġroad": 1585,
      "Ġmag": 1586,
      "Ġelect": 1587,
      "Ġevery": 1588,
      "Ġav": 1589,
      "ĠBar": 1590,
      "ĠPort": 1591,
      "Ġdel": 1592,
      "Ġ21": 1593,
      "Ġhalf": 1594,
      "uss": 1595,
      "ĠWill": 1596,
      "par": 1597,
      "Ġcommun": 1598,
      "ternational": 1599,
      "Ġrepres": 1600,
      "urricane": 1601,
      "ĠChar": 1602,
      "ried": 1603,
      "Ġfurther": 1604,
      "Ġ2007": 1605,
      "Ġbecome": 1606,
      "Ġwest": 1607,
      "itar": 1608,
      "estern": 1609,
      "Ġstrong": 1610,
      "ĠPer": 1611,
      "ĠAlthough": 1612,
      "ĠAccording": 1613,
      "yn": 1614,
      "lear": 1615,
      "Ġfore": 1616,
      "Ġhowever": 1617,
      "Ġwritten": 1618,
      "ĠBatt": 1619,
      "Ġchurch": 1620,
      "ensive": 1621,
      "Ġeast": 1622,
      "Ġfind": 1623,
      "Ġdays": 1624,
      "rodu": 1625,
      "ots": 1626,
      "Ġparticular": 1627,
      "enc": 1628,
      "ograph": 1629,
      "iter": 1630,
      "Ġlow": 1631,
      "Ġposition": 1632,
      "roy": 1633,
      "ices": 1634,
      "ĠAm": 1635,
      "ize": 1636,
      "Ġcur": 1637,
      "Ġ23": 1638,
      "Ġspe": 1639,
      "ĠTe": 1640,
      "Ġfoot": 1641,
      "ĠComp": 1642,
      "Ġtitle": 1643,
      "Ġbeh": 1644,
      "ĠDivision": 1645,
      "Ġconv": 1646,
      "Ġprof": 1647,
      "Ġcompet": 1648,
      "Ġmilitary": 1649,
      "Ġrelease": 1650,
      "Ġmy": 1651,
      "ĠState": 1652,
      "Ġauthor": 1653,
      "ering": 1654,
      "Ġ2011": 1655,
      "Ġhistory": 1656,
      "ĠRoman": 1657,
      "Ġappe": 1658,
      "Ġsol": 1659,
      "Ġband": 1660,
      "yle": 1661,
      "ront": 1662,
      "ebru": 1663,
      "ĠChurch": 1664,
      "Ġversion": 1665,
      "fric": 1666,
      "Ġgave": 1667,
      "Ġ2006": 1668,
      "Ġdefe": 1669,
      "ĠX": 1670,
      "Ġless": 1671,
      "pped": 1672,
      "Ġorder": 1673,
      "Ġtimes": 1674,
      "Ġfre": 1675,
      "Ġvict": 1676,
      "Ġcontrol": 1677,
      "reen": 1678,
      "ĠWest": 1679,
      "ylan": 1680,
      "ittle": 1681,
      "Ġreported": 1682,
      "ĠCanad": 1683,
      "Ġ26": 1684,
      "Ġmembers": 1685,
      "outher": 1686,
      "ĠMin": 1687,
      "ĠDylan": 1688,
      "osp": 1689,
      "Ġchang": 1690,
      "augh": 1691,
      "Ġnort": 1692,
      "aces": 1693,
      "Ġproject": 1694,
      "Ġproduced": 1695,
      "Ġ22": 1696,
      "Ġ24": 1697,
      "ĠGener": 1698,
      "outhern": 1699,
      "Ġtotal": 1700,
      "ĠFebru": 1701,
      "ĠFebruary": 1702,
      "Ġnov": 1703,
      "Ġarr": 1704,
      "ĠGeor": 1705,
      "levision": 1706,
      "Ġter": 1707,
      "ne": 1708,
      "Ġfire": 1709,
      "ĠCount": 1710,
      "hern": 1711,
      "ailed": 1712,
      "arm": 1713,
      "Ġtropical": 1714,
      "rick": 1715,
      "oung": 1716,
      "eter": 1717,
      "ĠSong": 1718,
      "urs": 1719,
      "ampions": 1720,
      "Ġpost": 1721,
      "aying": 1722,
      "ĠPark": 1723,
      "Ġobs": 1724,
      "iety": 1725,
      "atic": 1726,
      "Ġhistor": 1727,
      "Ġcareer": 1728,
      "ring": 1729,
      "Ġpat": 1730,
      "Ġhaving": 1731,
      "ĠLeague": 1732,
      "Ġcritic": 1733,
      "ĠHa": 1734,
      "ĠAss": 1735,
      "Ġinvol": 1736,
      "Ġ28": 1737,
      "apan": 1738,
      "Ġproduction": 1739,
      "Ġsurv": 1740,
      "Ġsk": 1741,
      "Ġlost": 1742,
      "Ġforces": 1743,
      "ĠOld": 1744,
      "ression": 1745,
      "Ġpopular": 1746,
      "ush": 1747,
      "hem": 1748,
      "Ġgiven": 1749,
      "ably": 1750,
      "Ġ2012": 1751,
      "Ġwant": 1752,
      "Ġcountry": 1753,
      "ald": 1754,
      "ĠJapan": 1755,
      "Ġinclude": 1756,
      "Ġinflu": 1757,
      "Ġaff": 1758,
      "iment": 1759,
      "ĠSte": 1760,
      "Ġsignific": 1761,
      "Ġchildren": 1762,
      "Ġpress": 1763,
      "echn": 1764,
      "Ġequ": 1765,
      "Ġcult": 1766,
      "Ġeight": 1767,
      "ford": 1768,
      "Ġcr": 1769,
      "ĠTr": 1770,
      "Ġcomb": 1771,
      "Ġmanag": 1772,
      "Ġseen": 1773,
      "ploy": 1774,
      "Ġmaking": 1775,
      "omen": 1776,
      "ĠEd": 1777,
      "Ġsit": 1778,
      "Ġsite": 1779,
      "isc": 1780,
      "ĠSim": 1781,
      "ĠPol": 1782,
      "rent": 1783,
      "reet": 1784,
      "ĠAfric": 1785,
      "Ġstated": 1786,
      "ope": 1787,
      "Ġshould": 1788,
      "Ġfem": 1789,
      "Ġfact": 1790,
      "Ġnever": 1791,
      "ĠEl": 1792,
      "Ġestabl": 1793,
      "Ġ!": 1794,
      "ising": 1795,
      "ours": 1796,
      "ĠWhile": 1797,
      "ges": 1798,
      "ither": 1799,
      "Ġbody": 1800,
      "ĠMiss": 1801,
      "Ġord": 1802,
      "fic": 1803,
      "ration": 1804,
      "work": 1805,
      "Ġ&": 1806,
      "Ġread": 1807,
      "Ġreturned": 1808,
      "Ġprogram": 1809,
      "ĠSu": 1810,
      "Ġplan": 1811,
      "oon": 1812,
      "ones": 1813,
      "irc": 1814,
      "Ġstat": 1815,
      "Ġmatch": 1816,
      "Ġsoc": 1817,
      "vers": 1818,
      "sequ": 1819,
      "ator": 1820,
      "ĠCent": 1821,
      "ĠDav": 1822,
      "Ġsound": 1823,
      "Ġhow": 1824,
      "Ġgen": 1825,
      "Ġ50": 1826,
      "ĠUniversity": 1827,
      "Ġearl": 1828,
      "Ġannoun": 1829,
      "ades": 1830,
      "Ġships": 1831,
      "ĠGeneral": 1832,
      "alion": 1833,
      "ĠThese": 1834,
      "Ġgod": 1835,
      "Ġground": 1836,
      "Ġ2013": 1837,
      "Ġpopulation": 1838,
      "Ġestablished": 1839,
      "Ġreached": 1840,
      "Ġisland": 1841,
      "ĠEv": 1842,
      "ĠAmerica": 1843,
      "Ġcat": 1844,
      "Ġnoted": 1845,
      "Ġjo": 1846,
      "aun": 1847,
      "Ġft": 1848,
      "Ġfriend": 1849,
      "Ġlight": 1850,
      "ape": 1851,
      "Ġchart": 1852,
      "sp": 1853,
      "Ġaway": 1854,
      "Ġdiv": 1855,
      "Ġlim": 1856,
      "used": 1857,
      "Ġthroughout": 1858,
      "Ġer": 1859,
      "esc": 1860,
      "Ġstruct": 1861,
      "Ġdeveloped": 1862,
      "Ġthought": 1863,
      "ĠNe": 1864,
      "aff": 1865,
      "iec": 1866,
      "ream": 1867,
      "Ġcou": 1868,
      "ĠLond": 1869,
      "Ġacross": 1870,
      "rem": 1871,
      "reland": 1872,
      "Ġsomet": 1873,
      "Ġ27": 1874,
      "Ġ190": 1875,
      "Ġpresent": 1876,
      "aul": 1877,
      "ĠIreland": 1878,
      "Ġseven": 1879,
      "Ġintrodu": 1880,
      "ille": 1881,
      "oll": 1882,
      "ination": 1883,
      "Ġpra": 1884,
      "Ġhimself": 1885,
      "ĠLondon": 1886,
      "Ġcast": 1887,
      "Ġgood": 1888,
      "igade": 1889,
      "Ġrad": 1890,
      "ese": 1891,
      "Ġusing": 1892,
      "ki": 1893,
      "ffic": 1894,
      "Ġblack": 1895,
      "ster": 1896,
      "ĠEar": 1897,
      "Ġproc": 1898,
      "Ġfelt": 1899,
      "Ġgl": 1900,
      "ĠJack": 1901,
      "Ġsignificant": 1902,
      "af": 1903,
      "Ġide": 1904,
      "Ġhig": 1905,
      "Ġperformed": 1906,
      "ĠWilliam": 1907,
      "omb": 1908,
      "ĠMich": 1909,
      "aint": 1910,
      "Ġwat": 1911,
      "ords": 1912,
      "Ġhuman": 1913,
      "Ġimportant": 1914,
      "Ġbar": 1915,
      "aren": 1916,
      "na": 1917,
      "idence": 1918,
      "Ġadm": 1919,
      "Ġfather": 1920,
      "Ġnight": 1921,
      "ological": 1922,
      "Ġmiles": 1923,
      "iness": 1924,
      "itive": 1925,
      "Ġfun": 1926,
      "Ġtelevision": 1927,
      "ĠAustralia": 1928,
      "Ġvarious": 1929,
      "Ġdestroy": 1930,
      "most": 1931,
      "utes": 1932,
      "ks": 1933,
      "Ġbo": 1934,
      "imately": 1935,
      "Ġareas": 1936,
      "Ġdevelopment": 1937,
      "Ġwhite": 1938,
      "ump": 1939,
      "Ġinterest": 1940,
      "view": 1941,
      "Ġten": 1942,
      "Ġenc": 1943,
      "ivil": 1944,
      "ĠHar": 1945,
      "ief": 1946,
      "antic": 1947,
      "Ġwriting": 1948,
      "Ġmodern": 1949,
      "Ġwent": 1950,
      "Ġfull": 1951,
      "Ġlook": 1952,
      "Ġneed": 1953,
      "Ġsuccessful": 1954,
      "Ġtour": 1955,
      "Ġdied": 1956,
      "ĠFeder": 1957,
      "field": 1958,
      "Ġprim": 1959,
      "Ġred": 1960,
      "ĠRich": 1961,
      "ĠGl": 1962,
      "Ġdoes": 1963,
      "ĠMag": 1964,
      "Ġevents": 1965,
      "ĠCal": 1966,
      "ĠPal": 1967,
      "ĠRober": 1968,
      "Ġdiscover": 1969,
      "Ġstarted": 1970,
      "ael": 1971,
      "Ġdecl": 1972,
      "Ġhouse": 1973,
      "Ġlaw": 1974,
      "Ġwid": 1975,
      "Ġfeet": 1976,
      "Ġactiv": 1977,
      "ampionship": 1978,
      "Ġtro": 1979,
      "Ġmm": 1980,
      "iting": 1981,
      "ison": 1982,
      "Ġball": 1983,
      "Ġplayers": 1984,
      "ĠAir": 1985,
      "rab": 1986,
      "Ġrange": 1987,
      "Ġsett": 1988,
      "osaur": 1989,
      "Ġsee": 1990,
      "ogn": 1991,
      "reek": 1992,
      "Ġpoem": 1993,
      "Ġformed": 1994,
      "Ġcaused": 1995,
      "ÌĪ": 1996,
      "Ġput": 1997,
      "Ġvill": 1998,
      "ĠReg": 1999,
      "ĠBlack": 2000,
      "Ġbuilding": 2001,
      "reg": 2002,
      "Ġtoo": 2003,
      "ĠRoy": 2004,
      "ĠJames": 2005,
      "Ġrelations": 2006,
      "Ġtechn": 2007,
      "ĠMount": 2008,
      "Ġforce": 2009,
      "aign": 2010,
      "Ġmix": 2011,
      "ico": 2012,
      "ĠTo": 2013,
      "Ġke": 2014,
      "Ġsw": 2015,
      "ened": 2016,
      "ĠRoad": 2017,
      "Ġpri": 2018,
      "ourn": 2019,
      "Ġcreated": 2020,
      "Ġofficial": 2021,
      "Ġage": 2022,
      "isted": 2023,
      "abor": 2024,
      "ĠKe": 2025,
      "elling": 2026,
      "Ġnovel": 2027,
      "con": 2028,
      "fall": 2029,
      "iers": 2030,
      "Ġpit": 2031,
      "ĠEx": 2032,
      "day": 2033,
      "Ġfac": 2034,
      "ston": 2035,
      "ĠCro": 2036,
      "Ġable": 2037,
      "ization": 2038,
      "Ġpolitical": 2039,
      "gr": 2040,
      "asing": 2041,
      "Ġrelig": 2042,
      "Ġcoast": 2043,
      "ara": 2044,
      "Ġget": 2045,
      "Ġste": 2046,
      "Ġbegin": 2047,
      "ĠOl": 2048,
      "ino": 2049,
      "alth": 2050,
      "eth": 2051,
      "rie": 2052,
      "ressed": 2053,
      "less": 2054,
      "Ġbird": 2055,
      "ality": 2056,
      "Ġ189": 2057,
      "ĠAng": 2058,
      "epend": 2059,
      "Ġcharacters": 2060,
      "ana": 2061,
      "ĠRec": 2062,
      "ument": 2063,
      "ries": 2064,
      "Ġsum": 2065,
      "Ġstyle": 2066,
      "Ġoccur": 2067,
      "Ġson": 2068,
      "ĠSom": 2069,
      "Ġnational": 2070,
      "Ġ2004": 2071,
      "Ġpromot": 2072,
      "Ġpred": 2073,
      "Ġlik": 2074,
      "ficult": 2075,
      "br": 2076,
      "ĠHam": 2077,
      "Ġremained": 2078,
      "ĠAtl": 2079,
      "idd": 2080,
      "ĠâĢĻ": 2081,
      "ample": 2082,
      "Ġlocated": 2083,
      "Ġmount": 2084,
      "oming": 2085,
      "ĠHigh": 2086,
      "Ġothers": 2087,
      "Ġbattle": 2088,
      "Ġtre": 2089,
      "ases": 2090,
      "Ġonce": 2091,
      "Ġval": 2092,
      "Ġscored": 2093,
      "Ġdifficult": 2094,
      "Ġconstruction": 2095,
      "Ġ2005": 2096,
      "Ġperformance": 2097,
      "ĠCounty": 2098,
      "craft": 2099,
      "ym": 2100,
      "Ġfig": 2101,
      "ways": 2102,
      "Ġmeet": 2103,
      "ertain": 2104,
      "Ġtradition": 2105,
      "ĠTown": 2106,
      "ĠSw": 2107,
      "Ġrock": 2108,
      "Ġentire": 2109,
      "Ġcompleted": 2110,
      "Ġannounced": 2111,
      "por": 2112,
      "Ġcross": 2113,
      "Ġhold": 2114,
      "enth": 2115,
      "ĠBra": 2116,
      "Ġrank": 2117,
      "lected": 2118,
      "Ġredu": 2119,
      "ivid": 2120,
      "Ġstars": 2121,
      "Ġregion": 2122,
      "ĠAustralian": 2123,
      "Ġfav": 2124,
      "Ġnuc": 2125,
      "Ġsuper": 2126,
      "Ġcolle": 2127,
      "Ġgoal": 2128,
      "Ġgrow": 2129,
      "ounc": 2130,
      "ĠYou": 2131,
      "ĠIsland": 2132,
      "Ġinstead": 2133,
      "Ġguns": 2134,
      "oid": 2135,
      "itted": 2136,
      "Ġfront": 2137,
      "rought": 2138,
      "ĠKingdom": 2139,
      "orse": 2140,
      "Ġfight": 2141,
      "Ġlittle": 2142,
      "Ġconn": 2143,
      "ique": 2144,
      "Ġsqu": 2145,
      "Ġcirc": 2146,
      "Ġ31": 2147,
      "ublic": 2148,
      "Ġadded": 2149,
      "enced": 2150,
      "arch": 2151,
      "omp": 2152,
      "ĠGrand": 2153,
      "Ġfollowed": 2154,
      "Ġcampaign": 2155,
      "omm": 2156,
      "ĠBill": 2157,
      "Ġleast": 2158,
      "Ġappeared": 2159,
      "leet": 2160,
      "Ġproduc": 2161,
      "Ġpeak": 2162,
      "Ġkilled": 2163,
      "Ġprocess": 2164,
      "off": 2165,
      "Ġworks": 2166,
      "Ġoriginally": 2167,
      "Ġmonths": 2168,
      "here": 2169,
      "aly": 2170,
      "ett": 2171,
      "Ġcond": 2172,
      "Ġknow": 2173,
      "ray": 2174,
      "Ġsouthern": 2175,
      "Ġborn": 2176,
      "urb": 2177,
      "play": 2178,
      "ky": 2179,
      "Ġcomment": 2180,
      "duct": 2181,
      "Ġstri": 2182,
      "Ġassoci": 2183,
      "ĠCompany": 2184,
      "ĠSec": 2185,
      "Ġloss": 2186,
      "umb": 2187,
      "Ġwife": 2188,
      "Ġfif": 2189,
      "ota": 2190,
      "Ġlet": 2191,
      "ha": 2192,
      "Ġmass": 2193,
      "Ġ29": 2194,
      "Ġ40": 2195,
      "ĠArmy": 2196,
      "Ġident": 2197,
      "Ġmother": 2198,
      "Ġnon": 2199,
      "ĠMon": 2200,
      "Ġstudy": 2201,
      "Ġcritics": 2202,
      "Ġaud": 2203,
      "Ġwomen": 2204,
      "ament": 2205,
      "Ġeastern": 2206,
      "Ġprote": 2207,
      "Ġsex": 2208,
      "Ġeventually": 2209,
      "Ġrelationship": 2210,
      "mar": 2211,
      "inal": 2212,
      "Ġcell": 2213,
      "Ġhurricane": 2214,
      "ects": 2215,
      "Ġagre": 2216,
      "Ġbroad": 2217,
      "ius": 2218,
      "ata": 2219,
      "ĠCare": 2220,
      "Ġanim": 2221,
      "Ġyoung": 2222,
      "Ġ185": 2223,
      "oice": 2224,
      "Ġaver": 2225,
      "Ġfourth": 2226,
      "Ġfeatures": 2227,
      "Ġprofess": 2228,
      "Ġaward": 2229,
      "ĠCup": 2230,
      "ĠMor": 2231,
      "angu": 2232,
      "ĠDavid": 2233,
      "ĠAct": 2234,
      "Ġlive": 2235,
      "antry": 2236,
      "Ġestim": 2237,
      "Ġbus": 2238,
      "ully": 2239,
      "Ġappoint": 2240,
      "Ġserved": 2241,
      "cher": 2242,
      "Ġtaken": 2243,
      "Ġlack": 2244,
      "istic": 2245,
      "illa": 2246,
      "Ġdecided": 2247,
      "omes": 2248,
      "emy": 2249,
      "Ġcommer": 2250,
      "ycl": 2251,
      "ĠSer": 2252,
      "chie": 2253,
      "ĠGod": 2254,
      "Ġheavy": 2255,
      "Ġrecogn": 2256,
      "Ġdamage": 2257,
      "ze": 2258,
      "Ġeither": 2259,
      "ĠMa": 2260,
      "azine": 2261,
      "Ġimpro": 2262,
      "ĠFrance": 2263,
      "Ġrepresent": 2264,
      "Ġarm": 2265,
      "liam": 2266,
      "Ġfar": 2267,
      "ask": 2268,
      "Ġtoget": 2269,
      "Ġcondom": 2270,
      "Ġsepar": 2271,
      "aper": 2272,
      "Ġ2003": 2273,
      "ought": 2274,
      "Ġindivid": 2275,
      "Ġinsp": 2276,
      "Ġbelieved": 2277,
      "Ġtogether": 2278,
      "Ġcor": 2279,
      "Ġbase": 2280,
      "ĠTwo": 2281,
      "unk": 2282,
      "ements": 2283,
      "Ġ2015": 2284,
      "Ġbehind": 2285,
      "ores": 2286,
      "ecut": 2287,
      "olution": 2288,
      "Ġroute": 2289,
      "Ġspecial": 2290,
      "ica": 2291,
      "ĠBer": 2292,
      "ĠDu": 2293,
      "Ġproble": 2294,
      "Ġdev": 2295,
      "Ġarg": 2296,
      "igned": 2297,
      "ĠRobert": 2298,
      "Ġmater": 2299,
      "Ġdou": 2300,
      "rict": 2301,
      "Ġclos": 2302,
      "Ġcoll": 2303,
      "ouncil": 2304,
      "rap": 2305,
      "Ġclose": 2306,
      "ency": 2307,
      "gg": 2308,
      "ned": 2309,
      "Ġcreat": 2310,
      "Ġbi": 2311,
      "Ġburn": 2312,
      "ama": 2313,
      "ĠPres": 2314,
      "Ġalmost": 2315,
      "Ġexample": 2316,
      "Ġplaying": 2317,
      "Ġmove": 2318,
      "ida": 2319,
      "Ġvol": 2320,
      "Ġaccept": 2321,
      "ĠCarey": 2322,
      "liament": 2323,
      "iation": 2324,
      "ipp": 2325,
      "iber": 2326,
      "Ġir": 2327,
      "ĠSome": 2328,
      "ĠMad": 2329,
      "aves": 2330,
      "ĠHen": 2331,
      "ests": 2332,
      "iction": 2333,
      "Ġfall": 2334,
      "ĠIm": 2335,
      "Ġgenerally": 2336,
      "Ġopened": 2337,
      "iol": 2338,
      "Ġsaw": 2339,
      "Ġtowards": 2340,
      "ĠCo": 2341,
      "ĠRed": 2342,
      "eal": 2343,
      "Ġround": 2344,
      "rest": 2345,
      "Ġbrought": 2346,
      "odes": 2347,
      "Ġleading": 2348,
      "Ġweeks": 2349,
      "Ġz": 2350,
      "Ġsour": 2351,
      "oring": 2352,
      "ĠPart": 2353,
      "aching": 2354,
      "Ġfinished": 2355,
      "uter": 2356,
      "Ġce": 2357,
      "ceed": 2358,
      "Ġelements": 2359,
      "Ġdraw": 2360,
      "val": 2361,
      "alt": 2362,
      "Ġmot": 2363,
      "Ġhost": 2364,
      "Ġlaun": 2365,
      "Ġlangu": 2366,
      "Ġgeneral": 2367,
      "ĠMex": 2368,
      "Ġregular": 2369,
      "Ġfeatured": 2370,
      "Ġwall": 2371,
      "Ġmiss": 2372,
      "Ġ188": 2373,
      "Ġquar": 2374,
      "Ġaircraft": 2375,
      "cial": 2376,
      "acy": 2377,
      "ending": 2378,
      "board": 2379,
      "lement": 2380,
      "ĠWales": 2381,
      "ĠWhite": 2382,
      "ĠIr": 2383,
      "Ġvoc": 2384,
      "ordan": 2385,
      "Ġindust": 2386,
      "Ġdirected": 2387,
      "ĠRoyal": 2388,
      "ators": 2389,
      "Ġfund": 2390,
      "Ġreb": 2391,
      "stit": 2392,
      "Ġdirector": 2393,
      "Ġprovided": 2394,
      "ground": 2395,
      "Ġaction": 2396,
      "Ġmi": 2397,
      "icated": 2398,
      "Ġsuff": 2399,
      "Ġ35": 2400,
      "Ġmeas": 2401,
      "Ġflood": 2402,
      "ĠBrigade": 2403,
      "Ġrespect": 2404,
      "Ġservice": 2405,
      "Ġcut": 2406,
      "Ġinform": 2407,
      "Ġren": 2408,
      "Ġnar": 2409,
      "ĠFollow": 2410,
      "Ġcontract": 2411,
      "Ġresear": 2412,
      "Ġcentral": 2413,
      "hing": 2414,
      "etwork": 2415,
      "ĠRep": 2416,
      "ude": 2417,
      "ption": 2418,
      "ĠViet": 2419,
      "Ġpoints": 2420,
      "ĠFederer": 2421,
      "ĠJordan": 2422,
      "Ġyard": 2423,
      "ounter": 2424,
      "cast": 2425,
      "ĠLove": 2426,
      "ĠOther": 2427,
      "oph": 2428,
      "Ġking": 2429,
      "ellow": 2430,
      "Ġmean": 2431,
      "ĠFlor": 2432,
      "Ġearlier": 2433,
      "sel": 2434,
      "ita": 2435,
      "ential": 2436,
      "ĠPe": 2437,
      "ĠFrom": 2438,
      "Ġrather": 2439,
      "ĠEuropean": 2440,
      "ĠBattalion": 2441,
      "eum": 2442,
      "Ġcost": 2443,
      "Ġreve": 2444,
      "irl": 2445,
      "ĠJew": 2446,
      "Ġve": 2447,
      "Ġsequ": 2448,
      "ights": 2449,
      "Ġupon": 2450,
      "Ġsubsequ": 2451,
      "Ġappearance": 2452,
      "Ġriver": 2453,
      "wood": 2454,
      "medi": 2455,
      "Ġfemale": 2456,
      "atin": 2457,
      "Ġbeg": 2458,
      "Ġlargest": 2459,
      "Ġtravel": 2460,
      "Ġemploy": 2461,
      "Ġparticularly": 2462,
      "Ġvictory": 2463,
      "ĠFollowing": 2464,
      "ying": 2465,
      "Ġstru": 2466,
      "Ġprob": 2467,
      "orts": 2468,
      "Ġhighway": 2469,
      "Ġmanager": 2470,
      "Ġill": 2471,
      "Ġachie": 2472,
      "ĠMed": 2473,
      "ishing": 2474,
      "tt": 2475,
      "erous": 2476,
      "Ġcop": 2477,
      "Ġfort": 2478,
      "Ġcurrent": 2479,
      "Ġtroops": 2480,
      "ouri": 2481,
      "ĠMo": 2482,
      "ĠEast": 2483,
      "Ġyards": 2484,
      "Ġ186": 2485,
      "Ġopening": 2486,
      "ĠHero": 2487,
      "Ġnorthern": 2488,
      "Ġwanted": 2489,
      "ĠAtlantic": 2490,
      "Ġleng": 2491,
      "ĠEm": 2492,
      "Ġexist": 2493,
      "head": 2494,
      "Ġfoc": 2495,
      "eler": 2496,
      "ĠHouse": 2497,
      "Ġconduct": 2498,
      "ĠOd": 2499,
      "reng": 2500,
      "Ġoperations": 2501,
      "ĠChristian": 2502,
      "ĠGeorge": 2503,
      "Ġsaying": 2504,
      "Ġmember": 2505,
      "ĠRock": 2506,
      "ĠInternational": 2507,
      "Ġ500": 2508,
      "Ġevidence": 2509,
      "Ġallowed": 2510,
      "ving": 2511,
      "ĠMost": 2512,
      "ĠMary": 2513,
      "ids": 2514,
      "ĠWal": 2515,
      "Ġoutside": 2516,
      "Ġpract": 2517,
      "Ġpossible": 2518,
      "Ġbur": 2519,
      "ĠBo": 2520,
      "anding": 2521,
      "Ġneg": 2522,
      "Ġaccount": 2523,
      "Ġcrew": 2524,
      "ĠOliv": 2525,
      "west": 2526,
      "Ġmer": 2527,
      "ĠMac": 2528,
      "ĠBay": 2529,
      "ĠWil": 2530,
      "ĠGal": 2531,
      "ĠStreet": 2532,
      "uck": 2533,
      "ule": 2534,
      "Ġreason": 2535,
      "ĠPhil": 2536,
      "Ġmaterial": 2537,
      "ĠFlorida": 2538,
      "of": 2539,
      "Ġpast": 2540,
      "Ġhours": 2541,
      "Ġwhom": 2542,
      "ĠGame": 2543,
      "ander": 2544,
      "ills": 2545,
      "Ġrespons": 2546,
      "ault": 2547,
      "co": 2548,
      "uel": 2549,
      "Ġcase": 2550,
      "Ġfree": 2551,
      "ĠSl": 2552,
      "Ġstreng": 2553,
      "ĠPaul": 2554,
      "artment": 2555,
      "Ġworked": 2556,
      "Ġregard": 2557,
      "ĠMcC": 2558,
      "Ġterrit": 2559,
      "Ġlength": 2560,
      "atural": 2561,
      "ĠOp": 2562,
      "Ġdesp": 2563,
      "Ġworking": 2564,
      "Ġobject": 2565,
      "ĠMissouri": 2566,
      "yd": 2567,
      "Ġgre": 2568,
      "Ġstage": 2569,
      "ih": 2570,
      "Ġnec": 2571,
      "ĠMark": 2572,
      "Ġplann": 2573,
      "Ġquick": 2574,
      "ee": 2575,
      "Ġmach": 2576,
      "oms": 2577,
      "ago": 2578,
      "Ġseem": 2579,
      "Ġpoor": 2580,
      "Ġdesigned": 2581,
      "ington": 2582,
      "irth": 2583,
      "Ġ2014": 2584,
      "lus": 2585,
      "ĠTech": 2586,
      "Ġgold": 2587,
      "vert": 2588,
      "ĠFe": 2589,
      "aps": 2590,
      "Ġconstruct": 2591,
      "Ġpraised": 2592,
      "vest": 2593,
      "Ġmult": 2594,
      "Ġforced": 2595,
      "ĠIndian": 2596,
      "Ġavail": 2597,
      "cent": 2598,
      "Ġesc": 2599,
      "ites": 2600,
      "ari": 2601,
      "ĠSan": 2602,
      "ĠBut": 2603,
      "Ġrul": 2604,
      "Ġremains": 2605,
      "bor": 2606,
      "rated": 2607,
      "ville": 2608,
      "onst": 2609,
      "Ġlove": 2610,
      "iding": 2611,
      "Ġstation": 2612,
      "ĠMusic": 2613,
      "Ġengine": 2614,
      "Ġwinds": 2615,
      "ĠTor": 2616,
      "Ġthink": 2617,
      "Ġabove": 2618,
      "Ġgoals": 2619,
      "Ġincreased": 2620,
      "uk": 2621,
      "Ġtreat": 2622,
      "Ġnomin": 2623,
      "ession": 2624,
      "ĠVir": 2625,
      "gypt": 2626,
      "conom": 2627,
      "aries": 2628,
      "ĠDesp": 2629,
      "ĠVal": 2630,
      "Ġsoon": 2631,
      "Ġinvest": 2632,
      "Ġpreviously": 2633,
      "ĠÂ£": 2634,
      "Ġfootball": 2635,
      "ps": 2636,
      "wh": 2637,
      "Ġcivil": 2638,
      "asion": 2639,
      "ĠBus": 2640,
      "ĠEgypt": 2641,
      "ributed": 2642,
      "hens": 2643,
      "Ġreplaced": 2644,
      "BC": 2645,
      "uation": 2646,
      "heast": 2647,
      "Ġpers": 2648,
      "Ġask": 2649,
      "Ġ187": 2650,
      "Ġdiss": 2651,
      "Ġcommercial": 2652,
      "nes": 2653,
      "Ġmust": 2654,
      "Ġviol": 2655,
      "Ġmaint": 2656,
      "ĠQu": 2657,
      "ĠMichael": 2658,
      "ĠDespite": 2659,
      "now": 2660,
      "Ġclear": 2661,
      "Ġhon": 2662,
      "urt": 2663,
      "ĠDay": 2664,
      "erved": 2665,
      "pper": 2666,
      "Ġcompos": 2667,
      "Ġwriter": 2668,
      "ography": 2669,
      "Ġbusiness": 2670,
      "Ġtrib": 2671,
      "itz": 2672,
      "ula": 2673,
      "ĠWhe": 2674,
      "Ġunc": 2675,
      "Ġinterview": 2676,
      "go": 2677,
      "Ġpen": 2678,
      "Ġpain": 2679,
      "Ġthreat": 2680,
      "ĠSm": 2681,
      "ĠPlay": 2682,
      "Ġestimated": 2683,
      "olic": 2684,
      "ĠChampionship": 2685,
      "oney": 2686,
      "Ġspecific": 2687,
      "Ġsurf": 2688,
      "Ġhighest": 2689,
      "ĠRichard": 2690,
      "Ġmph": 2691,
      "Ġunits": 2692,
      "ĠThom": 2693,
      "Ġclaimed": 2694,
      "Ġinvolved": 2695,
      "gl": 2696,
      "ulf": 2697,
      "Ġplaced": 2698,
      "Ġcontr": 2699,
      "Ġsigned": 2700,
      "ĠQue": 2701,
      "ĠBrown": 2702,
      "Ġsuggested": 2703,
      "Ġcourt": 2704,
      "ĠOldham": 2705,
      "ĠHenry": 2706,
      "atory": 2707,
      "ĠBest": 2708,
      "ulated": 2709,
      "Ġjoined": 2710,
      "ecutive": 2711,
      "ming": 2712,
      "acing": 2713,
      "ching": 2714,
      "Ġparts": 2715,
      "Ġpriv": 2716,
      "ĠÂ°": 2717,
      "for": 2718,
      "Ġfly": 2719,
      "ania": 2720,
      "Ġpur": 2721,
      "iff": 2722,
      "elled": 2723,
      "Ġintens": 2724,
      "ĠOlivier": 2725,
      "men": 2726,
      "Ġwestern": 2727,
      "Ġhous": 2728,
      "ĠTimes": 2729,
      "ĠMos": 2730,
      "ĠHel": 2731,
      "ĠGr": 2732,
      "Ġitself": 2733,
      "Ġrap": 2734,
      "Ġaverage": 2735,
      "Ġtru": 2736,
      "Ġtaking": 2737,
      "Ġhard": 2738,
      "ĠAc": 2739,
      "ĠSqu": 2740,
      "thlet": 2741,
      "ĠOs": 2742,
      "Ġleague": 2743,
      "Ġbreak": 2744,
      "ĠJapanese": 2745,
      "ĠSuper": 2746,
      "ĠIrish": 2747,
      "Ġavailable": 2748,
      "AF": 2749,
      "Ġesp": 2750,
      "leg": 2751,
      "ĠAg": 2752,
      "ume": 2753,
      "Ġchange": 2754,
      "Ġexcept": 2755,
      "Ġtransfer": 2756,
      "Ġintroduced": 2757,
      "band": 2758,
      "Ġinj": 2759,
      "Ġdon": 2760,
      "Ġhit": 2761,
      "ĠSchool": 2762,
      "Ġly": 2763,
      "ĠCorp": 2764,
      "Ġwhose": 2765,
      "Ġshot": 2766,
      "Ġ36": 2767,
      "Ġ2001": 2768,
      "Ġscene": 2769,
      "ibility": 2770,
      "anna": 2771,
      "Ġbrother": 2772,
      "ready": 2773,
      "ĠPresident": 2774,
      "cript": 2775,
      "ĠCong": 2776,
      "Ġstop": 2777,
      "ĠDep": 2778,
      "Ġ45": 2779,
      "ronic": 2780,
      "Ġsubject": 2781,
      "Ġvillage": 2782,
      "mb": 2783,
      "ximately": 2784,
      "Ġwood": 2785,
      "Ġheav": 2786,
      "Ġ183": 2787,
      "ĠIndia": 2788,
      "Ġphys": 2789,
      "ĠHall": 2790,
      "Ġproper": 2791,
      "Ġsyn": 2792,
      "Ġgrad": 2793,
      "Ġquarter": 2794,
      "Ġfr": 2795,
      "Ġtold": 2796,
      "ĠSun": 2797,
      "Ġnine": 2798,
      "osing": 2799,
      "ĠLa": 2800,
      "Ġabs": 2801,
      "ĠCarol": 2802,
      "Ġreligious": 2803,
      "ĠVietn": 2804,
      "arily": 2805,
      "Ġpiec": 2806,
      "Ġey": 2807,
      "Ġgra": 2808,
      "ĠPac": 2809,
      "ĠRac": 2810,
      "ĠNY": 2811,
      "Ġremov": 2812,
      "Ġrail": 2813,
      "Ġtransport": 2814,
      "Ġdamaged": 2815,
      "ĠMont": 2816,
      "ĠDon": 2817,
      "ĠGovern": 2818,
      "Ġrace": 2819,
      "Ġ2000": 2820,
      "Ġ1990": 2821,
      "Ġincreasing": 2822,
      "Ġturned": 2823,
      "Ġsocial": 2824,
      "porary": 2825,
      "to": 2826,
      "Ġtest": 2827,
      "Ġslow": 2828,
      "aled": 2829,
      "Ġnetwork": 2830,
      "Ġgive": 2831,
      "ĠVar": 2832,
      "Ġ60": 2833,
      "Ġnearly": 2834,
      "Ġcapital": 2835,
      "Ġappointed": 2836,
      "ĠMexico": 2837,
      "Ġdespite": 2838,
      "Ġap": 2839,
      "Ġsize": 2840,
      "Ġreact": 2841,
      "urg": 2842,
      "Ġindepend": 2843,
      "ĠScient": 2844,
      "Ġcommunity": 2845,
      "Ġinternational": 2846,
      "ĠApp": 2847,
      "ste": 2848,
      "aker": 2849,
      "Ġfeel": 2850,
      "Ġrecording": 2851,
      "Ġsurround": 2852,
      "ĠZeal": 2853,
      "Ġpassed": 2854,
      "Ġdeterm": 2855,
      "ĠThomas": 2856,
      "hib": 2857,
      "Ġcru": 2858,
      "Ġcycl": 2859,
      "Ġbill": 2860,
      "Ġmem": 2861,
      "Ġdate": 2862,
      "Ġwithd": 2863,
      "Ġchap": 2864,
      "ĠStar": 2865,
      "Ġimmedi": 2866,
      "inese": 2867,
      "Ġshows": 2868,
      "Ġcomplet": 2869,
      "ĠGuitar": 2870,
      "Ġestablish": 2871,
      "Ġinitially": 2872,
      "enes": 2873,
      "Ġpot": 2874,
      "Ġmight": 2875,
      "Ġeconom": 2876,
      "ĠMy": 2877,
      "ĠMany": 2878,
      "ecially": 2879,
      "Ġalready": 2880,
      "quar": 2881,
      "ĠBritain": 2882,
      "ĠRepublic": 2883,
      "Ġcertain": 2884,
      "Ġfut": 2885,
      "Ġfailed": 2886,
      "Ġtow": 2887,
      "oul": 2888,
      "Ġstates": 2889,
      "ĠGreat": 2890,
      "ateg": 2891,
      "ĠChinese": 2892,
      "Ġscore": 2893,
      "Ġgoing": 2894,
      "Ġ1960": 2895,
      "Ġwinning": 2896,
      "Ġdebut": 2897,
      "ĠCanada": 2898,
      "gu": 2899,
      "Ġdeal": 2900,
      "Ġdisp": 2901,
      "ĠUnion": 2902,
      "Ġassist": 2903,
      "Ġrain": 2904,
      "Ġoccup": 2905,
      "Ġeduc": 2906,
      "Ġarchae": 2907,
      "Ġprobably": 2908,
      "ĠZealand": 2909,
      "fect": 2910,
      "ÌĢ": 2911,
      "Ġcal": 2912,
      "Ġden": 2913,
      "Ġlines": 2914,
      "Ġnames": 2915,
      "ĠCard": 2916,
      "irt": 2917,
      "abit": 2918,
      "Ġ184": 2919,
      "Ġaccording": 2920,
      "Ġminor": 2921,
      "Ġparticip": 2922,
      "Ġanti": 2923,
      "Ġissue": 2924,
      "Ġforest": 2925,
      "Ġespecially": 2926,
      "ires": 2927,
      "Ġcas": 2928,
      "Ġmale": 2929,
      "rang": 2930,
      "Ġtraining": 2931,
      "Ġstudio": 2932,
      "Ġstructure": 2933,
      "den": 2934,
      "Ġaut": 2935,
      "Ġfood": 2936,
      "Ġdoc": 2937,
      "Ġforward": 2938,
      "ĠFirst": 2939,
      "ĠJin": 2940,
      "odies": 2941,
      "Ġspent": 2942,
      "ĠThat": 2943,
      "Ġarrived": 2944,
      "ĠPacific": 2945,
      "lict": 2946,
      "ication": 2947,
      "ĠCath": 2948,
      "Ġarmy": 2949,
      "Ġenough": 2950,
      "Ġincludes": 2951,
      "Ġremaining": 2952,
      "Ġblock": 2953,
      "Ġordered": 2954,
      "ĠWheeler": 2955,
      "chol": 2956,
      "ĠGold": 2957,
      "aval": 2958,
      "rian": 2959,
      "hedral": 2960,
      "rd": 2961,
      "rack": 2962,
      "ĠEver": 2963,
      "ability": 2964,
      "Ġdepict": 2965,
      "Ġapproximately": 2966,
      "Ġvisit": 2967,
      "Ġrequired": 2968,
      "Ġsometimes": 2969,
      "Ġmixed": 2970,
      "Ġlanguage": 2971,
      "Ġ?": 2972,
      "Ġtouch": 2973,
      "Ġdro": 2974,
      "Ġlower": 2975,
      "Ġliter": 2976,
      "ĠDr": 2977,
      "Ġcome": 2978,
      "Ġcenter": 2979,
      "Ġcomplete": 2980,
      "ĠCanadian": 2981,
      "ĠAngel": 2982,
      "ney": 2983,
      "ship": 2984,
      "Ġfail": 2985,
      "Ġdi": 2986,
      "ilities": 2987,
      "ĠLaw": 2988,
      "Ġkey": 2989,
      "ranch": 2990,
      "Ġimm": 2991,
      "Ġremain": 2992,
      "Ġ1970": 2993,
      "ĠIII": 2994,
      "ĠAssoci": 2995,
      "Ġbeginning": 2996,
      "down": 2997,
      "inct": 2998,
      "Ġlatter": 2999,
      "etic": 3000,
      "owl": 3001,
      "rag": 3002,
      "ference": 3003,
      "Ġreviews": 3004,
      "ĠAfrica": 3005,
      "osaurus": 3006,
      "Ġwoman": 3007,
      "oration": 3008,
      "ĠPeter": 3009,
      "ĠNavy": 3010,
      "Ġlimited": 3011,
      "aut": 3012,
      "iest": 3013,
      "Ġsem": 3014,
      "ĠLater": 3015,
      "ĠJe": 3016,
      "ĠUK": 3017,
      "Ġbetter": 3018,
      "Ġdecision": 3019,
      "Ġstudents": 3020,
      "stant": 3021,
      "ady": 3022,
      "ĠRose": 3023,
      "Ġusually": 3024,
      "Ġrunning": 3025,
      "back": 3026,
      "under": 3027,
      "inist": 3028,
      "edy": 3029,
      "ĠTer": 3030,
      "lymp": 3031,
      "Ġ2002": 3032,
      "Ġended": 3033,
      "Ġpositive": 3034,
      "Ġlarger": 3035,
      "Ġchanges": 3036,
      "ĠVirgin": 3037,
      "lor": 3038,
      "áĥ": 3039,
      "Ġmention": 3040,
      "Ġhapp": 3041,
      "Ġlab": 3042,
      "ĠCr": 3043,
      "ĠOlymp": 3044,
      "Ġdead": 3045,
      "Ġjourn": 3046,
      "Ġpresident": 3047,
      "Ġsupported": 3048,
      "Ġadditional": 3049,
      "Ġmagazine": 3050,
      "Ġdaugh": 3051,
      "Ġstay": 3052,
      "ĠPenn": 3053,
      "Ġdepression": 3054,
      "Ġemb": 3055,
      "Ġpressure": 3056,
      "ĠRachel": 3057,
      "uals": 3058,
      "Ġwide": 3059,
      "Ġcompl": 3060,
      "Ġquest": 3061,
      "Ġprior": 3062,
      "hou": 3063,
      "Ġshown": 3064,
      "Ġamount": 3065,
      "ification": 3066,
      "ĠScott": 3067,
      "Ġpolice": 3068,
      "Ġtype": 3069,
      "Ġbirds": 3070,
      "ĠBillboard": 3071,
      "oor": 3072,
      "orial": 3073,
      "ĠHol": 3074,
      "ĠPri": 3075,
      "ĠNort": 3076,
      "Ġ80": 3077,
      "Ġrelated": 3078,
      "rief": 3079,
      "ties": 3080,
      "Ġbirth": 3081,
      "ĠTV": 3082,
      "enty": 3083,
      "Ġ38": 3084,
      "Ġfeature": 3085,
      "Ġprovide": 3086,
      "Ġdefeated": 3087,
      "ĠTom": 3088,
      "ĠSing": 3089,
      "Ġappl": 3090,
      "Ġdiscovered": 3091,
      "Ġfifth": 3092,
      "Ġfuture": 3093,
      "Ġsil": 3094,
      "Ġface": 3095,
      "ĠCreek": 3096,
      "ĠMer": 3097,
      "ĠArt": 3098,
      "ĠCharles": 3099,
      "ios": 3100,
      "reak": 3101,
      "Ġcm": 3102,
      "Ġche": 3103,
      "aring": 3104,
      "Ġder": 3105,
      "ĠSoc": 3106,
      "Ġstaff": 3107,
      "ĠFort": 3108,
      "ĠJer": 3109,
      "Ġbecoming": 3110,
      "com": 3111,
      "gely": 3112,
      "Ġsat": 3113,
      "Ġsection": 3114,
      "ĠWestern": 3115,
      "Ġanc": 3116,
      "rics": 3117,
      "Ġtemper": 3118,
      "bers": 3119,
      "Ġword": 3120,
      "itte": 3121,
      "ils": 3122,
      "ĠHot": 3123,
      "ĠHill": 3124,
      "uments": 3125,
      "Ġexam": 3126,
      "Ġsmaller": 3127,
      "Ġfrequ": 3128,
      "oo": 3129,
      "onse": 3130,
      "Ġdoll": 3131,
      "ĠNot": 3132,
      "Ġvot": 3133,
      "ifa": 3134,
      "ĠStud": 3135,
      "Ġintended": 3136,
      "Ġ1980": 3137,
      "Ġgroups": 3138,
      "rison": 3139,
      "Ġidea": 3140,
      "rat": 3141,
      "ĠAward": 3142,
      "ĠSy": 3143,
      "ĠHist": 3144,
      "ĠWood": 3145,
      "bert": 3146,
      "Ġpercent": 3147,
      "Ġscreen": 3148,
      "Ġ75": 3149,
      "Ġthemsel": 3150,
      "Ġmetres": 3151,
      "Ġconclud": 3152,
      "Ġdiscuss": 3153,
      "Ġthemselves": 3154,
      "ners": 3155,
      "uf": 3156,
      "inent": 3157,
      "Ġfleet": 3158,
      "Ġdomin": 3159,
      "ĠArab": 3160,
      "adron": 3161,
      "raw": 3162,
      "ands": 3163,
      "Ġcaptured": 3164,
      "Ġreferred": 3165,
      "Ġlikely": 3166,
      "Ġsurface": 3167,
      "ĠScientology": 3168,
      "stein": 3169,
      "gar": 3170,
      "Ġfir": 3171,
      "unt": 3172,
      "Ġlargely": 3173,
      "Ġradio": 3174,
      "Ġtry": 3175,
      "era": 3176,
      "Ġcer": 3177,
      "ĠPat": 3178,
      "ĠUnder": 3179,
      "oys": 3180,
      "Ġmostly": 3181,
      "Ġminutes": 3182,
      "ĠHaifa": 3183,
      "gen": 3184,
      "uing": 3185,
      "Ġflow": 3186,
      "Ġmakes": 3187,
      "ĠSince": 3188,
      "Ġlink": 3189,
      "idents": 3190,
      "cean": 3191,
      "ĠFin": 3192,
      "rael": 3193,
      "Ġcontem": 3194,
      "oke": 3195,
      "Ġmoving": 3196,
      "Ġmusical": 3197,
      "Ġresponse": 3198,
      "ĠFrank": 3199,
      "ĠEarth": 3200,
      "ĠCroat": 3201,
      "Ġprofessional": 3202,
      "uz": 3203,
      "Ġpair": 3204,
      "asy": 3205,
      "ĠTur": 3206,
      "iva": 3207,
      "ĠPo": 3208,
      "ĠRuss": 3209,
      "ĠFI": 3210,
      "Ġshoot": 3211,
      "ector": 3212,
      "Ġlearn": 3213,
      "Ġund": 3214,
      "ples": 3215,
      "Ġens": 3216,
      "key": 3217,
      "Ġcolon": 3218,
      "Ġentered": 3219,
      "Ġsummer": 3220,
      "Ġconstructed": 3221,
      "quarters": 3222,
      "ror": 3223,
      "anish": 3224,
      "Ġinn": 3225,
      "rain": 3226,
      "aby": 3227,
      "Ġ1995": 3228,
      "orning": 3229,
      "ĠColle": 3230,
      "Ġbroadcast": 3231,
      "Ġproblems": 3232,
      "ĠAssociation": 3233,
      "ma": 3234,
      "ses": 3235,
      "enon": 3236,
      "ĠBel": 3237,
      "ĠNic": 3238,
      "iforn": 3239,
      "Ġsea": 3240,
      "ĠAnt": 3241,
      "Ġobserv": 3242,
      "Ġkeep": 3243,
      "Ġcele": 3244,
      "anies": 3245,
      "Ġmoney": 3246,
      "ĠSam": 3247,
      "Ġnature": 3248,
      "ĠOtt": 3249,
      "Ġcontains": 3250,
      "Ġadop": 3251,
      "Ġoffice": 3252,
      "Ġindic": 3253,
      "Ġgrant": 3254,
      "Ġmajority": 3255,
      "ĠParliament": 3256,
      "ĠPortug": 3257,
      "ĠJewish": 3258,
      "Ġself": 3259,
      "eding": 3260,
      "ĠCouncil": 3261,
      "ĠMet": 3262,
      "ĠHow": 3263,
      "ĠRh": 3264,
      "ĠRoss": 3265,
      "riage": 3266,
      "iano": 3267,
      "ishop": 3268,
      "Ġcreate": 3269,
      "onym": 3270,
      "well": 3271,
      "ergy": 3272,
      "Ġschol": 3273,
      "Ġcle": 3274,
      "Ġparen": 3275,
      "ĠSch": 3276,
      "Ġstories": 3277,
      "ĠFilm": 3278,
      "Ġconcept": 3279,
      "Ġvoice": 3280,
      "Ġleaving": 3281,
      "Ġuns": 3282,
      "ĠVer": 3283,
      "ruit": 3284,
      "Ġconsist": 3285,
      "Ġmeth": 3286,
      "ĠCaliforn": 3287,
      "Ġranked": 3288,
      "Ġfavor": 3289,
      "atively": 3290,
      "iser": 3291,
      "Ġbrief": 3292,
      "Ġthus": 3293,
      "ĠHaw": 3294,
      "ĠOver": 3295,
      "ĠIsrael": 3296,
      "Ġcontroll": 3297,
      "Ġlisted": 3298,
      "Ġexperience": 3299,
      "sen": 3300,
      "het": 3301,
      "ises": 3302,
      "isions": 3303,
      "ĠAwards": 3304,
      "Ġlived": 3305,
      "ĠMil": 3306,
      "ously": 3307,
      "Ġ70": 3308,
      "Ġunderst": 3309,
      "Ġcritical": 3310,
      "hester": 3311,
      "Ġgods": 3312,
      "ĠRegiment": 3313,
      "Ġagreed": 3314,
      "lex": 3315,
      "Ġalways": 3316,
      "change": 3317,
      "ĠInf": 3318,
      "Ġnotes": 3319,
      "ĠAnother": 3320,
      "Ġruns": 3321,
      "Ġofficers": 3322,
      "Ġ1950": 3323,
      "Ġprimary": 3324,
      "Ġlaunched": 3325,
      "Ġresearch": 3326,
      "dle": 3327,
      "oud": 3328,
      "ĠSov": 3329,
      "ĠCamp": 3330,
      "imate": 3331,
      "owler": 3332,
      "ĠJose": 3333,
      "aven": 3334,
      "ĠChic": 3335,
      "teen": 3336,
      "Ġattract": 3337,
      "Ġprem": 3338,
      "Ġearth": 3339,
      "ospital": 3340,
      "Ġquickly": 3341,
      "Ġ-": 3342,
      "Ġfans": 3343,
      "urity": 3344,
      "ĠBey": 3345,
      "ĠOper": 3346,
      "Ġdeep": 3347,
      "Ġmeant": 3348,
      "Ġfilms": 3349,
      "Ġamb": 3350,
      "Ġepisodes": 3351,
      "Ġteams": 3352,
      "Ġminute": 3353,
      "ylv": 3354,
      "Ġoccurred": 3355,
      "aches": 3356,
      "ĠMart": 3357,
      "ĠYear": 3358,
      "Ġrare": 3359,
      "Ġlocation": 3360,
      "Ġguitar": 3361,
      "Ġincrease": 3362,
      "Ġproposed": 3363,
      "lo": 3364,
      "ras": 3365,
      "Ġri": 3366,
      "Ġhop": 3367,
      "ĠSur": 3368,
      "ĠIf": 3369,
      "ĠRes": 3370,
      "ĠLight": 3371,
      "order": 3372,
      "Ġwhether": 3373,
      "Ġ400": 3374,
      "lands": 3375,
      "Ġdefeat": 3376,
      "Ġchanged": 3377,
      "ĠCatholic": 3378,
      "ãĤ": 3379,
      "Ġtons": 3380,
      "Ġded": 3381,
      "Ġdram": 3382,
      "imum": 3383,
      "ĠPet": 3384,
      "illery": 3385,
      "ĠKh": 3386,
      "ĠUp": 3387,
      "Ġscript": 3388,
      "Ġcommission": 3389,
      "Ġ1999": 3390,
      "Ġassigned": 3391,
      "ĠBrad": 3392,
      "Ġdestroyed": 3393,
      "Ġmeaning": 3394,
      "ĠGalvest": 3395,
      "ĠCalifornia": 3396,
      "ĠGalveston": 3397,
      "Ġcounter": 3398,
      "anced": 3399,
      "Ġasp": 3400,
      "Ġran": 3401,
      "Ġpoet": 3402,
      "Ġproduct": 3403,
      "Ġprinc": 3404,
      "Ġforms": 3405,
      "Ġaccess": 3406,
      "Ġtraffic": 3407,
      "Ġlonger": 3408,
      "Ġconcern": 3409,
      "undred": 3410,
      "Ġeffects": 3411,
      "awn": 3412,
      "ex": 3413,
      "iant": 3414,
      "pool": 3415,
      "oned": 3416,
      "Ġbound": 3417,
      "Ġmom": 3418,
      "Ġreach": 3419,
      "ĠMr": 3420,
      "ĠBen": 3421,
      "ĠBec": 3422,
      "thing": 3423,
      "ĠLatin": 3424,
      "Ġ33": 3425,
      "Ġnewsp": 3426,
      "Ġtrade": 3427,
      "Ġacqu": 3428,
      "Ġcarried": 3429,
      "Ġappears": 3430,
      "Ġsoldiers": 3431,
      "Ġnucle": 3432,
      "ĠChicago": 3433,
      "ĠSever": 3434,
      "ĠHurricane": 3435,
      "ĠFore": 3436,
      "umn": 3437,
      "ortun": 3438,
      "Ġleave": 3439,
      "Ġ32": 3440,
      "Ġnumbers": 3441,
      "anks": 3442,
      "ĠScot": 3443,
      "Ġconsider": 3444,
      "Ġfocus": 3445,
      "Ġconducted": 3446,
      "kan": 3447,
      "oir": 3448,
      "Ġbomb": 3449,
      "ani": 3450,
      "Ġlo": 3451,
      "Ġnatural": 3452,
      "ĠHo": 3453,
      "ĠDj": 3454,
      "Ġkil": 3455,
      "Ġjob": 3456,
      "Ġ2016": 3457,
      "Ġtheme": 3458,
      "Ġcann": 3459,
      "Ġconcert": 3460,
      "rown": 3461,
      "ĠTra": 3462,
      "ĠBC": 3463,
      "ĠNix": 3464,
      "Ġ300": 3465,
      "Ġdism": 3466,
      "ĠItal": 3467,
      "ĠEnter": 3468,
      "Ġsubsequently": 3469,
      "Ġprivate": 3470,
      "AS": 3471,
      "ga": 3472,
      "iqu": 3473,
      "nel": 3474,
      "Ġtakes": 3475,
      "Ġsus": 3476,
      "itation": 3477,
      "ening": 3478,
      "Ġemer": 3479,
      "ĠMey": 3480,
      "Ġgirl": 3481,
      "Ġdeg": 3482,
      "Ġkind": 3483,
      "Ġwhole": 3484,
      "Ġoverall": 3485,
      "Ġenv": 3486,
      "Ġ1940": 3487,
      "Ġcompetition": 3488,
      "Ġfighting": 3489,
      "Ġcommented": 3490,
      "Ġdouble": 3491,
      "Ġlyrics": 3492,
      "NA": 3493,
      "cing": 3494,
      "Ġult": 3495,
      "rey": 3496,
      "Ġcause": 3497,
      "itor": 3498,
      "Ġtourn": 3499,
      "Ġrein": 3500,
      "ĠSaint": 3501,
      "Ġplans": 3502,
      "Ġfinally": 3503,
      "Ġbring": 3504,
      "Ġindustry": 3505,
      "Ġasked": 3506,
      "ĠNorthern": 3507,
      "mas": 3508,
      "Ġtar": 3509,
      "eds": 3510,
      "Ġdig": 3511,
      "Ġthick": 3512,
      "Ġlay": 3513,
      "ĠCer": 3514,
      "imin": 3515,
      "usband": 3516,
      "ĠInter": 3517,
      "ective": 3518,
      "ĠIts": 3519,
      "Ġserious": 3520,
      "Ġcentre": 3521,
      "Ġ90": 3522,
      "Ġending": 3523,
      "Ġmedia": 3524,
      "Ġawarded": 3525,
      "Ġmethod": 3526,
      "ken": 3527,
      "tar": 3528,
      "itude": 3529,
      "Ġpurch": 3530,
      "rol": 3531,
      "Ġreject": 3532,
      "Ġgraph": 3533,
      "alled": 3534,
      "ells": 3535,
      "Ġupper": 3536,
      "Ġunable": 3537,
      "ĠVilla": 3538,
      "ologist": 3539,
      "itting": 3540,
      "Ġmarried": 3541,
      "Ġgreater": 3542,
      "ittee": 3543,
      "lin": 3544,
      "Ġcred": 3545,
      "Ġbig": 3546,
      "Ġlog": 3547,
      "ows": 3548,
      "Ġcompared": 3549,
      "Ġjud": 3550,
      "Ġrecords": 3551,
      "Ġaccomp": 3552,
      "Ġinfluence": 3553,
      "ĠPolish": 3554,
      "Ġrapid": 3555,
      "ny": 3556,
      "Ġx": 3557,
      "Ġbox": 3558,
      "anas": 3559,
      "Ġdone": 3560,
      "ĠTay": 3561,
      "Ġthrow": 3562,
      "ĠAlice": 3563,
      "Ġparty": 3564,
      "aily": 3565,
      "Ġearned": 3566,
      "Ġflight": 3567,
      "Ġbuildings": 3568,
      "Ġmarket": 3569,
      "Ġstandard": 3570,
      "ĠMosley": 3571,
      "ĠNixon": 3572,
      "ĠCamb": 3573,
      "Ġhero": 3574,
      "ĠJam": 3575,
      "Ġyet": 3576,
      "ĠCentral": 3577,
      "bar": 3578,
      "ci": 3579,
      "gian": 3580,
      "Ġliving": 3581,
      "Ġgot": 3582,
      "olk": 3583,
      "ĠRout": 3584,
      "ĠLiver": 3585,
      "agon": 3586,
      "Ġpersonal": 3587,
      "Ġissued": 3588,
      "stitute": 3589,
      "ĠBusch": 3590,
      "ging": 3591,
      "Ġour": 3592,
      "Ġdom": 3593,
      "Ġdark": 3594,
      "ĠMal": 3595,
      "umed": 3596,
      "ĠVict": 3597,
      "Ġaband": 3598,
      "Ġcollect": 3599,
      "Ġdirectly": 3600,
      "Ġelection": 3601,
      "Ġ1930": 3602,
      "Ġconflict": 3603,
      "ĠTex": 3604,
      "Ġtraditional": 3605,
      "Ġbegins": 3606,
      "TV": 3607,
      "car": 3608,
      "Ġmor": 3609,
      "Ġmur": 3610,
      "ĠLake": 3611,
      "Ġ1998": 3612,
      "Ġbooks": 3613,
      "Ġslight": 3614,
      "Ġterms": 3615,
      "Ġhelped": 3616,
      "ĠAfrican": 3617,
      "ĠLiverpool": 3618,
      "II": 3619,
      "ĠSal": 3620,
      "Ġnorm": 3621,
      "ĠGo": 3622,
      "Ġsched": 3623,
      "Ġscenes": 3624,
      "Ġpositions": 3625,
      "Ġstarting": 3626,
      "Ġphot": 3627,
      "Ġexperi": 3628,
      "ĠBattle": 3629,
      "ĠSomers": 3630,
      "Ġsuffered": 3631,
      "Ġdaughter": 3632,
      "ĠSeveral": 3633,
      "house": 3634,
      "ÌĮ": 3635,
      "Ġpil": 3636,
      "Ġgiving": 3637,
      "ĠDel": 3638,
      "Ġhealth": 3639,
      "eway": 3640,
      "arts": 3641,
      "ĠSpanish": 3642,
      "Ġfigure": 3643,
      "Ġassociated": 3644,
      "Ġinspired": 3645,
      "Ġsource": 3646,
      "Ġplanned": 3647,
      "ĠTaylor": 3648,
      "ĠSomerset": 3649,
      "bury": 3650,
      "Ġsal": 3651,
      "itch": 3652,
      "Ġbatter": 3653,
      "anz": 3654,
      "ĠSol": 3655,
      "ĠCour": 3656,
      "ada": 3657,
      "ĠBob": 3658,
      "ĠRob": 3659,
      "ĠFowler": 3660,
      "ĠLady": 3661,
      "bery": 3662,
      "Ġadapt": 3663,
      "Ġ47": 3664,
      "ĠAlkan": 3665,
      "ibly": 3666,
      "Ġmovement": 3667,
      "Ġpresented": 3668,
      "Ġleaders": 3669,
      "Ġprevent": 3670,
      "Ġschools": 3671,
      "Ġstatus": 3672,
      "Ġpath": 3673,
      "Ġdivision": 3674,
      "Ġhusband": 3675,
      "ĠTw": 3676,
      "ĠTour": 3677,
      "aded": 3678,
      "ĠLou": 3679,
      "ĠJust": 3680,
      "ify": 3681,
      "Ġplot": 3682,
      "Ġclosed": 3683,
      "Ġroom": 3684,
      "ĠThree": 3685,
      "Ġimage": 3686,
      "athan": 3687,
      "Ġraised": 3688,
      "Ġtransl": 3689,
      "ĠChristmas": 3690,
      "Ġgreatest": 3691,
      "Ġinitial": 3692,
      "Ġcondoms": 3693,
      "Ġinformation": 3694,
      "like": 3695,
      "tation": 3696,
      "ÌĤ": 3697,
      "erve": 3698,
      "Ġwound": 3699,
      "Ġpay": 3700,
      "Ġhundred": 3701,
      "ĠTre": 3702,
      "ĠTenn": 3703,
      "cend": 3704,
      "Ġanal": 3705,
      "ria": 3706,
      "ĠOut": 3707,
      "Ġvia": 3708,
      "Ġunit": 3709,
      "Ġwriters": 3710,
      "Ġpresence": 3711,
      "Ġcontinue": 3712,
      "Ġpolic": 3713,
      "Ġnearby": 3714,
      "Ġattacks": 3715,
      "Ġmarriage": 3716,
      "aught": 3717,
      "Ġculture": 3718,
      "Ġsusp": 3719,
      "ares": 3720,
      "rate": 3721,
      "once": 3722,
      "Ġpark": 3723,
      "ican": 3724,
      "adm": 3725,
      "ĠNor": 3726,
      "ĠJane": 3727,
      "ava": 3728,
      "Ġchall": 3729,
      "aha": 3730,
      "orpor": 3731,
      "Ġmarked": 3732,
      "Ġmachine": 3733,
      "Ġcyclone": 3734,
      "ĠTexas": 3735,
      "ien": 3736,
      "rical": 3737,
      "Ġtalk": 3738,
      "ĠCross": 3739,
      "olf": 3740,
      "ĠForm": 3741,
      "odon": 3742,
      "Ġrh": 3743,
      "Ġspace": 3744,
      "Ġenj": 3745,
      "Ġ1996": 3746,
      "embly": 3747,
      "ĠFranc": 3748,
      "ĠParis": 3749,
      "Ġcollection": 3750,
      "ĠSoviet": 3751,
      "ĠRoute": 3752,
      "uff": 3753,
      "Ġreally": 3754,
      "Ġlif": 3755,
      "Ġsev": 3756,
      "essa": 3757,
      "Ġ39": 3758,
      "Ġ42": 3759,
      "Ġprep": 3760,
      "Ġweap": 3761,
      "Ġ1993": 3762,
      "Ġnumerous": 3763,
      "Ġextended": 3764,
      "Ġcomplex": 3765,
      "Ġcommander": 3766,
      "ĠSeries": 3767,
      "ĠParty": 3768,
      "Ġterritory": 3769,
      "uries": 3770,
      "ĠHum": 3771,
      "ĠRam": 3772,
      "ĠInn": 3773,
      "pted": 3774,
      "Ġannual": 3775,
      "ĠCommand": 3776,
      "Ġcovered": 3777,
      "Ġcathedral": 3778,
      "Ġsomething": 3779,
      "Ġwaters": 3780,
      "Ġindividual": 3781,
      "ĠVirginia": 3782,
      "me": 3783,
      "atre": 3784,
      "Ġfell": 3785,
      "Ġhot": 3786,
      "Ġthings": 3787,
      "ĠMill": 3788,
      "ĠTheir": 3789,
      "Ġconver": 3790,
      "Ġfinanc": 3791,
      "Ġservices": 3792,
      "Ġproteins": 3793,
      "Ġnecess": 3794,
      "ĠQueen": 3795,
      "sylv": 3796,
      "tain": 3797,
      "iny": 3798,
      "Ġpick": 3799,
      "Ġmorning": 3800,
      "ĠFoot": 3801,
      "ĠLo": 3802,
      "anta": 3803,
      "Ġcomposed": 3804,
      "Ġuses": 3805,
      "Ġhighly": 3806,
      "Ġattacked": 3807,
      "Ġrequest": 3808,
      "Ġstrength": 3809,
      "ĠPennsylv": 3810,
      "ĠBeyonce": 3811,
      "ĠMeyer": 3812,
      "Ġsaf": 3813,
      "Ġbodies": 3814,
      "ĠServ": 3815,
      "ĠIll": 3816,
      "imb": 3817,
      "ĠLong": 3818,
      "ipal": 3819,
      "ĠArch": 3820,
      "Ġmetal": 3821,
      "iami": 3822,
      "Ġartist": 3823,
      "Ġoperation": 3824,
      "ĠGermany": 3825,
      "Ġconfir": 3826,
      "Ġattempts": 3827,
      "Ġinvestig": 3828,
      "Ġimmediately": 3829,
      "ĠInfantry": 3830,
      "ped": 3831,
      "pole": 3832,
      "atives": 3833,
      "Ġbad": 3834,
      "Ġpurs": 3835,
      "ĠTem": 3836,
      "estival": 3837,
      "ovic": 3838,
      "apo": 3839,
      "Ġcompanies": 3840,
      "Ġartillery": 3841,
      "Ġallowing": 3842,
      "Ġarchit": 3843,
      "ĠSomal": 3844,
      "Ġfigures": 3845,
      "ĠSecond": 3846,
      "Ġeducation": 3847,
      "ĠCollege": 3848,
      "Ġcelebr": 3849,
      "cer": 3850,
      "ding": 3851,
      "ev": 3852,
      "een": 3853,
      "hold": 3854,
      "uit": 3855,
      "vement": 3856,
      "Ġintern": 3857,
      "omer": 3858,
      "ether": 3859,
      "ĠDan": 3860,
      "ĠGames": 3861,
      "ĠNations": 3862,
      "Ġselected": 3863,
      "iple": 3864,
      "Ġdise": 3865,
      "Ġoffered": 3866,
      "Ġblood": 3867,
      "Ġinside": 3868,
      "Ġvariety": 3869,
      "Ġtracks": 3870,
      "Ġpowerful": 3871,
      "ĠMuseum": 3872,
      "ricket": 3873,
      "Ġsituation": 3874,
      "Ġfriends": 3875,
      "Ġneeded": 3876,
      "Ġnuclear": 3877,
      "Ġpeaked": 3878,
      "Ġpurp": 3879,
      "ĠCarolina": 3880,
      "Ġremoved": 3881,
      "Ġkilomet": 3882,
      "hic": 3883,
      "track": 3884,
      "Ġtax": 3885,
      "isher": 3886,
      "Ġhar": 3887,
      "Ġnative": 3888,
      "adium": 3889,
      "ĠMiami": 3890,
      "ĠBoth": 3891,
      "imony": 3892,
      "Ġstra": 3893,
      "Ġstone": 3894,
      "ĠDam": 3895,
      "ĠGar": 3896,
      "Ġplat": 3897,
      "Ġkick": 3898,
      "Ġrecover": 3899,
      "ĠThrough": 3900,
      "Ġ182": 3901,
      "izing": 3902,
      "Ġprec": 3903,
      "Ġmeans": 3904,
      "Ġinteract": 3905,
      "Ġcoach": 3906,
      "Ġdistance": 3907,
      "Ġadvance": 3908,
      "Ġheadquarters": 3909,
      "Ġdetail": 3910,
      "Ġoppos": 3911,
      "Ġspeed": 3912,
      "Ġcopies": 3913,
      "ĠVictor": 3914,
      "oura": 3915,
      "ĠSix": 3916,
      "ado": 3917,
      "ĠLi": 3918,
      "ĠLos": 3919,
      "andid": 3920,
      "aging": 3921,
      "Ġspir": 3922,
      "Ġ44": 3923,
      "Ġscoring": 3924,
      "Ġtext": 3925,
      "Ġsymb": 3926,
      "Ġattempted": 3927,
      "Ġwidely": 3928,
      "Ġsexual": 3929,
      "Ġrespectively": 3930,
      "Ġresponsible": 3931,
      "ĠScotland": 3932,
      "zy": 3933,
      "Ġpiano": 3934,
      "Ġmax": 3935,
      "ademy": 3936,
      "ĠEr": 3937,
      "Ġsearch": 3938,
      "annel": 3939,
      "Ġextrem": 3940,
      "Ġcountries": 3941,
      "Ġhands": 3942,
      "Ġgenus": 3943,
      "ĠDepartment": 3944,
      "Ġtouchdown": 3945,
      "admium": 3946,
      "lim": 3947,
      "rid": 3948,
      "ware": 3949,
      "ĠSir": 3950,
      "Ġgrand": 3951,
      "ĠDem": 3952,
      "ĠWater": 3953,
      "Ġang": 3954,
      "aped": 3955,
      "ends": 3956,
      "ports": 3957,
      "Ġdescribes": 3958,
      "Ġconstit": 3959,
      "ĠAnderson": 3960,
      "Ġmiddle": 3961,
      "Ġcourse": 3962,
      "ĠJackson": 3963,
      "Ġproducer": 3964,
      "Ġheavily": 3965,
      "Ġcasual": 3966,
      "ĠPennsylvania": 3967,
      "ka": 3968,
      "alty": 3969,
      "send": 3970,
      "rane": 3971,
      "Ġdisplay": 3972,
      "Ġsecret": 3973,
      "Ġsets": 3974,
      "Ġstudies": 3975,
      "Ġlands": 3976,
      "Ġhigher": 3977,
      "Ġmeeting": 3978,
      "ĠBraat": 3979,
      "Ġenjoy": 3980,
      "Ġess": 3981,
      "Ġfill": 3982,
      "oli": 3983,
      "ĠHu": 3984,
      "ems": 3985,
      "rial": 3986,
      "Ġrule": 3987,
      "Ġrelief": 3988,
      "Ġperformances": 3989,
      "Ġsixth": 3990,
      "Ġresulted": 3991,
      "Ġadminist": 3992,
      "Ġreduced": 3993,
      "Ġaudience": 3994,
      "Ġconcluded": 3995,
      "aen": 3996,
      "light": 3997,
      "Ġmole": 3998,
      "Ġhol": 3999,
      "ĠPre": 4000,
      "ĠChris": 4001,
      "Ġadult": 4002,
      "Ġshell": 4003,
      "Ġblue": 4004,
      "Ġbelow": 4005,
      "Ġmatches": 4006,
      "ĠClub": 4007,
      "Ġopportun": 4008,
      "Ġobserved": 4009,
      "ĠOpen": 4010,
      "uated": 4011,
      "vin": 4012,
      "hew": 4013,
      "Ġcorn": 4014,
      "Ġhour": 4015,
      "ĠAre": 4016,
      "ĠAlex": 4017,
      "ĠBet": 4018,
      "Ġstating": 4019,
      "ĠNes": 4020,
      "Ġris": 4021,
      "Ġrate": 4022,
      "Ġdisapp": 4023,
      "Ġ1997": 4024,
      "Ġactive": 4025,
      "Ġsinger": 4026,
      "Ġinstit": 4027,
      "Ġadvant": 4028,
      "Ġrevealed": 4029,
      "force": 4030,
      "Ġcompletely": 4031,
      "ipped": 4032,
      "Ġbene": 4033,
      "room": 4034,
      "ĠCor": 4035,
      "iron": 4036,
      "utch": 4037,
      "ulations": 4038,
      "akapo": 4039,
      "Ġ51": 4040,
      "Ġjump": 4041,
      "Ġmanaged": 4042,
      "Ġ1991": 4043,
      "ĠSea": 4044,
      "Ġrefused": 4045,
      "Ġlevels": 4046,
      "ĠMinnes": 4047,
      "Ġdeclared": 4048,
      "ĠSmith": 4049,
      "Ġtrue": 4050,
      "Ġcontemporary": 4051,
      "ĠMinnesota": 4052,
      "isl": 4053,
      "isation": 4054,
      "ĠRad": 4055,
      "ĠLand": 4056,
      "ellig": 4057,
      "rance": 4058,
      "Ġ76": 4059,
      "Ġvers": 4060,
      "Ġquality": 4061,
      "rowd": 4062,
      "ĠCont": 4063,
      "Ġcontrovers": 4064,
      "Ġapproach": 4065,
      "Ġmagn": 4066,
      "ĠCenter": 4067,
      "Ġactivity": 4068,
      "Ġtrees": 4069,
      "ĠTownsend": 4070,
      "Ġseparate": 4071,
      "Ġcontrast": 4072,
      "Ġquestion": 4073,
      "ĠNicole": 4074,
      "ĠBecause": 4075,
      "ĠItalian": 4076,
      "bird": 4077,
      "ãģ": 4078,
      "Ġdu": 4079,
      "Ġhabit": 4080,
      "ili": 4081,
      "stone": 4082,
      "ecting": 4083,
      "Ġuniversity": 4084,
      "Ġrecent": 4085,
      "ĠThunder": 4086,
      "Ġcarry": 4087,
      "Ġappearances": 4088,
      "ĠForce": 4089,
      "Ġtypically": 4090,
      "shire": 4091,
      "Ġhistorical": 4092,
      "Ġera": 4093,
      "ĠWalpole": 4094,
      "ĠSquadron": 4095,
      "ĠRosebery": 4096,
      "bed": 4097,
      "hood": 4098,
      "Ġchem": 4099,
      "Ġinters": 4100,
      "Ġpun": 4101,
      "ĠTessa": 4102,
      "ĠAI": 4103,
      "Ġlot": 4104,
      "Ġnation": 4105,
      "ĠCons": 4106,
      "ĠCapt": 4107,
      "acher": 4108,
      "Ġbeat": 4109,
      "ĠLive": 4110,
      "ĠJul": 4111,
      "ĠEmp": 4112,
      "Ġ37": 4113,
      "Ġdispl": 4114,
      "Ġplays": 4115,
      "Ġactions": 4116,
      "Ġexpected": 4117,
      "Ġemot": 4118,
      "Ġrespond": 4119,
      "Ġmodel": 4120,
      "Ġiron": 4121,
      "Ġvocal": 4122,
      "Ġvehic": 4123,
      "ĠHawai": 4124,
      "ĠMeyerbe": 4125,
      "yr": 4126,
      "Ġwing": 4127,
      "Ġwalk": 4128,
      "Ġtoday": 4129,
      "iled": 4130,
      "ĠFur": 4131,
      "ĠGreen": 4132,
      "estic": 4133,
      "ĠOff": 4134,
      "ift": 4135,
      "Ġroy": 4136,
      "Ġ48": 4137,
      "Ġbecomes": 4138,
      "Ġattention": 4139,
      "ĠYue": 4140,
      "Ġwebs": 4141,
      "Ġweaken": 4142,
      "ĠRev": 4143,
      "Ġmainly": 4144,
      "Ġ150": 4145,
      "Ġbrown": 4146,
      "arent": 4147,
      "Ġconditions": 4148,
      "Ġhouses": 4149,
      "Ġparents": 4150,
      "Ġxenon": 4151,
      "ĠMeyerbeer": 4152,
      "kin": 4153,
      "Ġinh": 4154,
      "ingu": 4155,
      "Ġpow": 4156,
      "Ġdraft": 4157,
      "Ġhair": 4158,
      "ĠSar": 4159,
      "ĠRo": 4160,
      "peror": 4161,
      "Ġoffer": 4162,
      "athus": 4163,
      "Ġ1992": 4164,
      "Ġpeace": 4165,
      "ĠShiva": 4166,
      "Ġinstr": 4167,
      "Ġfeaturing": 4168,
      "Ġimpact": 4169,
      "Ġiniti": 4170,
      "ĠCharl": 4171,
      "Ġactivities": 4172,
      "ĠCorps": 4173,
      "Ġathlet": 4174,
      "Ġwear": 4175,
      "Ġrear": 4176,
      "ĠLike": 4177,
      "umber": 4178,
      "Ġrecomm": 4179,
      "Ġactually": 4180,
      "Ġassault": 4181,
      "Ġspecim": 4182,
      "Ġcalling": 4183,
      "Ġdemonst": 4184,
      "Ġsoundtrack": 4185,
      "ĠIllino": 4186,
      "ĠBraathens": 4187,
      "bon": 4188,
      "onents": 4189,
      "Ġsn": 4190,
      "Ġcrowd": 4191,
      "enge": 4192,
      "Ġboard": 4193,
      "ĠTropical": 4194,
      "Ġnin": 4195,
      "ĠMidd": 4196,
      "usion": 4197,
      "Ġaltern": 4198,
      "ĠKa": 4199,
      "ections": 4200,
      "ogue": 4201,
      "Ġresidents": 4202,
      "ounds": 4203,
      "Ġseasons": 4204,
      "Ġwrite": 4205,
      "Ġdefend": 4206,
      "Ġelev": 4207,
      "Ġissues": 4208,
      "Ġstrugg": 4209,
      "Ġachieved": 4210,
      "ĠOttoman": 4211,
      "ĠCourt": 4212,
      "ĠFootball": 4213,
      "iro": 4214,
      "ãĥ": 4215,
      "Ġmel": 4216,
      "road": 4217,
      "ĠTrans": 4218,
      "ĠAv": 4219,
      "Ġthous": 4220,
      "ĠPit": 4221,
      "Ġsuc": 4222,
      "Ġresc": 4223,
      "ĠBlue": 4224,
      "Ġefforts": 4225,
      "Ġviewers": 4226,
      "ĠHait": 4227,
      "Ġprotein": 4228,
      "Ġaccepted": 4229,
      "Ġstruck": 4230,
      "ufact": 4231,
      "Ġarchitect": 4232,
      "BA": 4233,
      "gal": 4234,
      "nh": 4235,
      "ply": 4236,
      "Ġrough": 4237,
      "Ġsense": 4238,
      "itual": 4239,
      "Ġpaper": 4240,
      "roll": 4241,
      "ĠTurn": 4242,
      "ĠCast": 4243,
      "ĠBre": 4244,
      "ĠBalt": 4245,
      "utions": 4246,
      "oses": 4247,
      "ĠLu": 4248,
      "anded": 4249,
      "ĠJim": 4250,
      "pping": 4251,
      "essions": 4252,
      "eller": 4253,
      "ĠChina": 4254,
      "Ġroles": 4255,
      "Ġ52": 4256,
      "Ġ1994": 4257,
      "Ġdistinct": 4258,
      "Ġinfantry": 4259,
      "Ġtypes": 4260,
      "Ġavoid": 4261,
      "Ġprimarily": 4262,
      "Ġpractice": 4263,
      "edo": 4264,
      "Ġcam": 4265,
      "Ġfruit": 4266,
      "anes": 4267,
      "ĠTod": 4268,
      "Ġthr": 4269,
      "ĠSouthern": 4270,
      "ĠDo": 4271,
      "ocr": 4272,
      "Ġspread": 4273,
      "Ġ34": 4274,
      "anger": 4275,
      "ension": 4276,
      "Ġpoly": 4277,
      "ype": 4278,
      "Ġowned": 4279,
      "ĠColumb": 4280,
      "Ġdrum": 4281,
      "Ġtwenty": 4282,
      "Ġelected": 4283,
      "ĠHighway": 4284,
      "Ġslightly": 4285,
      "wen": 4286,
      "ĠTint": 4287,
      "ĠChe": 4288,
      "ĠMog": 4289,
      "ĠFey": 4290,
      "ĠWild": 4291,
      "Ġsust": 4292,
      "Ġplant": 4293,
      "ipl": 4294,
      "Ġinches": 4295,
      "ograp": 4296,
      "Ġcontrib": 4297,
      "Ġ181": 4298,
      "Ġscale": 4299,
      "Ġscient": 4300,
      "orship": 4301,
      "ĠArg": 4302,
      "Ġexpressed": 4303,
      "ledge": 4304,
      "Ġconcent": 4305,
      "Ġextra": 4306,
      "Ġtitles": 4307,
      "Ġnortheast": 4308,
      "Ġcombat": 4309,
      "Ġcannot": 4310,
      "MS": 4311,
      "Ġsales": 4312,
      "Ġfarm": 4313,
      "Ġmis": 4314,
      "ĠSarn": 4315,
      "ĠCat": 4316,
      "ĠBurn": 4317,
      "ols": 4318,
      "use": 4319,
      "ushed": 4320,
      "ĠWels": 4321,
      "ĠGroup": 4322,
      "ĠOm": 4323,
      "Ġsport": 4324,
      "ĠJohnson": 4325,
      "Ġshowed": 4326,
      "Ġcounty": 4327,
      "ĠSpain": 4328,
      "Ġrights": 4329,
      "Ġaffected": 4330,
      "ceeded": 4331,
      "ĠSociety": 4332,
      "ĠPortugues": 4333,
      "onymous": 4334,
      "AA": 4335,
      "Ġsister": 4336,
      "Ġfiction": 4337,
      "Ġple": 4338,
      "Ġdyn": 4339,
      "ĠHorse": 4340,
      "emic": 4341,
      "ĠOf": 4342,
      "oper": 4343,
      "Ġability": 4344,
      "irection": 4345,
      "Ġ180": 4346,
      "Ġoffensive": 4347,
      "ĠYoung": 4348,
      "Ġneigh": 4349,
      "Ġ1986": 4350,
      "Ġofficer": 4351,
      "Ġbattalion": 4352,
      "echan": 4353,
      "Ġprogress": 4354,
      "Ġcombined": 4355,
      "ĠAcademy": 4356,
      "Ġnewspaper": 4357,
      "ĠTintin": 4358,
      "ĠWelsh": 4359,
      "ĠPortuguese": 4360,
      "da": 4361,
      "met": 4362,
      "mitted": 4363,
      "Ġsout": 4364,
      "Ġwords": 4365,
      "orus": 4366,
      "Ġmess": 4367,
      "Ġhy": 4368,
      "ĠManc": 4369,
      "ĠFer": 4370,
      "ĠLittle": 4371,
      "Ġheart": 4372,
      "ĠKn": 4373,
      "astic": 4374,
      "Ġscul": 4375,
      "ĠZhou": 4376,
      "ĠConf": 4377,
      "ĠAdam": 4378,
      "Ġtitled": 4379,
      "Ġportray": 4380,
      "Ġexcav": 4381,
      "Ġsquare": 4382,
      "ĠSecret": 4383,
      "Ġsequence": 4384,
      "ĠVietnam": 4385,
      "ĠLouis": 4386,
      "ĠNesb": 4387,
      "ĠCaptain": 4388,
      "mond": 4389,
      "rect": 4390,
      "ora": 4391,
      "Ġreign": 4392,
      "ĠHal": 4393,
      "berg": 4394,
      "ĠStorm": 4395,
      "ĠThough": 4396,
      "Ġproduce": 4397,
      "Ġqual": 4398,
      "ĠAdm": 4399,
      "Ġcultural": 4400,
      "Ġearliest": 4401,
      "Ġmountain": 4402,
      "while": 4403,
      "ĠGovernment": 4404,
      "ĠApple": 4405,
      "ĠAngeles": 4406,
      "Ġmentioned": 4407,
      "laim": 4408,
      "Ġsays": 4409,
      "Ġfully": 4410,
      "Ġhorse": 4411,
      "ĠTru": 4412,
      "aine": 4413,
      "Ġ49": 4414,
      "ĠAnn": 4415,
      "Ġremark": 4416,
      "ocks": 4417,
      "Ġprint": 4418,
      "Ġcontinues": 4419,
      "Ġartists": 4420,
      "Ġresulting": 4421,
      "ĠAdd": 4422,
      "ĠPrince": 4423,
      "Ġinfluenced": 4424,
      "Ġflooding": 4425,
      "Ġnarrow": 4426,
      "Ġmurder": 4427,
      "Ġcasualties": 4428,
      "ĠNesbitt": 4429,
      "jo": 4430,
      "Ìĥ": 4431,
      "atops": 4432,
      "iles": 4433,
      "Ġlb": 4434,
      "Ġnest": 4435,
      "ĠCivil": 4436,
      "ĠDou": 4437,
      "osen": 4438,
      "anning": 4439,
      "Ġbackground": 4440,
      "inkel": 4441,
      "Ġgrass": 4442,
      "Ġlegal": 4443,
      "Ġbasis": 4444,
      "Ġrepresented": 4445,
      "ĠEva": 4446,
      "ĠVaranas": 4447,
      "Ġadopted": 4448,
      "ĠCeres": 4449,
      "ĠService": 4450,
      "ĠSarnia": 4451,
      "ĠVaranasi": 4452,
      "lies": 4453,
      "lings": 4454,
      "Ġsides": 4455,
      "Ġwild": 4456,
      "Ġmission": 4457,
      "ĠTri": 4458,
      "igg": 4459,
      "Ġalone": 4460,
      "osh": 4461,
      "Ġapparent": 4462,
      "Ġmanufact": 4463,
      "ervation": 4464,
      "ĠCommun": 4465,
      "Ġreports": 4466,
      "Ġauthorities": 4467,
      "Ġvocals": 4468,
      "ĠOdaen": 4469,
      "Ġwithdraw": 4470,
      "Ġtower": 4471,
      "Ġancient": 4472,
      "Ġcerem": 4473,
      "Ġanalys": 4474,
      "Ġdisease": 4475,
      "Ġadvantage": 4476,
      "ironment": 4477,
      "ĠEmpire": 4478,
      "ĠIllinois": 4479,
      "Mont": 4480,
      "inus": 4481,
      "Ġcandid": 4482,
      "Ġbott": 4483,
      "ala": 4484,
      "Ġmile": 4485,
      "ications": 4486,
      "ĠSR": 4487,
      "ĠSen": 4488,
      "etts": 4489,
      "ĠEs": 4490,
      "Ġcoming": 4491,
      "Ġrat": 4492,
      "Ġchampionship": 4493,
      "Ġexhib": 4494,
      "Ġkakapo": 4495,
      "Ġspl": 4496,
      "Ġagg": 4497,
      "Ġworkers": 4498,
      "Ġrelatively": 4499,
      "Ġfounded": 4500,
      "Ġalongside": 4501,
      "Ġoccasion": 4502,
      "Ġeffort": 4503,
      "Ġnorthwest": 4504,
      "Ġbridge": 4505,
      "ĠColon": 4506,
      "orpedo": 4507,
      "ĠDuMont": 4508,
      "ĠOlympic": 4509,
      "ĠThunderbird": 4510,
      "ĠMogad": 4511,
      "ĠManchester": 4512,
      "ĠOdaenathus": 4513,
      "Ġsac": 4514,
      "enant": 4515,
      "Ġtoward": 4516,
      "Ġmechan": 4517,
      "Ġhun": 4518,
      "Ġhors": 4519,
      "ĠCra": 4520,
      "ĠCap": 4521,
      "ura": 4522,
      "ĠMat": 4523,
      "ĠFinkel": 4524,
      "ĠLar": 4525,
      "Ġrang": 4526,
      "Ġyellow": 4527,
      "Ġcontain": 4528,
      "Ġarmed": 4529,
      "Ġattended": 4530,
      "ĠNews": 4531,
      "Ġemph": 4532,
      "Ġofficially": 4533,
      "helm": 4534,
      "Ġtried": 4535,
      "Ġorganized": 4536,
      "ĠWeek": 4537,
      "ĠPero": 4538,
      "Ġindividuals": 4539,
      "Ġillust": 4540,
      "Ġtransferred": 4541,
      "Ġphysical": 4542,
      "Ġtournament": 4543,
      "ĠFinkelstein": 4544,
      "aith": 4545,
      "bit": 4546,
      "Ġwa": 4547,
      "Ġox": 4548,
      "ĠSil": 4549,
      "Ġlosing": 4550,
      "ĠHorn": 4551,
      "ulate": 4552,
      "ĠWash": 4553,
      "ĠOcean": 4554,
      "Ġproved": 4555,
      "Ġunivers": 4556,
      "Ġcontact": 4557,
      "Ġperman": 4558,
      "Ġthemes": 4559,
      "Ġactor": 4560,
      "ĠDef": 4561,
      "Ġcapture": 4562,
      "Ġofficials": 4563,
      "Ġsurrounding": 4564,
      "Ġrainfall": 4565,
      "Ġdedicated": 4566,
      "bour": 4567,
      "mark": 4568,
      "rong": 4569,
      "uous": 4570,
      "Ġtorpedo": 4571,
      "Ġcadmium": 4572,
      "adel": 4573,
      "ims": 4574,
      "igan": 4575,
      "ĠDirect": 4576,
      "abama": 4577,
      "ĠAlabama": 4578,
      "Ġenergy": 4579,
      "Ġ65": 4580,
      "Ġneut": 4581,
      "Ġdoing": 4582,
      "ĠEngine": 4583,
      "ĠSpec": 4584,
      "Ġedge": 4585,
      "ancy": 4586,
      "ĠAndrew": 4587,
      "Ġrequire": 4588,
      "Ġpattern": 4589,
      "Ġcouple": 4590,
      "Ġmeasure": 4591,
      "che": 4592,
      "can": 4593,
      "Ġmind": 4594,
      "Ġdirection": 4595,
      "ental": 4596,
      "Ġlives": 4597,
      "ĠDist": 4598,
      "ĠFred": 4599,
      "ĠNC": 4600,
      "Ġchief": 4601,
      "Ġshape": 4602,
      "ĠVan": 4603,
      "Ġ46": 4604,
      "ricult": 4605,
      "Ġacting": 4606,
      "Ġdefense": 4607,
      "ĠAtt": 4608,
      "ĠMean": 4609,
      "Ġshortly": 4610,
      "Ġpossibly": 4611,
      "Ġdivided": 4612,
      "Ġdissip": 4613,
      "Ġintensity": 4614,
      "Ġfinancial": 4615,
      "lam": 4616,
      "lers": 4617,
      "Ġast": 4618,
      "inem": 4619,
      "onna": 4620,
      "itness": 4621,
      "Ġfeder": 4622,
      "Ġfolk": 4623,
      "Ġborder": 4624,
      "Ġpaid": 4625,
      "ĠMD": 4626,
      "ĠMajor": 4627,
      "ĠBon": 4628,
      "ĠBoy": 4629,
      "Ġyour": 4630,
      "Ġyoun": 4631,
      "iana": 4632,
      "ishu": 4633,
      "Ġincorpor": 4634,
      "izes": 4635,
      "azz": 4636,
      "Ġsimply": 4637,
      "Ġdesignated": 4638,
      "Ġwinter": 4639,
      "ĠClark": 4640,
      "Ġolder": 4641,
      "Ġ1920": 4642,
      "Ġlegisl": 4643,
      "Ġfunction": 4644,
      "ĠRecords": 4645,
      "Ġmaximum": 4646,
      "ĠWashington": 4647,
      "RA": 4648,
      "kare": 4649,
      "wide": 4650,
      "Ġaid": 4651,
      "inn": 4652,
      "inated": 4653,
      "Ġfaced": 4654,
      "Ġthir": 4655,
      "Ġonto": 4656,
      "ĠLis": 4657,
      "istics": 4658,
      "Ġplaces": 4659,
      "ella": 4660,
      "Ġadvert": 4661,
      "Ġ64": 4662,
      "Ġcharge": 4663,
      "Ġmovie": 4664,
      "Ġfollows": 4665,
      "Ġportion": 4666,
      "ĠProt": 4667,
      "Ġkept": 4668,
      "Ġdoub": 4669,
      "ĠHelms": 4670,
      "Ġpiece": 4671,
      "Ġdetermined": 4672,
      "Ġpotential": 4673,
      "Ġjournal": 4674,
      "ĠInnis": 4675,
      "ĠMogadishu": 4676,
      "Ġemphas": 4677,
      "aling": 4678,
      "asc": 4679,
      "ĠBh": 4680,
      "ĠLord": 4681,
      "Ġcomedy": 4682,
      "Ġprepar": 4683,
      "Ġalbums": 4684,
      "Ġrepe": 4685,
      "Ġbroken": 4686,
      "Ġedition": 4687,
      "ĠCommission": 4688,
      "ĠEdward": 4689,
      "Ġsociety": 4690,
      "ĠEarly": 4691,
      "Ġargued": 4692,
      "ĠWilhelm": 4693,
      "ĠJoseph": 4694,
      "Ġdomestic": 4695,
      "Ġroyal": 4696,
      "ĠArgent": 4697,
      "Station": 4698,
      "VD": 4699,
      "kn": 4700,
      "va": 4701,
      "Ġrom": 4702,
      "edar": 4703,
      "Ġhom": 4704,
      "enture": 4705,
      "ĠMass": 4706,
      "Ġgrew": 4707,
      "ĠBowl": 4708,
      "imore": 4709,
      "ĠHome": 4710,
      "Ġstep": 4711,
      "ĠRih": 4712,
      "ĠWay": 4713,
      "ĠJourn": 4714,
      "udd": 4715,
      "ĠKent": 4716,
      "Ġspot": 4717,
      "gend": 4718,
      "Ġimages": 4719,
      "ugby": 4720,
      "ĠReview": 4721,
      "Ġdepth": 4722,
      "Ġ1988": 4723,
      "Ġbehav": 4724,
      "Ġequip": 4725,
      "ĠMcCall": 4726,
      "ĠPlayStation": 4727,
      "Ġeye": 4728,
      "ĠOmaha": 4729,
      "ĠRihanna": 4730,
      "upp": 4731,
      "Ġsay": 4732,
      "Ġwor": 4733,
      "Ġfung": 4734,
      "Ġhomes": 4735,
      "ĠSky": 4736,
      "Ġgained": 4737,
      "ĠBook": 4738,
      "ĠPop": 4739,
      "ĠFleet": 4740,
      "Ġshare": 4741,
      "Ġcontent": 4742,
      "Ġattend": 4743,
      "Ġentrance": 4744,
      "Ġartic": 4745,
      "Ġsuggests": 4746,
      "Ġtwice": 4747,
      "Ġauthority": 4748,
      "ĠAssembly": 4749,
      "Ġsites": 4750,
      "Ġletter": 4751,
      "Ġletters": 4752,
      "Ġsources": 4753,
      "ĠValley": 4754,
      "Ġultimately": 4755,
      "Ġtarget": 4756,
      "Ġschedul": 4757,
      "ĠMiddle": 4758,
      "ij": 4759,
      "rative": 4760,
      "Ġsens": 4761,
      "ati": 4762,
      "isters": 4763,
      "Ġpaint": 4764,
      "Ġhospital": 4765,
      "ĠMax": 4766,
      "umes": 4767,
      "ĠJup": 4768,
      "agan": 4769,
      "Ġvess": 4770,
      "asty": 4771,
      "ĠVen": 4772,
      "Ġcolor": 4773,
      "Ġdefence": 4774,
      "Ġdepart": 4775,
      "Ġ1964": 4776,
      "Ġbelong": 4777,
      "Ġcausing": 4778,
      "Ġcriticized": 4779,
      "Ġstructures": 4780,
      "ĠHamels": 4781,
      "ĠDjed": 4782,
      "Ġdismiss": 4783,
      "Ġwebsite": 4784,
      "FA": 4785,
      "ya": 4786,
      "Ġwave": 4787,
      "Ġcore": 4788,
      "Ġfres": 4789,
      "Ġmouth": 4790,
      "Ġmaster": 4791,
      "Ġdut": 4792,
      "acement": 4793,
      "ĠBig": 4794,
      "ĠDest": 4795,
      "ĠFour": 4796,
      "ĠGood": 4797,
      "Ġchosen": 4798,
      "Ġroll": 4799,
      "Ġweak": 4800,
      "Ġopin": 4801,
      "ĠConstant": 4802,
      "Ġphil": 4803,
      "Ġdebuted": 4804,
      "Ġforeign": 4805,
      "Ġprojects": 4806,
      "Ġmanagement": 4807,
      "Ġlabel": 4808,
      "Ġsculpt": 4809,
      "ĠDjedkare": 4810,
      "more": 4811,
      "Ġtail": 4812,
      "orter": 4813,
      "Ġcert": 4814,
      "Ġfix": 4815,
      "ĠTime": 4816,
      "ĠSum": 4817,
      "Ġge": 4818,
      "ĠBu": 4819,
      "ĠBir": 4820,
      "ĠDVD": 4821,
      "Ġdeploy": 4822,
      "ĠKore": 4823,
      "ĠUl": 4824,
      "Ġintellig": 4825,
      "Ġ53": 4826,
      "Ġ55": 4827,
      "ibr": 4828,
      "ĠAnth": 4829,
      "Ġsecurity": 4830,
      "Ġconsecutive": 4831,
      "Ġprison": 4832,
      "Ġmuseum": 4833,
      "Ġminer": 4834,
      "prise": 4835,
      "ĠCommon": 4836,
      "Ġprominent": 4837,
      "Ġstanding": 4838,
      "Ġreference": 4839,
      "Ġgrowing": 4840,
      "ĠTorres": 4841,
      "Ġindependent": 4842,
      "Ġdocument": 4843,
      "Ġgranted": 4844,
      "Ġrejected": 4845,
      "Ġabandoned": 4846,
      "right": 4847,
      "then": 4848,
      "rel": 4849,
      "Ġcities": 4850,
      "Ġcricket": 4851,
      "Ġfast": 4852,
      "Ġinch": 4853,
      "Ġdiam": 4854,
      "ety": 4855,
      "ĠHib": 4856,
      "ĠPost": 4857,
      "ĠNight": 4858,
      "ĠLew": 4859,
      "istry": 4860,
      "Ġven": 4861,
      "Ġseek": 4862,
      "ocated": 4863,
      "ĠVe": 4864,
      "Ġscience": 4865,
      "ĠOnce": 4866,
      "Ġformation": 4867,
      "Ġdefensive": 4868,
      "Ġtherefore": 4869,
      "Ġenter": 4870,
      "Ġ120": 4871,
      "Ġstudent": 4872,
      "Ġ1947": 4873,
      "Ġbrigade": 4874,
      "Ġbattles": 4875,
      "Ġvisited": 4876,
      "Ġorganization": 4877,
      "Ġtemple": 4878,
      "Ġorders": 4879,
      "Ġplanet": 4880,
      "ĠPalest": 4881,
      "Ġanimal": 4882,
      "ĠHistor": 4883,
      "ĠBaltimore": 4884,
      "ographer": 4885,
      "ĠJupiter": 4886,
      "gn": 4887,
      "ux": 4888,
      "ĠÃ": 4889,
      "Ġsand": 4890,
      "atur": 4891,
      "Ġfrag": 4892,
      "Ġdress": 4893,
      "ĠMore": 4894,
      "Ġgar": 4895,
      "ĠBBC": 4896,
      "iring": 4897,
      "ĠLock": 4898,
      "Ġ43": 4899,
      "Ġ56": 4900,
      "Ġnewly": 4901,
      "Ġinterp": 4902,
      "Ġseconds": 4903,
      "Ġdoct": 4904,
      "ĠShort": 4905,
      "Ġ1941": 4906,
      "Ġclaims": 4907,
      "white": 4908,
      "ĠForest": 4909,
      "Ġwounded": 4910,
      "Ġrisk": 4911,
      "ĠApplewhite": 4912,
      "known": 4913,
      "mosp": 4914,
      "Ġ+": 4915,
      "Ġtur": 4916,
      "Ġahead": 4917,
      "Ġcases": 4918,
      "Ġfear": 4919,
      "Ġpan": 4920,
      "Ġmic": 4921,
      "Ġreaching": 4922,
      "ĠSAF": 4923,
      "ĠCa": 4924,
      "ĠCre": 4925,
      "lys": 4926,
      "ĠPen": 4927,
      "ĠGre": 4928,
      "ĠOx": 4929,
      "ĠEastern": 4930,
      "resp": 4931,
      "Ġcontaining": 4932,
      "Ġenemy": 4933,
      "phia": 4934,
      "Ġcolony": 4935,
      "Ġregions": 4936,
      "Ġbroke": 4937,
      "Ġresults": 4938,
      "Ġcollabor": 4939,
      "Ġtemperature": 4940,
      "Ġmoment": 4941,
      "adelphia": 4942,
      "Ġequipment": 4943,
      "ĠSAFE": 4944,
      "writ": 4945,
      "Ġtun": 4946,
      "Ġaired": 4947,
      "Ġcouncil": 4948,
      "Ġbud": 4949,
      "asters": 4950,
      "Ġmales": 4951,
      "Ġhyd": 4952,
      "ĠSo": 4953,
      "ĠBur": 4954,
      "ĠDue": 4955,
      "ĠFA": 4956,
      "Ġheight": 4957,
      "ĠJur": 4958,
      "Ġunique": 4959,
      "Ġsingles": 4960,
      "ĠIndepend": 4961,
      "Ġreturning": 4962,
      "Ġsupporting": 4963,
      "Ġopposed": 4964,
      "Ġsolo": 4965,
      "ushing": 4966,
      "fficient": 4967,
      "ĠAirport": 4968,
      "Ġcondition": 4969,
      "Ġknowledge": 4970,
      "urban": 4971,
      "Ġidentified": 4972,
      "Ġcells": 4973,
      "Ġburied": 4974,
      "Ġseems": 4975,
      "Ġnominated": 4976,
      "ĠEgyptian": 4977,
      "ĠScottish": 4978,
      "ees": 4979,
      "ero": 4980,
      "Ġfired": 4981,
      "ĠFam": 4982,
      "Ġatmosp": 4983,
      "Ġspect": 4984,
      "Ġunp": 4985,
      "Ġadj": 4986,
      "Ġperfect": 4987,
      "Ġweight": 4988,
      "Ġoperated": 4989,
      "Ġelement": 4990,
      "Ġlooking": 4991,
      "Ġproblem": 4992,
      "Ġdevot": 4993,
      "Ġincreasingly": 4994,
      "Ġscholars": 4995,
      "Ġenvironment": 4996,
      "Ġstraight": 4997,
      "Le": 4998,
      "ML": 4999,
      "bl": 5000,
      "ca": 5001,
      "mon": 5002,
      "Ġcust": 5003,
      "ishes": 5004,
      "lection": 5005,
      "stream": 5006,
      "ĠPrem": 5007,
      "ĠGall": 5008,
      "ĠGreek": 5009,
      "ĠJon": 5010,
      "antasy": 5011,
      "ĠKir": 5012,
      "Ġkg": 5013,
      "Ġteacher": 5014,
      "Ġweather": 5015,
      "ĠArm": 5016,
      "Ġwrites": 5017,
      "Ġdefin": 5018,
      "Ġdescript": 5019,
      "airs": 5020,
      "Ġdistrib": 5021,
      "Ġbelieve": 5022,
      "Ġbreeding": 5023,
      "Ġexplained": 5024,
      "Ġhistorian": 5025,
      "Ġideas": 5026,
      "Ġsettlement": 5027,
      "ĠSwed": 5028,
      "Ġburns": 5029,
      "ĠCroatia": 5030,
      "Ġconfirmed": 5031,
      "ĠFurther": 5032,
      "Ġtim": 5033,
      "Ġod": 5034,
      "Ġoil": 5035,
      "Ġfox": 5036,
      "alle": 5037,
      "ilies": 5038,
      "ĠMort": 5039,
      "ĠRy": 5040,
      "Ġalter": 5041,
      "aved": 5042,
      "ĠEven": 5043,
      "Ġvo": 5044,
      "ĠInstitute": 5045,
      "ĠUs": 5046,
      "Ġunknown": 5047,
      "Ġherself": 5048,
      "Ġconsisted": 5049,
      "Ġsinging": 5050,
      "Ġ1989": 5051,
      "Ġlandfall": 5052,
      "Ġadvanced": 5053,
      "ĠBefore": 5054,
      "Ġcommonly": 5055,
      "Ġfemales": 5056,
      "Ġcontrolled": 5057,
      "uge": 5058,
      "Ġtheory": 5059,
      "Ġboy": 5060,
      "oured": 5061,
      "ads": 5062,
      "ĠBan": 5063,
      "Ġstations": 5064,
      "Ġhere": 5065,
      "ĠEach": 5066,
      "ighth": 5067,
      "ĠVill": 5068,
      "Ġimag": 5069,
      "Ġ1972": 5070,
      "ĠCarl": 5071,
      "Ġsystems": 5072,
      "Ġcampus": 5073,
      "Ġparliament": 5074,
      "ĠMounted": 5075,
      "ĠKeats": 5076,
      "Ġstrike": 5077,
      "ĠPhiladelphia": 5078,
      "Ġpieces": 5079,
      "Ġeconomic": 5080,
      "uzz": 5081,
      "ĠEntertain": 5082,
      "ĠMeanwhile": 5083,
      "cy": 5084,
      "mun": 5085,
      "Ġfict": 5086,
      "alions": 5087,
      "Ġpict": 5088,
      "ĠMu": 5089,
      "ette": 5090,
      "ider": 5091,
      "ĠHart": 5092,
      "ĠDutch": 5093,
      "ĠNorm": 5094,
      "Ġdeities": 5095,
      "Ġarrang": 5096,
      "Ġresemb": 5097,
      "awa": 5098,
      "Ġfilmed": 5099,
      "Ġexped": 5100,
      "ĠIndust": 5101,
      "Ġkilling": 5102,
      "Ġpitched": 5103,
      "Ġgrowth": 5104,
      "Ġmaintained": 5105,
      "ĠCongress": 5106,
      "Ġproperty": 5107,
      "ĠCardiff": 5108,
      "Ġsemi": 5109,
      "ao": 5110,
      "Ġtact": 5111,
      "Ġtask": 5112,
      "inity": 5113,
      "Ġsen": 5114,
      "Ġbit": 5115,
      "Ġmist": 5116,
      "ĠBru": 5117,
      "ĠNever": 5118,
      "ĠEnd": 5119,
      "illo": 5120,
      "antly": 5121,
      "ĠKar": 5122,
      "Ġcompar": 5123,
      "Ġarrest": 5124,
      "Ġ41": 5125,
      "Ġserve": 5126,
      "hips": 5127,
      "Ġactress": 5128,
      "fully": 5129,
      "Ġ1987": 5130,
      "Ġleader": 5131,
      "Ġmatter": 5132,
      "Ġguest": 5133,
      "Ġspeak": 5134,
      "Ġfreeway": 5135,
      "Ġpromoted": 5136,
      "Ġmounted": 5137,
      "Ġflying": 5138,
      "Ġdropped": 5139,
      "Ġfailure": 5140,
      "Ġrapidly": 5141,
      "Ġbattery": 5142,
      "Ġweapons": 5143,
      "Ġhorses": 5144,
      "ych": 5145,
      "Ġut": 5146,
      "inary": 5147,
      "Ġselling": 5148,
      "ato": 5149,
      "asure": 5150,
      "Ġmob": 5151,
      "iced": 5152,
      "Ġham": 5153,
      "ĠAp": 5154,
      "ĠId": 5155,
      "ĠWrit": 5156,
      "rak": 5157,
      "Ġflank": 5158,
      "Ġretired": 5159,
      "Ġinvasion": 5160,
      "Ġ1985": 5161,
      "Ġcreation": 5162,
      "Ġpasses": 5163,
      "Ġ130": 5164,
      "Ġprotest": 5165,
      "ĠAndy": 5166,
      "ĠBarrow": 5167,
      "Ġcriticism": 5168,
      "Ġsignificantly": 5169,
      "Ġboats": 5170,
      "Ġreligion": 5171,
      "Ġvalue": 5172,
      "Ġconnected": 5173,
      "Ġrecognized": 5174,
      "Ġcreating": 5175,
      "Ġmultiple": 5176,
      "Ġhonor": 5177,
      "Ġclean": 5178,
      "Ġpremi": 5179,
      "Ġaccompan": 5180,
      "Ġmolec": 5181,
      "Ġfederal": 5182,
      "han": 5183,
      "ias": 5184,
      "Ġsought": 5185,
      "Ġbid": 5186,
      "Ġbank": 5187,
      "Ġbats": 5188,
      "ading": 5189,
      "ĠMatt": 5190,
      "unic": 5191,
      "ĠDen": 5192,
      "ĠNathan": 5193,
      "ĠLes": 5194,
      "ĠLuc": 5195,
      "alls": 5196,
      "Ġchose": 5197,
      "iance": 5198,
      "ĠStan": 5199,
      "Ġ600": 5200,
      "icks": 5201,
      "Ġcolumn": 5202,
      "Ġ1944": 5203,
      "Ġstarts": 5204,
      "Ġfamous": 5205,
      "ashion": 5206,
      "ĠGuard": 5207,
      "Ġrestaur": 5208,
      "ĠAbu": 5209,
      "Ġdeliver": 5210,
      "Ġvolume": 5211,
      "Ġwalls": 5212,
      "Ġstrengthen": 5213,
      "Ġregarded": 5214,
      "lusion": 5215,
      "Ġinjury": 5216,
      "Ġsilver": 5217,
      "Ġseventh": 5218,
      "Ġnecessary": 5219,
      "Ġversions": 5220,
      "Ġscheduled": 5221,
      "fort": 5222,
      "haps": 5223,
      "ket": 5224,
      "Ì§": 5225,
      "rete": 5226,
      "itable": 5227,
      "ena": 5228,
      "Ġdrop": 5229,
      "Ġla": 5230,
      "Ġlaid": 5231,
      "ĠBost": 5232,
      "ĠDes": 5233,
      "ĠLiber": 5234,
      "Ġvirt": 5235,
      "Ġsend": 5236,
      "ĠKo": 5237,
      "ieval": 5238,
      "ĠItaly": 5239,
      "Ġagricult": 5240,
      "Ġremix": 5241,
      "ĠAmericans": 5242,
      "Ġ1984": 5243,
      "Ġlanding": 5244,
      "Ġpassing": 5245,
      "heless": 5246,
      "Ġbelief": 5247,
      "ĠMinister": 5248,
      "Ġpopularity": 5249,
      "ĠWilliams": 5250,
      "Ġstrik": 5251,
      "chers": 5252,
      "Ġaspects": 5253,
      "Ġnucleus": 5254,
      "Ġprepared": 5255,
      "Ġsustained": 5256,
      "Ġanalysis": 5257,
      "sw": 5258,
      "Ġouter": 5259,
      "Ġmo": 5260,
      "Ġdated": 5261,
      "Ġdata": 5262,
      "standing": 5263,
      "ĠCold": 5264,
      "ĠMike": 5265,
      "ĠBas": 5266,
      "olved": 5267,
      "Ġbeaut": 5268,
      "ĠDer": 5269,
      "ĠDun": 5270,
      "ĠFre": 5271,
      "ĠGh": 5272,
      "ĠGard": 5273,
      "ĠGulf": 5274,
      "ersey": 5275,
      "ĠLine": 5276,
      "Ġrival": 5277,
      "Ġspring": 5278,
      "Ġoverl": 5279,
      "ĠOnly": 5280,
      "ocked": 5281,
      "Ġpublication": 5282,
      "Ġreflect": 5283,
      "Ġhumans": 5284,
      "Ġdrive": 5285,
      "ĠOrigin": 5286,
      "ĠSteve": 5287,
      "Ġcastle": 5288,
      "Ġemployed": 5289,
      "ĠJeff": 5290,
      "ĠOperation": 5291,
      "Ġbudget": 5292,
      "hm": 5293,
      "render": 5294,
      "Ġsave": 5295,
      "Ġfat": 5296,
      "Ġfought": 5297,
      "roph": 5298,
      "ĠAst": 5299,
      "ĠSund": 5300,
      "oti": 5301,
      "ĠHan": 5302,
      "ĠHaven": 5303,
      "ĠRog": 5304,
      "ĠWat": 5305,
      "ĠNaz": 5306,
      "Ġrating": 5307,
      "Ġrise": 5308,
      "ĠInst": 5309,
      "ĠChild": 5310,
      "Ġcontained": 5311,
      "ieut": 5312,
      "Ġrow": 5313,
      "Ġ57": 5314,
      "ampion": 5315,
      "Ġunderground": 5316,
      "Ġends": 5317,
      "amese": 5318,
      "ologists": 5319,
      "venue": 5320,
      "ĠPho": 5321,
      "ĠAmong": 5322,
      "ĠMichigan": 5323,
      "Ġpromotion": 5324,
      "Ġproducers": 5325,
      "ĠSlam": 5326,
      "ĠVietnamese": 5327,
      "Ġliterature": 5328,
      "ĠAddition": 5329,
      "ĠThunderbirds": 5330,
      "Ġphilos": 5331,
      "TC": 5332,
      "uan": 5333,
      "uct": 5334,
      "yth": 5335,
      "Ġtree": 5336,
      "Ġswe": 5337,
      "Ġwed": 5338,
      "Ġpul": 5339,
      "Ġdial": 5340,
      "Ġreform": 5341,
      "ivity": 5342,
      "iments": 5343,
      "ĠHMS": 5344,
      "ĠGord": 5345,
      "ĠLl": 5346,
      "Ġexec": 5347,
      "ips": 5348,
      "aph": 5349,
      "Ġcomputer": 5350,
      "Ġcontributed": 5351,
      "Ġarms": 5352,
      "Ġ54": 5353,
      "Ġprefer": 5354,
      "Ġ700": 5355,
      "Ġnews": 5356,
      "orney": 5357,
      "insula": 5358,
      "Ġsupply": 5359,
      "Ġexpress": 5360,
      "ĠConference": 5361,
      "Ġallows": 5362,
      "Ġpropos": 5363,
      "Ġnegative": 5364,
      "ĠOxford": 5365,
      "oe": 5366,
      "rum": 5367,
      "Ġawards": 5368,
      "onent": 5369,
      "Ġcited": 5370,
      "rog": 5371,
      "Ġhor": 5372,
      "ĠAthlet": 5373,
      "Ġec": 5374,
      "add": 5375,
      "ĠMur": 5376,
      "Ġbey": 5377,
      "ĠDar": 5378,
      "ĠDomin": 5379,
      "ĠNH": 5380,
      "Ġexecutive": 5381,
      "Ġshaped": 5382,
      "Ġunus": 5383,
      "Ġ96": 5384,
      "Ġcollected": 5385,
      "Ġactors": 5386,
      "Ġ179": 5387,
      "Ġsimple": 5388,
      "Ġfamilies": 5389,
      "Ġeffective": 5390,
      "Ġcougar": 5391,
      "Ġfacilities": 5392,
      "Ġanimals": 5393,
      "Ġimproved": 5394,
      "Ġsubsequent": 5395,
      "Ġfrequently": 5396,
      "Ġdegree": 5397,
      "Ġbottom": 5398,
      "Ġfictional": 5399,
      "chen": 5400,
      "ez": 5401,
      "iable": 5402,
      "rig": 5403,
      "Ġmig": 5404,
      "Ġgain": 5405,
      "Ġgives": 5406,
      "unte": 5407,
      "ĠFestival": 5408,
      "ĠGreg": 5409,
      "ifying": 5410,
      "perial": 5411,
      "Ġrecently": 5412,
      "hess": 5413,
      "Ġtrain": 5414,
      "Ġ1981": 5415,
      "Ġextensive": 5416,
      "ancing": 5417,
      "ĠMuslim": 5418,
      "Ġfinding": 5419,
      "Ġboat": 5420,
      "Ġencoura": 5421,
      "Ġentirely": 5422,
      "Ġcurrently": 5423,
      "cription": 5424,
      "Ġgradually": 5425,
      "Ġkilometres": 5426,
      "ĠRevolution": 5427,
      "ĠEntertainment": 5428,
      "Ġbeyond": 5429,
      "cop": 5430,
      "mission": 5431,
      "ridge": 5432,
      "win": 5433,
      "heastern": 5434,
      "Ġsail": 5435,
      "Ġcraft": 5436,
      "Ġmort": 5437,
      "ĠAri": 5438,
      "Ġegg": 5439,
      "ĠCole": 5440,
      "ĠMic": 5441,
      "ĠMem": 5442,
      "ayer": 5443,
      "ĠRos": 5444,
      "ĠDi": 5445,
      "ĠFriend": 5446,
      "ĠStone": 5447,
      "Ġ62": 5448,
      "Ġ800": 5449,
      "ĠMario": 5450,
      "Ġfloor": 5451,
      "Ġmush": 5452,
      "Ġsevere": 5453,
      "Ġexpanded": 5454,
      "Ġ1942": 5455,
      "ĠBridge": 5456,
      "Ġopera": 5457,
      "Ġoccas": 5458,
      "Ġ1939": 5459,
      "Ġvisual": 5460,
      "Ġmedical": 5461,
      "Ġsurvey": 5462,
      "Ġprograms": 5463,
      "borough": 5464,
      "ĠTurner": 5465,
      "ĠCrazy": 5466,
      "eed": 5467,
      "ua": 5468,
      "yt": 5469,
      "yson": 5470,
      "eda": 5471,
      "isy": 5472,
      "arp": 5473,
      "ĠSus": 5474,
      "aming": 5475,
      "ĠCle": 5476,
      "Ġstages": 5477,
      "thur": 5478,
      "unction": 5479,
      "ĠDis": 5480,
      "Ġitems": 5481,
      "ĠNBA": 5482,
      "Ġcomes": 5483,
      "Ġchair": 5484,
      "ĠKang": 5485,
      "ĠKey": 5486,
      "ĠKha": 5487,
      "ĠUN": 5488,
      "ĠChap": 5489,
      "Ġunf": 5490,
      "Ġarc": 5491,
      "aret": 5492,
      "Ġfinals": 5493,
      "Ġcenturies": 5494,
      "Ġphase": 5495,
      "Ġserving": 5496,
      "Ġexclus": 5497,
      "Ġmyth": 5498,
      "ĠEvita": 5499,
      "Ġjoin": 5500,
      "ĠCoast": 5501,
      "ĠPeople": 5502,
      "ĠStudios": 5503,
      "ĠSystem": 5504,
      "ĠMartin": 5505,
      "iences": 5506,
      "lines": 5507,
      "rine": 5508,
      "à¸": 5509,
      "Ġáĥ": 5510,
      "Ġfle": 5511,
      "Ġfaith": 5512,
      "Ġbow": 5513,
      "Ġbul": 5514,
      "Ġdaily": 5515,
      "ĠSub": 5516,
      "Ġnaval": 5517,
      "ĠCub": 5518,
      "ĠBart": 5519,
      "ĠRod": 5520,
      "ĠRail": 5521,
      "ĠField": 5522,
      "ĠFox": 5523,
      "ager": 5524,
      "Ġchur": 5525,
      "sea": 5526,
      "ĠAlf": 5527,
      "Ġ73": 5528,
      "Ġdecades": 5529,
      "Ġ95": 5530,
      "Ġsubs": 5531,
      "Ġsecondary": 5532,
      "Ġ1965": 5533,
      "ĠJuan": 5534,
      "ĠClass": 5535,
      "ĠAdv": 5536,
      "Ġ1918": 5537,
      "ĠBarb": 5538,
      "Ġfinds": 5539,
      "Ġglob": 5540,
      "Ġsuccessfully": 5541,
      "Ġlosses": 5542,
      "Ġslowly": 5543,
      "Ġoccupied": 5544,
      "ĠUpon": 5545,
      "Ġcommissioned": 5546,
      "Ġexperienced": 5547,
      "ĠDaniel": 5548,
      "ĠBetween": 5549,
      "ĠToday": 5550,
      "ĠLewis": 5551,
      "ĠBoston": 5552,
      "ieutenant": 5553,
      "kins": 5554,
      "load": 5555,
      "uate": 5556,
      "itan": 5557,
      "enic": 5558,
      "ingly": 5559,
      "rot": 5560,
      "Ġdates": 5561,
      "ompl": 5562,
      "ĠChel": 5563,
      "ecess": 5564,
      "ules": 5565,
      "ĠGirl": 5566,
      "Ġsports": 5567,
      "Ġnotable": 5568,
      "ĠStep": 5569,
      "Ġarran": 5570,
      "outs": 5571,
      "Ġ72": 5572,
      "Ġ85": 5573,
      "Ġflag": 5574,
      "ansas": 5575,
      "Ġsole": 5576,
      "Ġconcer": 5577,
      "Ġdidn": 5578,
      "ĠIsab": 5579,
      "Ġdeaths": 5580,
      "Ġtrial": 5581,
      "Ġantimony": 5582,
      "Ġengaged": 5583,
      "Ġcaptain": 5584,
      "ĠMagazine": 5585,
      "ĠCrown": 5586,
      "ĠMacLe": 5587,
      "Ġtreatment": 5588,
      "ĠTurk": 5589,
      "Ġpurchased": 5590,
      "ĠLiu": 5591,
      "ii": 5592,
      "Ġaer": 5593,
      "Ġopt": 5594,
      "ĠAvenue": 5595,
      "Ġlabor": 5596,
      "Ġeas": 5597,
      "Ġeth": 5598,
      "ĠIgu": 5599,
      "ĠBand": 5600,
      "Ġstreet": 5601,
      "Ġbeach": 5602,
      "ĠRome": 5603,
      "ĠFinal": 5604,
      "ĠJain": 5605,
      "ĠEll": 5606,
      "ĠIng": 5607,
      "Ġchorus": 5608,
      "sey": 5609,
      "Ġnothing": 5610,
      "usted": 5611,
      "izations": 5612,
      "Ġcoal": 5613,
      "Ġcool": 5614,
      "anny": 5615,
      "Ġ160": 5616,
      "Ġ164": 5617,
      "Ġconcrete": 5618,
      "Ġ1968": 5619,
      "Ġ1975": 5620,
      "Ġsouthwest": 5621,
      "Ġworldwide": 5622,
      "ycle": 5623,
      "Ġdeclined": 5624,
      "Ġbegun": 5625,
      "Ġreaction": 5626,
      "ategory": 5627,
      "Ġcalc": 5628,
      "ĠRussian": 5629,
      "Ġbriefly": 5630,
      "ĠTennyson": 5631,
      "Ġpolicy": 5632,
      "ĠThroughout": 5633,
      "Ġbenef": 5634,
      "ĠPremier": 5635,
      "ĠGordon": 5636,
      "town": 5637,
      "ini": 5638,
      "Ġbass": 5639,
      "ĠAer": 5640,
      "amy": 5641,
      "lywood": 5642,
      "ĠBi": 5643,
      "ĠBull": 5644,
      "ĠRa": 5645,
      "ĠWork": 5646,
      "anda": 5647,
      "ĠJac": 5648,
      "ĠAlbum": 5649,
      "angers": 5650,
      "rence": 5651,
      "Ġ71": 5652,
      "ublin": 5653,
      "Ġaccompl": 5654,
      "ĠSha": 5655,
      "Ġ1969": 5656,
      "Ġprotagon": 5657,
      "Ġtrip": 5658,
      "Ġsentence": 5659,
      "Ġdrawn": 5660,
      "Ġreasons": 5661,
      "Ġescape": 5662,
      "Ġindependence": 5663,
      "ĠCambod": 5664,
      "ĠJamal": 5665,
      "Ġnormal": 5666,
      "Ġplatform": 5667,
      "ĠDistrict": 5668,
      "Ġfresh": 5669,
      "och": 5670,
      "Ġtheat": 5671,
      "Ġwitness": 5672,
      "Ġhired": 5673,
      "ĠCrit": 5674,
      "Ġgreen": 5675,
      "uting": 5676,
      "Ġisol": 5677,
      "ĠRon": 5678,
      "ĠRol": 5679,
      "ĠGA": 5680,
      "ĠObs": 5681,
      "Ġrac": 5682,
      "Ġincident": 5683,
      "rug": 5684,
      "ĠAli": 5685,
      "ĠAlso": 5686,
      "Ġdecade": 5687,
      "Ġ94": 5688,
      "Ġ97": 5689,
      "Ġcanc": 5690,
      "Ġacad": 5691,
      "Ġfoundation": 5692,
      "Ġlongest": 5693,
      "Ġguard": 5694,
      "Ġpossibility": 5695,
      "Ġelimin": 5696,
      "Ġdelay": 5697,
      "ographic": 5698,
      "Ġarrival": 5699,
      "Ġskin": 5700,
      "ĠBoise": 5701,
      "Ġnegoti": 5702,
      "Ġsynt": 5703,
      "Ġbillion": 5704,
      "Ġchapter": 5705,
      "Ġunsu": 5706,
      "ĠTemple": 5707,
      "Ġenjoyed": 5708,
      "respond": 5709,
      "Ġsenior": 5710,
      "Ġaccompanied": 5711,
      "BS": 5712,
      "aire": 5713,
      "Ġtall": 5714,
      "Ġtend": 5715,
      "onic": 5716,
      "isers": 5717,
      "Ġpet": 5718,
      "Ġdance": 5719,
      "Ġnor": 5720,
      "ĠMen": 5721,
      "ĠMov": 5722,
      "lying": 5723,
      "ĠBrian": 5724,
      "Ġstret": 5725,
      "ĠPers": 5726,
      "ĠDublin": 5727,
      "osa": 5728,
      "agement": 5729,
      "Ġring": 5730,
      "Ġplum": 5731,
      "Ġspons": 5732,
      "ĠVideo": 5733,
      "ĠHead": 5734,
      "Ġ61": 5735,
      "ĠLeon": 5736,
      "ĠScience": 5737,
      "Ġdeveloping": 5738,
      "Ġ1966": 5739,
      "Ġowners": 5740,
      "ĠCommander": 5741,
      "Ġoldest": 5742,
      "ĠBrook": 5743,
      "Ġimportance": 5744,
      "ĠSongs": 5745,
      "Ġparticipated": 5746,
      "Ġfirm": 5747,
      "Ġresponded": 5748,
      "Ġroughly": 5749,
      "ĠAdmir": 5750,
      "Ġpaintings": 5751,
      "ĠMacLeod": 5752,
      "ĠIguan": 5753,
      "OC": 5754,
      "erc": 5755,
      "aton": 5756,
      "ela": 5757,
      "ĠBoard": 5758,
      "utation": 5759,
      "ĠFar": 5760,
      "ĠWall": 5761,
      "ĠGab": 5762,
      "Ġheard": 5763,
      "essed": 5764,
      "quake": 5765,
      "rupt": 5766,
      "Ġremn": 5767,
      "Ġdecre": 5768,
      "Ġ81": 5769,
      "ooking": 5770,
      "Ġvert": 5771,
      "Ġmoves": 5772,
      "Ġcalls": 5773,
      "Ġsetting": 5774,
      "Ġadding": 5775,
      "Ġtransit": 5776,
      "Ġemp": 5777,
      "Ġ110": 5778,
      "Ġ177": 5779,
      "Ġlasted": 5780,
      "espread": 5781,
      "Ġparalle": 5782,
      "ĠPhill": 5783,
      "Ġcombination": 5784,
      "Ġagreement": 5785,
      "Ġexistence": 5786,
      "Ġviolence": 5787,
      "Ġcomposition": 5788,
      "ĠGovernor": 5789,
      "Ġdollar": 5790,
      "Ġdominated": 5791,
      "Ġpoetry": 5792,
      "Ġathletes": 5793,
      "ĠInstead": 5794,
      "come": 5795,
      "la": 5796,
      "ls": 5797,
      "rant": 5798,
      "set": 5799,
      "Ġign": 5800,
      "Ġfellow": 5801,
      "Ġpal": 5802,
      "Ġdog": 5803,
      "ĠMot": 5804,
      "eck": 5805,
      "Ġgas": 5806,
      "ĠBaby": 5807,
      "imet": 5808,
      "ĠRox": 5809,
      "ĠJes": 5810,
      "ĠJud": 5811,
      "Ġcomic": 5812,
      "Ġseat": 5813,
      "Ġchoice": 5814,
      "ĠUlys": 5815,
      "Ġnote": 5816,
      "Ġreserv": 5817,
      "Ġjack": 5818,
      "ressive": 5819,
      "Ġcommittee": 5820,
      "ĠAnonymous": 5821,
      "ĠMarl": 5822,
      "Ġundert": 5823,
      "Ġacres": 5824,
      "Ġdoor": 5825,
      "Ġtrav": 5826,
      "Ġpopulations": 5827,
      "Ġperforming": 5828,
      "ĠCarib": 5829,
      "Ġ1952": 5830,
      "ĠProject": 5831,
      "Ġcompetitions": 5832,
      "ĠSimone": 5833,
      "Ġtechnology": 5834,
      "Ġcollege": 5835,
      "Ġassociation": 5836,
      "Ġclosely": 5837,
      "Ġexisting": 5838,
      "Ġregarding": 5839,
      "Ġapplied": 5840,
      "hetic": 5841,
      "Ġsymbol": 5842,
      "Ġweakened": 5843,
      "ĠDougl": 5844,
      "Ġunsuccess": 5845,
      "ĠUlysses": 5846,
      "aver": 5847,
      "chest": 5848,
      "nt": 5849,
      "Ġi": 5850,
      "Ġtrou": 5851,
      "Ġtells": 5852,
      "isf": 5853,
      "Ġps": 5854,
      "ĠCD": 5855,
      "ĠBern": 5856,
      "iration": 5857,
      "ĠRA": 5858,
      "ĠRay": 5859,
      "ĠDown": 5860,
      "ichol": 5861,
      "ĠChains": 5862,
      "Ġreconst": 5863,
      "Ġperhaps": 5864,
      "Ġserves": 5865,
      "Ġconsists": 5866,
      "ĠMarc": 5867,
      "Ġfilming": 5868,
      "Ġassass": 5869,
      "Ġsubmar": 5870,
      "Ġaccident": 5871,
      "pring": 5872,
      "Ġ1974": 5873,
      "Ġdistingu": 5874,
      "Ġprovides": 5875,
      "Ġ1936": 5876,
      "Ġcapable": 5877,
      "Ġgreatly": 5878,
      "Ġclubs": 5879,
      "ĠBraz": 5880,
      "Ġcorrespond": 5881,
      "Ġderived": 5882,
      "Ġlearned": 5883,
      "Ġreinforce": 5884,
      "Ġpilot": 5885,
      "ĠFrancisc": 5886,
      "Ġpurpose": 5887,
      "Ġopportunity": 5888,
      "ĠArea": 5889,
      "Ġoccasionally": 5890,
      "ĠHornung": 5891,
      "ĠAnthony": 5892,
      "ĠCaribbe": 5893,
      "30": 5894,
      "born": 5895,
      "var": 5896,
      "Ġsom": 5897,
      "atus": 5898,
      "itors": 5899,
      "Ġfashion": 5900,
      "arian": 5901,
      "Ġbought": 5902,
      "Ġhyp": 5903,
      "ĠAston": 5904,
      "Ġthing": 5905,
      "ĠBor": 5906,
      "ĠBond": 5907,
      "ĠRow": 5908,
      "ĠDream": 5909,
      "Ġaltar": 5910,
      "agre": 5911,
      "iston": 5912,
      "Ġroof": 5913,
      "Ġ59": 5914,
      "Ġdescend": 5915,
      "Ġ66": 5916,
      "Ġtruth": 5917,
      "Ġneither": 5918,
      "Ġflu": 5919,
      "Ġsubstant": 5920,
      "Ġsupposed": 5921,
      "Ġinvited": 5922,
      "Ġreceiving": 5923,
      "Ġheaded": 5924,
      "Ġeditor": 5925,
      "Ġbattalions": 5926,
      "ĠProv": 5927,
      "Ġstoryline": 5928,
      "Ġtowns": 5929,
      "Ġroads": 5930,
      "Ġspeaking": 5931,
      "ĠGeorg": 5932,
      "Ġencounter": 5933,
      "Ġhousehold": 5934,
      "Ġcorrect": 5935,
      "ĠOde": 5936,
      "Ġarchaeological": 5937,
      "Ġinnings": 5938,
      "Ġfilled": 5939,
      "Ġadministration": 5940,
      "Ġvehicles": 5941,
      "Ġdissipated": 5942,
      "ĠSummer": 5943,
      "ĠCaribbean": 5944,
      "GN": 5945,
      "OT": 5946,
      "rons": 5947,
      "Ġsle": 5948,
      "Ġsort": 5949,
      "Ġcit": 5950,
      "Ġcrop": 5951,
      "Ġdrew": 5952,
      "Ġhat": 5953,
      "ĠAML": 5954,
      "entially": 5955,
      "ĠMod": 5956,
      "ote": 5957,
      "usal": 5958,
      "ĠDota": 5959,
      "agle": 5960,
      "ĠERA": 5961,
      "Ġsufficient": 5962,
      "Ġseg": 5963,
      "ĠKenn": 5964,
      "Ġevac": 5965,
      "Ġ77": 5966,
      "ropri": 5967,
      "Ġ98": 5968,
      "Ġ1946": 5969,
      "ĠConn": 5970,
      "Ġanything": 5971,
      "Ġclassified": 5972,
      "Ġprotection": 5973,
      "Ġtypical": 5974,
      "Ġviewed": 5975,
      "Ġsurvived": 5976,
      "Ġwidespread": 5977,
      "ĠMountain": 5978,
      "Ġsquad": 5979,
      "Ġmassive": 5980,
      "Ġmotion": 5981,
      "Ġpainting": 5982,
      "Ġstopped": 5983,
      "Ġdrama": 5984,
      "ĠRadio": 5985,
      "Ġsoutheast": 5986,
      "Ġceremony": 5987,
      "Ġastron": 5988,
      "Ġchurches": 5989,
      "ĠTurkish": 5990,
      "ĠDouglas": 5991,
      "lik": 5992,
      "tty": 5993,
      "Ġaim": 5994,
      "inj": 5995,
      "Ġcra": 5996,
      "Ġfuel": 5997,
      "iling": 5998,
      "Ġload": 5999,
      "amin": 6000,
      "acity": 6001,
      "ĠMel": 6002,
      "ĠTheatre": 6003,
      "Ġones": 6004,
      "ĠHin": 6005,
      "Ġwhy": 6006,
      "ĠFive": 6007,
      "Ġcho": 6008,
      "abil": 6009,
      "ĠStew": 6010,
      "ĠVol": 6011,
      "ountain": 6012,
      "iously": 6013,
      "Ġflights": 6014,
      "Ġgoes": 6015,
      "Ġreceive": 6016,
      "Ġ1945": 6017,
      "Ġ1967": 6018,
      "Ġ1971": 6019,
      "Ġdistrict": 6020,
      "Ġauthors": 6021,
      "Ġbasket": 6022,
      "ĠPerry": 6023,
      "Ġappeal": 6024,
      "Ġislands": 6025,
      "iece": 6026,
      "Ġsettlers": 6027,
      "Ġtechnique": 6028,
      "idden": 6029,
      "Ġmissing": 6030,
      "Ġneck": 6031,
      "Ġtrying": 6032,
      "Ġacquired": 6033,
      "Ġdigital": 6034,
      "ĠConstantine": 6035,
      "ĠHibari": 6036,
      "AC": 6037,
      "VN": 6038,
      "vens": 6039,
      "ano": 6040,
      "stances": 6041,
      "Ġeu": 6042,
      "ĠRio": 6043,
      "rait": 6044,
      "rier": 6045,
      "ĠOh": 6046,
      "Ġchannel": 6047,
      "Ġexact": 6048,
      "pty": 6049,
      "pton": 6050,
      "mann": 6051,
      "Ġ1973": 6052,
      "ĠQedar": 6053,
      "Ġ1914": 6054,
      "Ġ1919": 6055,
      "ĠPrinc": 6056,
      "ĠAbout": 6057,
      "ĠRomani": 6058,
      "Ġwatched": 6059,
      "Ġholding": 6060,
      "Ġrebu": 6061,
      "Ġfocused": 6062,
      "ĠOslo": 6063,
      "Ġdepicted": 6064,
      "Ġconverted": 6065,
      "Ġsafety": 6066,
      "Ġdetails": 6067,
      "Ġinstrument": 6068,
      "Ġsucceeded": 6069,
      "Ġpermanent": 6070,
      "Ġrepeated": 6071,
      "Ġopinion": 6072,
      "ĠShortly": 6073,
      "Ġatmosphere": 6074,
      "Ġwedding": 6075,
      "burg": 6076,
      "vis": 6077,
      "war": 6078,
      "ÅĤ": 6079,
      "Ġice": 6080,
      "Ġurban": 6081,
      "ona": 6082,
      "oral": 6083,
      "Ġcab": 6084,
      "Ġbowl": 6085,
      "Ġmut": 6086,
      "Ġdub": 6087,
      "ĠTim": 6088,
      "ilton": 6089,
      "ĠBishop": 6090,
      "ivered": 6091,
      "ĠPublic": 6092,
      "ĠWind": 6093,
      "ĠLow": 6094,
      "ĠInc": 6095,
      "ĠKil": 6096,
      "Ġshared": 6097,
      "Ġlegend": 6098,
      "apes": 6099,
      "apers": 6100,
      "Ġresident": 6101,
      "Ġrob": 6102,
      "Ġrose": 6103,
      "Ġoverse": 6104,
      "Ġfinish": 6105,
      "ĠMaria": 6106,
      "Ġcharter": 6107,
      "Ġassemb": 6108,
      "Ġsubt": 6109,
      "Ġdefined": 6110,
      "anned": 6111,
      "Ġexpans": 6112,
      "Ġ112": 6113,
      "ĠWhat": 6114,
      "Ġproviding": 6115,
      "Ġprotect": 6116,
      "Ġ250": 6117,
      "reme": 6118,
      "Ġglass": 6119,
      "ĠMaeda": 6120,
      "Ġfunding": 6121,
      "ĠMoz": 6122,
      "Ġplanning": 6123,
      "ĠVenus": 6124,
      "pass": 6125,
      "ÌĽ": 6126,
      "Ġtied": 6127,
      "Ġwick": 6128,
      "Ġdin": 6129,
      "Ġdating": 6130,
      "uration": 6131,
      "ĠMTV": 6132,
      "ĠIGN": 6133,
      "ola": 6134,
      "idges": 6135,
      "ĠHomer": 6136,
      "ĠPatt": 6137,
      "uli": 6138,
      "ĠFel": 6139,
      "ĠFantasy": 6140,
      "ĠLieutenant": 6141,
      "ĠJones": 6142,
      "iful": 6143,
      "Ġrich": 6144,
      "Ġrub": 6145,
      "Ġchance": 6146,
      "Ġspacing": 6147,
      "iege": 6148,
      "Ġpregn": 6149,
      "Ġdecline": 6150,
      "Ġsoft": 6151,
      "Ġsupplies": 6152,
      "Ġlocations": 6153,
      "Ġ1943": 6154,
      "Ġrevolution": 6155,
      "Ġairport": 6156,
      "Ġheads": 6157,
      "ĠAllied": 6158,
      "Ġexplos": 6159,
      "ĠBroad": 6160,
      "Ġreality": 6161,
      "ĠGeorgian": 6162,
      "Ġcreator": 6163,
      "Ġrenamed": 6164,
      "Ġpenalty": 6165,
      "glades": 6166,
      "ĠHoly": 6167,
      "Ġcredited": 6168,
      "Ġthousands": 6169,
      "ĠHaiti": 6170,
      "ĠChelsea": 6171,
      "Ġarranged": 6172,
      "ĠBrazil": 6173,
      "RE": 6174,
      "bo": 6175,
      "hat": 6176,
      "min": 6177,
      "Ì£": 6178,
      "Ġsan": 6179,
      "Ġpack": 6180,
      "ĠAge": 6181,
      "ĠHell": 6182,
      "ĠRun": 6183,
      "ĠGil": 6184,
      "opes": 6185,
      "Ġrural": 6186,
      "ĠInt": 6187,
      "ĠUTC": 6188,
      "ĠStadium": 6189,
      "Ġroutes": 6190,
      "Ġenl": 6191,
      "ilding": 6192,
      "Ġsecure": 6193,
      "Ġknew": 6194,
      "ĠAsia": 6195,
      "attle": 6196,
      "Ġdepos": 6197,
      "Ġ1982": 6198,
      "Ġmoder": 6199,
      "ĠCommittee": 6200,
      "Ġturning": 6201,
      "ivalent": 6202,
      "Ġcourts": 6203,
      "Ġdelivered": 6204,
      "Ġsurviv": 6205,
      "Ġlaws": 6206,
      "ĠMorrison": 6207,
      "Ġseparated": 6208,
      "Ġbaseball": 6209,
      "ipping": 6210,
      "ĠWalter": 6211,
      "Ġremainder": 6212,
      "ĠHistory": 6213,
      "Ġearthquake": 6214,
      "ĠSecretary": 6215,
      "Ġcertified": 6216,
      "ĠAdditionally": 6217,
      "ĠIguanodon": 6218,
      "ĠHindu": 6219,
      "LI": 6220,
      "crib": 6221,
      "ko": 6222,
      "nell": 6223,
      "Ġaware": 6224,
      "Ġsun": 6225,
      "Ġfair": 6226,
      "Ġdry": 6227,
      "Ġdrug": 6228,
      "Ġharm": 6229,
      "ĠSa": 6230,
      "ĠSnow": 6231,
      "Ġlov": 6232,
      "ĠMul": 6233,
      "Ġgal": 6234,
      "otic": 6235,
      "estone": 6236,
      "ĠJay": 6237,
      "agn": 6238,
      "illing": 6239,
      "Ġsud": 6240,
      "Ġselect": 6241,
      "ighter": 6242,
      "ĠKat": 6243,
      "ĠChronic": 6244,
      "Ġimpr": 6245,
      "ĠYe": 6246,
      "Ġteaching": 6247,
      "formation": 6248,
      "Ġ87": 6249,
      "Ġcolour": 6250,
      "Ġregime": 6251,
      "Ġnoisy": 6252,
      "Ġhighlight": 6253,
      "Ġemperor": 6254,
      "Ġreception": 6255,
      "Ġ1963": 6256,
      "Ġ1976": 6257,
      "Ġdisturb": 6258,
      "ĠAustralians": 6259,
      "Ġ1916": 6260,
      "Ġcamps": 6261,
      "Ġviews": 6262,
      "ĠSimon": 6263,
      "Ġestablishment": 6264,
      "Ġeconomy": 6265,
      "Ġconsisting": 6266,
      "ĠArchae": 6267,
      "evo": 6268,
      "Ġopposition": 6269,
      "ĠColumbia": 6270,
      "ĠTruj": 6271,
      "ĠSunday": 6272,
      "ĠFriends": 6273,
      "bur": 6274,
      "mit": 6275,
      "nest": 6276,
      "ture": 6277,
      "vey": 6278,
      "Ġ#": 6279,
      "rell": 6280,
      "Ġwins": 6281,
      "Ġcard": 6282,
      "Ġfan": 6283,
      "Ġbranch": 6284,
      "anth": 6285,
      "Ġpup": 6286,
      "Ġpuzz": 6287,
      "ĠTel": 6288,
      "ĠTop": 6289,
      "entions": 6290,
      "ador": 6291,
      "ĠBul": 6292,
      "ĠHard": 6293,
      "ĠGully": 6294,
      "ĠNative": 6295,
      "uma": 6296,
      "opher": 6297,
      "Ġvic": 6298,
      "aked": 6299,
      "essing": 6300,
      "okes": 6301,
      "Ġresist": 6302,
      "issance": 6303,
      "issipp": 6304,
      "oba": 6305,
      "Ġquite": 6306,
      "Ġacid": 6307,
      "Ġaddress": 6308,
      "Ġmonarch": 6309,
      "Ġstudied": 6310,
      "Ġ175": 6311,
      "Ġleads": 6312,
      "Ġ1978": 6313,
      "Ġsuccessor": 6314,
      "Ġ1953": 6315,
      "Ġturns": 6316,
      "Ġreplace": 6317,
      "ĠMississipp": 6318,
      "Ġtechnical": 6319,
      "Ġvalley": 6320,
      "Ġcircum": 6321,
      "Ġproducing": 6322,
      "Ġeyes": 6323,
      "Ġassistance": 6324,
      "Ġdenied": 6325,
      "ĠGolden": 6326,
      "ĠEverglades": 6327,
      "Ġimmig": 6328,
      "ĠCroatian": 6329,
      "Ġshooting": 6330,
      "Ġindicate": 6331,
      "Ġmethods": 6332,
      "ĠOffice": 6333,
      "Ġpowers": 6334,
      "Ġportrayed": 6335,
      "ĠDirector": 6336,
      "ĠFreder": 6337,
      "ibrary": 6338,
      "ĠTrujillo": 6339,
      "ni": 6340,
      "ns": 6341,
      "rations": 6342,
      "Ã¸": 6343,
      "Ġtable": 6344,
      "real": 6345,
      "Ġworth": 6346,
      "Ġfranch": 6347,
      "Ġbaby": 6348,
      "ĠSav": 6349,
      "ĠSound": 6350,
      "Ġlit": 6351,
      "Ġlane": 6352,
      "uri": 6353,
      "ĠML": 6354,
      "ĠHug": 6355,
      "Ġstore": 6356,
      "ĠFish": 6357,
      "ĠWis": 6358,
      "ĠNBC": 6359,
      "ĠLenn": 6360,
      "agues": 6361,
      "Ġpros": 6362,
      "Ġru": 6363,
      "ewhere": 6364,
      "aka": 6365,
      "Ġkits": 6366,
      "ipe": 6367,
      "Ġprey": 6368,
      "Ġfinishing": 6369,
      "icted": 6370,
      "Ġgameplay": 6371,
      "ĠArthur": 6372,
      "Ġinterior": 6373,
      "Ġentering": 6374,
      "Ġsurrender": 6375,
      "Ġreputation": 6376,
      "Ġ176": 6377,
      "Ġoccurs": 6378,
      "Ġ1956": 6379,
      "Ġ1915": 6380,
      "Ġprotected": 6381,
      "ĠAbb": 6382,
      "ĠStevens": 6383,
      "Ġcrime": 6384,
      "Ġgetting": 6385,
      "ĠMaryland": 6386,
      "Ġmaintain": 6387,
      "Ġjourney": 6388,
      "Ġrif": 6389,
      "ĠCharlie": 6390,
      "Ġworst": 6391,
      "Ġdismissed": 6392,
      "ĠRoxas": 6393,
      "dal": 6394,
      "Ġtell": 6395,
      "erted": 6396,
      "Ġthin": 6397,
      "amber": 6398,
      "ĠCop": 6399,
      "ĠMaster": 6400,
      "ĠDNA": 6401,
      "ĠFire": 6402,
      "ĠGi": 6403,
      "ĠGra": 6404,
      "ĠGram": 6405,
      "Ġvon": 6406,
      "Ġleaves": 6407,
      "Ġnoting": 6408,
      "onder": 6409,
      "Ġjoint": 6410,
      "Ġattached": 6411,
      "Ġattributed": 6412,
      "Ġentry": 6413,
      "Ġmonument": 6414,
      "Ġobt": 6415,
      "ĠPlunk": 6416,
      "Ġ1913": 6417,
      "Ġclasses": 6418,
      "Ġcapacity": 6419,
      "Ġexperiment": 6420,
      "ĠStef": 6421,
      "ĠEliz": 6422,
      "Ġintroduction": 6423,
      "Ġinterested": 6424,
      "ĠExp": 6425,
      "Ġholds": 6426,
      "ĠActivision": 6427,
      "Ġmotor": 6428,
      "Ġdiscussed": 6429,
      "ĠSamuel": 6430,
      "ĠDemocr": 6431,
      "ĠAlexander": 6432,
      "Ġmushroom": 6433,
      "ĠMississippi": 6434,
      "wise": 6435,
      "onom": 6436,
      "Ġcrown": 6437,
      "itled": 6438,
      "Ġfer": 6439,
      "Ġtomb": 6440,
      "Ġdie": 6441,
      "Ġha": 6442,
      "Ġlic": 6443,
      "ĠMid": 6444,
      "ĠBos": 6445,
      "Ġstones": 6446,
      "ĠPope": 6447,
      "ĠRangers": 6448,
      "ĠDet": 6449,
      "ĠDanny": 6450,
      "Ġvary": 6451,
      "ardo": 6452,
      "Ġexerc": 6453,
      "ears": 6454,
      "Ġoffers": 6455,
      "ĠYank": 6456,
      "Ġshel": 6457,
      "ĠMarine": 6458,
      "Ġcharges": 6459,
      "Ġpublisher": 6460,
      "Ġdescribing": 6461,
      "Ġdownload": 6462,
      "Ġappearing": 6463,
      "ĠDev": 6464,
      "Ġwindow": 6465,
      "Ġfields": 6466,
      "ĠWithin": 6467,
      "Ġnovels": 6468,
      "Ġhistoric": 6469,
      "Ġstatement": 6470,
      "ĠCalvert": 6471,
      "Ġpitch": 6472,
      "Ġpredecess": 6473,
      "Ġruled": 6474,
      "Ġtribes": 6475,
      "ĠHollywood": 6476,
      "ĠHoward": 6477,
      "ĠEngineer": 6478,
      "Ġyounger": 6479,
      "Ġintelligence": 6480,
      "ĠIsabella": 6481,
      "ef": 6482,
      "gra": 6483,
      "gie": 6484,
      "hi": 6485,
      "water": 6486,
      "inals": 6487,
      "rets": 6488,
      "Ġsector": 6489,
      "orters": 6490,
      "Ġcaught": 6491,
      "Ġcinem": 6492,
      "itage": 6493,
      "Ġhope": 6494,
      "ĠSap": 6495,
      "elve": 6496,
      "ĠCam": 6497,
      "acent": 6498,
      "iders": 6499,
      "oted": 6500,
      "othes": 6501,
      "ĠPress": 6502,
      "ĠRidge": 6503,
      "ĠWin": 6504,
      "ĠWalk": 6505,
      "rien": 6506,
      "Ġvision": 6507,
      "Ġkings": 6508,
      "ĠStrand": 6509,
      "Ġcontest": 6510,
      "Ġresour": 6511,
      "ĠAlan": 6512,
      "Ġmanner": 6513,
      "intend": 6514,
      "ĠArts": 6515,
      "Ġsoil": 6516,
      "Ġsomeone": 6517,
      "Ġinstruct": 6518,
      "ĠConst": 6519,
      "Ġways": 6520,
      "Ġmedieval": 6521,
      "engers": 6522,
      "Ġbasin": 6523,
      "Ġbasic": 6524,
      "Ġeverything": 6525,
      "Ġsolid": 6526,
      "Ġdifficulty": 6527,
      "Ġzone": 6528,
      "Ġaccounts": 6529,
      "Ġexception": 6530,
      "Ġapart": 6531,
      "Ġforests": 6532,
      "Ġdollars": 6533,
      "Ġconsiderable": 6534,
      "Ġemotional": 6535,
      "Ġninth": 6536,
      "ĠLisa": 6537,
      "Ġarticle": 6538,
      "Ġhydro": 6539,
      "Ġphilosoph": 6540,
      "ĠStephen": 6541,
      "ĠYankovic": 6542,
      "break": 6543,
      "eenth": 6544,
      "hl": 6545,
      "know": 6546,
      "named": 6547,
      "Ġur": 6548,
      "Ġcry": 6549,
      "Ġcold": 6550,
      "Ġinner": 6551,
      "Ġpound": 6552,
      "Ġhall": 6553,
      "ĠTs": 6554,
      "ĠAround": 6555,
      "aments": 6556,
      "igades": 6557,
      "ĠDom": 6558,
      "ĠDaily": 6559,
      "ĠJif": 6560,
      "ateur": 6561,
      "abeth": 6562,
      "Ġplants": 6563,
      "Ġshore": 6564,
      "ender": 6565,
      "Ġdesire": 6566,
      "Ġoffense": 6567,
      "angerous": 6568,
      "Ġupd": 6569,
      "Ġwealth": 6570,
      "Ġ69": 6571,
      "Ġknots": 6572,
      "aws": 6573,
      "Ġ91": 6574,
      "ĠMarsh": 6575,
      "Ġreleg": 6576,
      "Ġ121": 6577,
      "ajevo": 6578,
      "Ġgeneration": 6579,
      "Ġlanded": 6580,
      "Ġopponents": 6581,
      "Ġcommanded": 6582,
      "Ġpolitics": 6583,
      "Ġelectric": 6584,
      "Ġinvolvement": 6585,
      "graded": 6586,
      "Ġvolunte": 6587,
      "Ġrules": 6588,
      "Ġspecifically": 6589,
      "Ġwooden": 6590,
      "ĠCardinal": 6591,
      "Ġcolonial": 6592,
      "ĠBradford": 6593,
      "ĠVictoria": 6594,
      "ĠSarajevo": 6595,
      "ĠWeekly": 6596,
      "Ġthirty": 6597,
      "ĠRolling": 6598,
      "Ġeurop": 6599,
      "Ġsudden": 6600,
      "aug": 6601,
      "bles": 6602,
      "yles": 6603,
      "Ġton": 6604,
      "Ġtal": 6605,
      "Ġtaught": 6606,
      "orer": 6607,
      "orous": 6608,
      "Ġbal": 6609,
      "Ġbond": 6610,
      "Ġmine": 6611,
      "Ġmunic": 6612,
      "ĠSor": 6613,
      "eless": 6614,
      "Ġnob": 6615,
      "ĠChen": 6616,
      "Ġgall": 6617,
      "using": 6618,
      "ĠHon": 6619,
      "ĠDA": 6620,
      "Ġconsequ": 6621,
      "ĠWy": 6622,
      "ĠNether": 6623,
      "ctions": 6624,
      "ĠLife": 6625,
      "ĠLords": 6626,
      "ĠJersey": 6627,
      "ĠInit": 6628,
      "ables": 6629,
      "ultane": 6630,
      "Ġju": 6631,
      "Ġjazz": 6632,
      "Ġagent": 6633,
      "Ġsecured": 6634,
      "Ġ88": 6635,
      "Ġaccur": 6636,
      "Ġsym": 6637,
      "Ġevening": 6638,
      "Ġbelieves": 6639,
      "Ġcharts": 6640,
      "Ġdiscovery": 6641,
      "Ġsettle": 6642,
      "Ġpoems": 6643,
      "Ġcoastal": 6644,
      "Ġ1890": 6645,
      "Ġfavour": 6646,
      "Ġmissions": 6647,
      "Ġveget": 6648,
      "Ġchapel": 6649,
      "senal": 6650,
      "Ġrarely": 6651,
      "Ġrhyth": 6652,
      "Ġhotel": 6653,
      "Ġpicked": 6654,
      "ĠSomali": 6655,
      "ranean": 6656,
      "Ġintersection": 6657,
      "Ġrecommended": 6658,
      "Ġsplit": 6659,
      "ĠBono": 6660,
      "ĠClarkson": 6661,
      "Ġfungus": 6662,
      "Ġdescription": 6663,
      "Ġrestaurant": 6664,
      "ĠMozamb": 6665,
      "ĠJifna": 6666,
      "ba": 6667,
      "gas": 6668,
      "theless": 6669,
      "Ġtie": 6670,
      "Ġworship": 6671,
      "Ġwrong": 6672,
      "ingale": 6673,
      "Ġhill": 6674,
      "ĠSanta": 6675,
      "verse": 6676,
      "ĠPan": 6677,
      "union": 6678,
      "Ġconvers": 6679,
      "ĠWars": 6680,
      "osure": 6681,
      "istol": 6682,
      "Ġvan": 6683,
      "allow": 6684,
      "Ġleuk": 6685,
      "ĠYan": 6686,
      "ĠAnton": 6687,
      "ropol": 6688,
      "Ġdepend": 6689,
      "Ġsigning": 6690,
      "Ġ1979": 6691,
      "Ġcarbon": 6692,
      "Ġreplacement": 6693,
      "Ġlegs": 6694,
      "Ġdivine": 6695,
      "offman": 6696,
      "Ġdrawing": 6697,
      "Ġlaunch": 6698,
      "Ġmissed": 6699,
      "Ġnomination": 6700,
      "Ġabsor": 6701,
      "Ġscholar": 6702,
      "ĠResear": 6703,
      "Ġprincipal": 6704,
      "Ġconcerns": 6705,
      "Ġleadership": 6706,
      "Ġextremely": 6707,
      "Ġhabitat": 6708,
      "Ġspecimens": 6709,
      "ĠWilde": 6710,
      "ĠSkye": 6711,
      "ĠDestiny": 6712,
      "ĠIndustry": 6713,
      "Ġsynthes": 6714,
      "bie": 6715,
      "eper": 6716,
      "iate": 6717,
      "ping": 6718,
      "pective": 6719,
      "Ġic": 6720,
      "onica": 6721,
      "Ġsed": 6722,
      "Ġske": 6723,
      "Ġsession": 6724,
      "Ġsoul": 6725,
      "Ġfit": 6726,
      "Ġfaces": 6727,
      "Ġbes": 6728,
      "Ġble": 6729,
      "Ġdim": 6730,
      "Ġdock": 6731,
      "ione": 6732,
      "ĠCory": 6733,
      "ĠBa": 6734,
      "ivals": 6735,
      "imal": 6736,
      "Ġstream": 6737,
      "ceived": 6738,
      "ĠRif": 6739,
      "ĠFame": 6740,
      "Ġconference": 6741,
      "ĠNick": 6742,
      "Ġexisted": 6743,
      "ĠKel": 6744,
      "ĠChart": 6745,
      "ube": 6746,
      "Ġparties": 6747,
      "Ġpartners": 6748,
      "Ġteeth": 6749,
      "Ġ74": 6750,
      "Ġ79": 6751,
      "ĠAsh": 6752,
      "Ġwhereas": 6753,
      "ĠLev": 6754,
      "Ġ122": 6755,
      "eka": 6756,
      "Ġminister": 6757,
      "Ġshowing": 6758,
      "iversary": 6759,
      "Ġ1948": 6760,
      "Ġ1961": 6761,
      "Ġdistributed": 6762,
      "inking": 6763,
      "ructure": 6764,
      "ĠCarter": 6765,
      "Ġ1937": 6766,
      "Ġ1917": 6767,
      "Ġstrateg": 6768,
      "Ġapproached": 6769,
      "Ġtries": 6770,
      "Ġorganizations": 6771,
      "iveness": 6772,
      "Ġdemol": 6773,
      "Ġstandards": 6774,
      "ĠRoberts": 6775,
      "Ġindustrial": 6776,
      "Ġthreatened": 6777,
      "Ġsurrounded": 6778,
      "ĠCampb": 6779,
      "Ġemerged": 6780,
      "Ġchemical": 6781,
      "ĠCastle": 6782,
      "ĠArgentina": 6783,
      "Ġdiameter": 6784,
      "Ġpsych": 6785,
      "ĠFrancisco": 6786,
      "Brien": 6787,
      "SB": 6788,
      "cl": 6789,
      "lan": 6790,
      "Ġwants": 6791,
      "itals": 6792,
      "Ġfal": 6793,
      "Ġfish": 6794,
      "Ġpage": 6795,
      "Ġrect": 6796,
      "ĠAR": 6797,
      "amm": 6798,
      "ĠCab": 6799,
      "adow": 6800,
      "ĠIV": 6801,
      "ĠIron": 6802,
      "iday": 6803,
      "Ġstem": 6804,
      "utt": 6805,
      "Ġcong": 6806,
      "osis": 6807,
      "ĠNap": 6808,
      "andy": 6809,
      "avia": 6810,
      "Ġintention": 6811,
      "Ġarts": 6812,
      "Ġoverw": 6813,
      "wealth": 6814,
      "Ġ99": 6815,
      "Ġretire": 6816,
      "Ġmuscar": 6817,
      "Ġindig": 6818,
      "ĠLee": 6819,
      "ception": 6820,
      "Ġwarm": 6821,
      "Ġbright": 6822,
      "Ġ1951": 6823,
      "Ġ1958": 6824,
      "Ġpointed": 6825,
      "Ġpersonnel": 6826,
      "ĠPrime": 6827,
      "Ġcommunities": 6828,
      "ĠTeam": 6829,
      "ĠTelevision": 6830,
      "Ġhistorians": 6831,
      "ĠSimilar": 6832,
      "ĠSimps": 6833,
      "Ġseeing": 6834,
      "Ġfacing": 6835,
      "ĠHamilton": 6836,
      "Ġcrossed": 6837,
      "Ġrelationships": 6838,
      "aska": 6839,
      "Ġrailway": 6840,
      "Ġimmediate": 6841,
      "ĠOlympics": 6842,
      "ĠJerusal": 6843,
      "Ġfavorite": 6844,
      "Ġhoped": 6845,
      "Ġconstitution": 6846,
      "Ġalternative": 6847,
      "Ġlbw": 6848,
      "Ġratings": 6849,
      "ĠColonel": 6850,
      "ĠBanai": 6851,
      "Ġexpedition": 6852,
      "Ġisolated": 6853,
      "Ġcitiz": 6854,
      "Ġeuropium": 6855,
      "ĠSimpsons": 6856,
      "ĠJerusalem": 6857,
      "CA": 6858,
      "ban": 6859,
      "ext": 6860,
      "point": 6861,
      "sch": 6862,
      "zi": 6863,
      "Ġib": 6864,
      "reets": 6865,
      "Ġcorp": 6866,
      "Ġinland": 6867,
      "Ġmart": 6868,
      "ĠTrib": 6869,
      "ĠAD": 6870,
      "ĠSpring": 6871,
      "Ġlap": 6872,
      "Ġeighth": 6873,
      "Ġgather": 6874,
      "ĠBol": 6875,
      "ĠBank": 6876,
      "ĠBoli": 6877,
      "otes": 6878,
      "ĠHere": 6879,
      "ĠPul": 6880,
      "Ġalien": 6881,
      "ĠFras": 6882,
      "cho": 6883,
      "ĠElect": 6884,
      "Ġvide": 6885,
      "uda": 6886,
      "Ġshark": 6887,
      "acks": 6888,
      "Ġyouth": 6889,
      "anges": 6890,
      "ĠUnlike": 6891,
      "Ġconsum": 6892,
      "Ġdecor": 6893,
      "Ġflo": 6894,
      "Ġregional": 6895,
      "Ġassumed": 6896,
      "ĠShak": 6897,
      "rows": 6898,
      "Ġdepartment": 6899,
      "Ġ1949": 6900,
      "Ġowner": 6901,
      "Ġ1954": 6902,
      "Ġ1955": 6903,
      "Ġanniversary": 6904,
      "ĠHerge": 6905,
      "ĠForces": 6906,
      "Ġprotests": 6907,
      "Ġreviewer": 6908,
      "Ġstrongly": 6909,
      "Ġspeech": 6910,
      "ĠEarl": 6911,
      "ombat": 6912,
      "Ġadmitted": 6913,
      "Ġdestroyers": 6914,
      "Ġtreated": 6915,
      "Ġconnection": 6916,
      "ĠDuke": 6917,
      "Ġregularly": 6918,
      "Ġsequel": 6919,
      "Ġancest": 6920,
      "Ġexamples": 6921,
      "Ġfiring": 6922,
      "Ġbringing": 6923,
      "Ġwatershed": 6924,
      "Ġinstitutions": 6925,
      "Ġmessage": 6926,
      "Ġromantic": 6927,
      "Ġdocumentary": 6928,
      "Ġdistribution": 6929,
      "ĠRyan": 6930,
      "Ġunusual": 6931,
      "Ġfranchise": 6932,
      "ooth": 6933,
      "wich": 6934,
      "zen": 6935,
      "Ġsulf": 6936,
      "Ġsections": 6937,
      "edom": 6938,
      "organ": 6939,
      "inger": 6940,
      "ĠAld": 6941,
      "uses": 6942,
      "usad": 6943,
      "Ġstadium": 6944,
      "ĠPower": 6945,
      "ĠRel": 6946,
      "eman": 6947,
      "Ġorchest": 6948,
      "oca": 6949,
      "ĠChief": 6950,
      "Ġaged": 6951,
      "Ġoutf": 6952,
      "formed": 6953,
      "Ġindicated": 6954,
      "Ġ07": 6955,
      "Ġairline": 6956,
      "Ġcharacteristics": 6957,
      "Ġdetailed": 6958,
      "Ġapproved": 6959,
      "Ġbreaking": 6960,
      "Ġmarks": 6961,
      "istered": 6962,
      "encies": 6963,
      "Ġchanging": 6964,
      "Ġwatch": 6965,
      "Ġimprove": 6966,
      "Ġtreaty": 6967,
      "Ġliterary": 6968,
      "ĠJean": 6969,
      "ĠTerrit": 6970,
      "ĠRhodes": 6971,
      "Ġattracted": 6972,
      "ĠBCE": 6973,
      "ĠJaneiro": 6974,
      "Ġinhabit": 6975,
      "Ġwearing": 6976,
      "Ġrescue": 6977,
      "Ġeggs": 6978,
      "Ġeasily": 6979,
      "Ġprotagonist": 6980,
      "Ġacademic": 6981,
      "ĠKilmer": 6982,
      "ĠFrederick": 6983,
      "cape": 6984,
      "de": 6985,
      "rates": 6986,
      "Ġsam": 6987,
      "Ġsell": 6988,
      "Ġocean": 6989,
      "atures": 6990,
      "Ġcul": 6991,
      "Ġbay": 6992,
      "Ġpric": 6993,
      "ĠSher": 6994,
      "ĠBall": 6995,
      "ĠBert": 6996,
      "ussion": 6997,
      "ĠPA": 6998,
      "ĠRaj": 6999,
      "emia": 7000,
      "ĠDur": 7001,
      "Ġconqu": 7002,
      "rapped": 7003,
      "ĠJun": 7004,
      "Ġproport": 7005,
      "Ġspaces": 7006,
      "ĠStock": 7007,
      "oked": 7008,
      "Ġrecre": 7009,
      "ĠHearts": 7010,
      "Ġpartial": 7011,
      "Ġpreced": 7012,
      "Ġretreat": 7013,
      "Ġinterchange": 7014,
      "Ġcoord": 7015,
      "Ġacknow": 7016,
      "ĠJoe": 7017,
      "Ġcrest": 7018,
      "Ġimplement": 7019,
      "ĠGerard": 7020,
      "Ġdesignation": 7021,
      "Ġ1910": 7022,
      "aurus": 7023,
      "Ġattempting": 7024,
      "Ġmedium": 7025,
      "Ġterminus": 7026,
      "Ġeffectively": 7027,
      "Ġreferences": 7028,
      "Ġsurviving": 7029,
      "Ġequal": 7030,
      "Ġcatch": 7031,
      "Ġsettled": 7032,
      "Ġrecognition": 7033,
      "Ġtraveled": 7034,
      "Ġpractices": 7035,
      "Ġterritories": 7036,
      "Ġgrey": 7037,
      "Ġfeeling": 7038,
      "Ġcompletion": 7039,
      "Ġassistant": 7040,
      "Ġchallenge": 7041,
      "ĠSomalia": 7042,
      "Ġspecimen": 7043,
      "ĠJournal": 7044,
      "uppet": 7045,
      "Ġagricultural": 7046,
      "Ġencouraged": 7047,
      "ĠAdmiral": 7048,
      "Ġexpansion": 7049,
      "ĠLennon": 7050,
      "ĠSaprang": 7051,
      "60": 7052,
      "hu": 7053,
      "how": 7054,
      "kh": 7055,
      "ois": 7056,
      "rast": 7057,
      "heim": 7058,
      "Ġsight": 7059,
      "itated": 7060,
      "lets": 7061,
      "ĠSi": 7062,
      "Ġlob": 7063,
      "Ġnone": 7064,
      "Ġnick": 7065,
      "ĠCE": 7066,
      "ĠCorn": 7067,
      "eton": 7068,
      "ĠHung": 7069,
      "Ġstead": 7070,
      "Ġstreak": 7071,
      "ĠPine": 7072,
      "ĠFern": 7073,
      "ĠGoffman": 7074,
      "ĠLoc": 7075,
      "ĠLanc": 7076,
      "agas": 7077,
      "Ġvac": 7078,
      "ewhat": 7079,
      "Ġorn": 7080,
      "Ġchronic": 7081,
      "Ġchampion": 7082,
      "abled": 7083,
      "Ġplain": 7084,
      "ĠKombat": 7085,
      "Ġshots": 7086,
      "Ġspin": 7087,
      "ogether": 7088,
      "Ġcloud": 7089,
      "Ġrecalled": 7090,
      "ĠAlbert": 7091,
      "Ġpartly": 7092,
      "weet": 7093,
      "Ġ63": 7094,
      "ĠAniston": 7095,
      "Ġ82": 7096,
      "Ġmeets": 7097,
      "Ġaccused": 7098,
      "Ġaccomm": 7099,
      "Ġ1977": 7100,
      "ossible": 7101,
      "ĠGuy": 7102,
      "Ġstarling": 7103,
      "Ġvisible": 7104,
      "attered": 7105,
      "Ġpatron": 7106,
      "Ġreading": 7107,
      "Ġgenre": 7108,
      "Ġlooked": 7109,
      "Ġidentity": 7110,
      "Ġseemed": 7111,
      "Ġcivilian": 7112,
      "going": 7113,
      "ĠRichardson": 7114,
      "ĠSquare": 7115,
      "ĠEvery": 7116,
      "ĠLawton": 7117,
      "ĠMilitary": 7118,
      "ĠCambridge": 7119,
      "Ġrecovered": 7120,
      "Ġextreme": 7121,
      "Ġcontroversy": 7122,
      "ĠBurns": 7123,
      "Ġcandidate": 7124,
      "ĠAttorney": 7125,
      "Ġduties": 7126,
      "ĠÃĹ": 7127,
      "ĠIndependent": 7128,
      "ĠMortal": 7129,
      "Ġarrangement": 7130,
      "Ġethn": 7131,
      "Ġsomewhat": 7132,
      "ĠGeorgia": 7133,
      "Ġaccommod": 7134,
      "cient": 7135,
      "ds": 7136,
      "dess": 7137,
      "iot": 7138,
      "mel": 7139,
      "Ê»": 7140,
      "Ġtick": 7141,
      "inet": 7142,
      "erog": 7143,
      "Ġcens": 7144,
      "arning": 7145,
      "Ġbat": 7146,
      "icate": 7147,
      "Ġhip": 7148,
      "Ġhits": 7149,
      "ĠTest": 7150,
      "ĠTower": 7151,
      "Ġet": 7152,
      "ĠBass": 7153,
      "ĠHospital": 7154,
      "ĠWolf": 7155,
      "osm": 7156,
      "ĠNeb": 7157,
      "ĠLab": 7158,
      "Ġanth": 7159,
      "Ġproceed": 7160,
      "Ġraces": 7161,
      "Ġritual": 7162,
      "Ġshif": 7163,
      "oven": 7164,
      "Ġschem": 7165,
      "Ġserial": 7166,
      "Ġimpl": 7167,
      "Ġevil": 7168,
      "Ġteach": 7169,
      "Ġconsult": 7170,
      "Ġrelative": 7171,
      "ĠMarg": 7172,
      "Ġfled": 7173,
      "Ġflat": 7174,
      "Ġ05": 7175,
      "Ġpreserved": 7176,
      "Ġ162": 7177,
      "Ġ1983": 7178,
      "Ġestate": 7179,
      "ennis": 7180,
      "Ġpassage": 7181,
      "Ġwinner": 7182,
      "ĠGermans": 7183,
      "ĠColor": 7184,
      "ĠUSA": 7185,
      "ĠDevelop": 7186,
      "risis": 7187,
      "Ġpossession": 7188,
      "Ġstands": 7189,
      "Ġtwelve": 7190,
      "Ġfootage": 7191,
      "Ġconvin": 7192,
      "Ġconvoy": 7193,
      "ĠPoland": 7194,
      "ĠKeamy": 7195,
      "ĠIslands": 7196,
      "Ġarmor": 7197,
      "Ġinspiration": 7198,
      "Ġhosted": 7199,
      "Ġlanguages": 7200,
      "Ġfunds": 7201,
      "Ġsuffering": 7202,
      "Ġmulti": 7203,
      "Ġpainted": 7204,
      "Ġbrothers": 7205,
      "Ġabsol": 7206,
      "Ġgrav": 7207,
      "Ġtowers": 7208,
      "Ġhappy": 7209,
      "Ġlinked": 7210,
      "Ġchalleng": 7211,
      "ĠFormula": 7212,
      "Ġrhym": 7213,
      "Ġspirit": 7214,
      "Ġcontroversial": 7215,
      "ĠCommonwealth": 7216,
      "ĠFamily": 7217,
      "Ġadjacent": 7218,
      "Ġobtained": 7219,
      "ĠElizabeth": 7220,
      "ĠFraser": 7221,
      "à¤": 7222,
      "Ġtone": 7223,
      "Ġau": 7224,
      "Ġsessions": 7225,
      "lete": 7226,
      "ĠAz": 7227,
      "entures": 7228,
      "amic": 7229,
      "Ġgross": 7230,
      "ĠBal": 7231,
      "ĠBron": 7232,
      "igation": 7233,
      "uts": 7234,
      "aya": 7235,
      "thosaurus": 7236,
      "ĠDC": 7237,
      "Ġalleg": 7238,
      "ĠNintend": 7239,
      "aga": 7240,
      "Ġprohib": 7241,
      "ifer": 7242,
      "Ġexha": 7243,
      "ockey": 7244,
      "Ġshut": 7245,
      "ĠUst": 7246,
      "Ġlearning": 7247,
      "Ġincome": 7248,
      "Ġinte": 7249,
      "Ġ89": 7250,
      "Ġ93": 7251,
      "Ġverte": 7252,
      "Ġacts": 7253,
      "Ġdefended": 7254,
      "Ġmusc": 7255,
      "annah": 7256,
      "Ġexpensive": 7257,
      "athers": 7258,
      "ledon": 7259,
      "Ġcontinuing": 7260,
      "Ġprovince": 7261,
      "Ġattacking": 7262,
      "Ġ1931": 7263,
      "Ġ1935": 7264,
      "Ġreviewers": 7265,
      "Ġdestruction": 7266,
      "ĠOrgan": 7267,
      "ĠOrder": 7268,
      "Ġequipped": 7269,
      "Ġcoup": 7270,
      "Ġsteel": 7271,
      "Ġreduce": 7272,
      "Ġcirculation": 7273,
      "Ġ1880": 7274,
      "stitution": 7275,
      "ĠMontana": 7276,
      "Ġblocks": 7277,
      "Ġstayed": 7278,
      "ĠSingles": 7279,
      "ĠFIA": 7280,
      "Ġunderstand": 7281,
      "Ġconcerned": 7282,
      "Ġopposite": 7283,
      "Ġadults": 7284,
      "Ġscientific": 7285,
      "ĠAdams": 7286,
      "Ġincorporated": 7287,
      "Ġcustom": 7288,
      "ĠRoger": 7289,
      "Ġparallel": 7290,
      "ĠPlunketts": 7291,
      "ĠResearch": 7292,
      "ĠCorythosaurus": 7293,
      "ĠNintendo": 7294,
      "SA": 7295,
      "iary": 7296,
      "worth": 7297,
      "Ġtailed": 7298,
      "Ġtrick": 7299,
      "Ġtheatre": 7300,
      "Ġwars": 7301,
      "Ġow": 7302,
      "Ġinaug": 7303,
      "Ġpure": 7304,
      "Ġpushed": 7305,
      "Ġmap": 7306,
      "Ġdivers": 7307,
      "ĠTam": 7308,
      "illy": 7309,
      "state": 7310,
      "elin": 7311,
      "ĠCook": 7312,
      "ĠMand": 7313,
      "Ġgone": 7314,
      "ĠBase": 7315,
      "olay": 7316,
      "iminal": 7317,
      "ĠPass": 7318,
      "ĠPoint": 7319,
      "emet": 7320,
      "ĠWW": 7321,
      "ĠWimb": 7322,
      "Ġansw": 7323,
      "Ġhear": 7324,
      "ĠJoy": 7325,
      "rif": 7326,
      "ĠOffic": 7327,
      "ĠOwen": 7328,
      "ĠKy": 7329,
      "ĠChannel": 7330,
      "Ġreserve": 7331,
      "achus": 7332,
      "Ġagree": 7333,
      "arked": 7334,
      "ensis": 7335,
      "amps": 7336,
      "Ġ68": 7337,
      "Ġpool": 7338,
      "ĠMarines": 7339,
      "Ġverse": 7340,
      "Ġraid": 7341,
      "ĠJohnston": 7342,
      "ĠIslam": 7343,
      "Ġpassengers": 7344,
      "Ġwilling": 7345,
      "Ġ1932": 7346,
      "Ġ1912": 7347,
      "Ġclassical": 7348,
      "Ġdriving": 7349,
      "Ġdebate": 7350,
      "Ġelabor": 7351,
      "Ġlowest": 7352,
      "Ġvictims": 7353,
      "Ġlimit": 7354,
      "Ġ1909": 7355,
      "ĠPalmy": 7356,
      "Ġmeetings": 7357,
      "Ġcrossing": 7358,
      "Ġfalling": 7359,
      "Ġmeasures": 7360,
      "Ġresponsibility": 7361,
      "Ġengineering": 7362,
      "ĠLawrence": 7363,
      "Ġvoted": 7364,
      "ĠArabic": 7365,
      "Ġthrowing": 7366,
      "Ġadapted": 7367,
      "Ġinitiative": 7368,
      "onnaissance": 7369,
      "ĠProtest": 7370,
      "ĠPeninsula": 7371,
      "ĠNorman": 7372,
      "Ġoccasions": 7373,
      "Ġremnants": 7374,
      "ĠJesus": 7375,
      "ĠMarlborough": 7376,
      "Ġbasketball": 7377,
      "Ġkitsune": 7378,
      "Ġvideos": 7379,
      "ĠWimbledon": 7380,
      "body": 7381,
      "hol": 7382,
      "nal": 7383,
      "pent": 7384,
      "ruli": 7385,
      "yard": 7386,
      "ĠÎ": 7387,
      "ĪĴ": 7388,
      "Ġster": 7389,
      "Ġsiege": 7390,
      "Ġcart": 7391,
      "Ġcycle": 7392,
      "Ġbrick": 7393,
      "ĠSem": 7394,
      "Ġlin": 7395,
      "oma": 7396,
      "ĠCru": 7397,
      "ĠMah": 7398,
      "ĠBed": 7399,
      "uscript": 7400,
      "ĠHun": 7401,
      "ithic": 7402,
      "ĠDyn": 7403,
      "ĠFlow": 7404,
      "Ġ1900": 7405,
      "ĠEdu": 7406,
      "Ġcomments": 7407,
      "Ġprol": 7408,
      "Ġsees": 7409,
      "ĠUr": 7410,
      "ĠâĪĴ": 7411,
      "ogen": 7412,
      "Ġcontext": 7413,
      "Ġ58": 7414,
      "aware": 7415,
      "Ġretained": 7416,
      "Ġacclaim": 7417,
      "ificial": 7418,
      "Ġ06": 7419,
      "Ġmusicians": 7420,
      "ĠSpace": 7421,
      "Ġ1911": 7422,
      "ĠBeach": 7423,
      "espe": 7424,
      "ĠGeoff": 7425,
      "Ġpatrol": 7426,
      "Ġinvolving": 7427,
      "Ġequivalent": 7428,
      "Ġpitcher": 7429,
      "Ġpromote": 7430,
      "Ġdifficulties": 7431,
      "Ġsuperior": 7432,
      "Ġstrip": 7433,
      "Ġbiography": 7434,
      "ĠImperial": 7435,
      "Ġrebels": 7436,
      "Ġrenew": 7437,
      "Ġobjects": 7438,
      "ĠFei": 7439,
      "Ġintensified": 7440,
      "ĠPatrick": 7441,
      "Ġobservations": 7442,
      "Ġpurchase": 7443,
      "Ġmoral": 7444,
      "hews": 7445,
      "Ġcarrying": 7446,
      "Ġvessels": 7447,
      "Ġfixed": 7448,
      "Ġbatsman": 7449,
      "Ġunsuccessful": 7450,
      "ĠStefani": 7451,
      "MO": 7452,
      "ait": 7453,
      "ients": 7454,
      "ker": 7455,
      "ng": 7456,
      "rin": 7457,
      "rating": 7458,
      "rator": 7459,
      "uv": 7460,
      "yer": 7461,
      "Ġtight": 7462,
      "eratops": 7463,
      "onia": 7464,
      "Ġfine": 7465,
      "Ġblow": 7466,
      "Ġbone": 7467,
      "icity": 7468,
      "Ġhang": 7469,
      "ĠTon": 7470,
      "ĠTig": 7471,
      "ĠType": 7472,
      "ĠAP": 7473,
      "acle": 7474,
      "Ġonline": 7475,
      "otton": 7476,
      "terbury": 7477,
      "ĠHob": 7478,
      "osl": 7479,
      "ĠNow": 7480,
      "iform": 7481,
      "illed": 7482,
      "Ġray": 7483,
      "Ġrum": 7484,
      "Ġexchange": 7485,
      "aste": 7486,
      "ĠStation": 7487,
      "Ġcompounds": 7488,
      "ureau": 7489,
      "Ġcommit": 7490,
      "Ġcommitted": 7491,
      "Ġprerog": 7492,
      "Ġraise": 7493,
      "Ġdefences": 7494,
      "ĠReal": 7495,
      "Ġ161": 7496,
      "Ġobl": 7497,
      "Ġreturns": 7498,
      "Ġgovernor": 7499,
      "ĠMega": 7500,
      "ĠCanterbury": 7501,
      "quez": 7502,
      "Ġperiods": 7503,
      "Ġ1921": 7504,
      "alky": 7505,
      "iterranean": 7506,
      "Ġdefeating": 7507,
      "Ġgoddess": 7508,
      "Ġpraise": 7509,
      "Ġneeds": 7510,
      "ĠPalace": 7511,
      "Ġvillages": 7512,
      "Ġrepresenting": 7513,
      "Ġcollaps": 7514,
      "Ġnarrative": 7515,
      "Ġreveals": 7516,
      "ĠMediterranean": 7517,
      "Ġcomposer": 7518,
      "ĠDepression": 7519,
      "ĠPrior": 7520,
      "ĠHotel": 7521,
      "iques": 7522,
      "ĠHuman": 7523,
      "Ġinternal": 7524,
      "ĠGarci": 7525,
      "Ġdisappoint": 7526,
      "ĠPitman": 7527,
      "Ġbehavi": 7528,
      "Ġsculpture": 7529,
      "Ġvoiced": 7530,
      "ĠGuardian": 7531,
      "Ġpreferred": 7532,
      "Ġglobal": 7533,
      "Ġconcerts": 7534,
      "Ġsurvivors": 7535,
      "ĠShakespe": 7536,
      "ĠShakespeare": 7537,
      "AT": 7538,
      "oh": 7539,
      "wald": 7540,
      "Ġfold": 7541,
      "Ġbor": 7542,
      "icop": 7543,
      "Ġdens": 7544,
      "Ġdiet": 7545,
      "ĠAk": 7546,
      "elle": 7547,
      "omatic": 7548,
      "ĠMir": 7549,
      "ĠBark": 7550,
      "ĠHor": 7551,
      "ĠHou": 7552,
      "utz": 7553,
      "ĠRet": 7554,
      "ĠRain": 7555,
      "ĠRaff": 7556,
      "ĠRugby": 7557,
      "ĠFurt": 7558,
      "ĠGun": 7559,
      "ĠGib": 7560,
      "Ġhem": 7561,
      "agu": 7562,
      "Ġrecon": 7563,
      "ĠAlong": 7564,
      "Ġfeed": 7565,
      "Ġformally": 7566,
      "Ġfollowers": 7567,
      "Ġamino": 7568,
      "ĠLeg": 7569,
      "Ġoperating": 7570,
      "Ġsimultane": 7571,
      "Ġconsiders": 7572,
      "ĠUSD": 7573,
      "Ġclassic": 7574,
      "Ġrefers": 7575,
      "ĠMcG": 7576,
      "Ġ1929": 7577,
      "ĠFlight": 7578,
      "Ġcovering": 7579,
      "Ġelse": 7580,
      "Ġrepresents": 7581,
      "Ġcriticised": 7582,
      "Ġdivisions": 7583,
      "ĠRecording": 7584,
      "ĠAtlanta": 7585,
      "Ġcloser": 7586,
      "ĠEmperor": 7587,
      "Ġescort": 7588,
      "Ġabsence": 7589,
      "Ġvisitors": 7590,
      "Ġproducts": 7591,
      "Ġaccompany": 7592,
      "Ġnormally": 7593,
      "Ġhundreds": 7594,
      "ĠTransport": 7595,
      "Ġcamera": 7596,
      "Ġlegislation": 7597,
      "ĠKorean": 7598,
      "ĠStanley": 7599,
      "ĠPhoen": 7600,
      "Ġdialogue": 7601,
      "Ġproposal": 7602,
      "ĠAthletic": 7603,
      "ĠAerith": 7604,
      "ĠPhillies": 7605,
      "Ġastronom": 7606,
      "inje": 7607,
      "ĠNetherlands": 7608,
      "CC": 7609,
      "fare": 7610,
      "rich": 7611,
      "Ġille": 7612,
      "Ġtank": 7613,
      "hered": 7614,
      "Ġoption": 7615,
      "ashed": 7616,
      "ĠSweet": 7617,
      "Ġliber": 7618,
      "adi": 7619,
      "Ġgro": 7620,
      "ĠHud": 7621,
      "ĠHok": 7622,
      "ĠHind": 7623,
      "ĠDark": 7624,
      "ĠWic": 7625,
      "ĠNar": 7626,
      "Ġdeem": 7627,
      "Ġorb": 7628,
      "Ġexit": 7629,
      "ĠKann": 7630,
      "ĠKrak": 7631,
      "iped": 7632,
      "ishn": 7633,
      "ishment": 7634,
      "Ġunion": 7635,
      "Ġcloth": 7636,
      "range": 7637,
      "Ġreconnaissance": 7638,
      "Ġappropri": 7639,
      "Ġattrib": 7640,
      "ĠYour": 7641,
      "Ġsurpr": 7642,
      "Ġextent": 7643,
      "Ġ1962": 7644,
      "Ġ1959": 7645,
      "Ġ1938": 7646,
      "Ġ140": 7647,
      "Ġtrading": 7648,
      "Ġcovers": 7649,
      "Ġpolitic": 7650,
      "Ġconvection": 7651,
      "Ġskull": 7652,
      "Ġdoesn": 7653,
      "ymph": 7654,
      "Ġbiographer": 7655,
      "ĠMarkgra": 7656,
      "Ġpoorly": 7657,
      "Ġstationed": 7658,
      "Ġtribut": 7659,
      "ĠChampionships": 7660,
      "Ġfeelings": 7661,
      "Ġcheck": 7662,
      "Ġsatisf": 7663,
      "Ġensure": 7664,
      "Ġmoments": 7665,
      "ĠEnterprise": 7666,
      "Ġdisplays": 7667,
      "Ġdeployed": 7668,
      "ĠPalestine": 7669,
      "Ġarrested": 7670,
      "ĠWriting": 7671,
      "ĠDominican": 7672,
      "Ġreconstruction": 7673,
      "Ġpupils": 7674,
      "Ġresources": 7675,
      "Ġmunicipal": 7676,
      "ĠDAG": 7677,
      "Ġrhythm": 7678,
      "Ġoverwhel": 7679,
      "ĠUstas": 7680,
      "emetery": 7681,
      "ĠRaffles": 7682,
      "ĠFurtado": 7683,
      "ĠMarkgraf": 7684,
      "DH": 7685,
      "boy": 7686,
      "bishop": 7687,
      "rants": 7688,
      "ugh": 7689,
      "vements": 7690,
      "vati": 7691,
      "ye": 7692,
      "Ġfram": 7693,
      "Ġbrand": 7694,
      "icide": 7695,
      "Ġdipl": 7696,
      "ĠTreat": 7697,
      "ĠTechn": 7698,
      "ĠSand": 7699,
      "ĠSatur": 7700,
      "Ġlose": 7701,
      "Ġloy": 7702,
      "Ġnav": 7703,
      "idae": 7704,
      "otype": 7705,
      "Ġstable": 7706,
      "ĠRoc": 7707,
      "ĠFree": 7708,
      "rage": 7709,
      "ĠLate": 7710,
      "ifies": 7711,
      "Ġrugby": 7712,
      "Ġorbit": 7713,
      "Ġplane": 7714,
      "acked": 7715,
      "ĠStory": 7716,
      "ĠValky": 7717,
      "Ġintense": 7718,
      "Ġmanuscript": 7719,
      "Ġoutl": 7720,
      "rene": 7721,
      "Ġtele": 7722,
      "Ġdeck": 7723,
      "Ġforming": 7724,
      "Ġ08": 7725,
      "roscop": 7726,
      "ĠSholay": 7727,
      "Ġenth": 7728,
      "Ġentitled": 7729,
      "Ġtransition": 7730,
      "Ġobst": 7731,
      "Ġextension": 7732,
      "Ġbelt": 7733,
      "Ġuseful": 7734,
      "Ġphr": 7735,
      "Ġmodified": 7736,
      "Ġannually": 7737,
      "echism": 7738,
      "ĠAndre": 7739,
      "Ġdriven": 7740,
      "Ġposted": 7741,
      "Ġinfluential": 7742,
      "Ġsteam": 7743,
      "ĠMexican": 7744,
      "Ġresearchers": 7745,
      "Ġinjuries": 7746,
      "Ġframe": 7747,
      "Ġmemory": 7748,
      "Ġwithdrew": 7749,
      "Ġunderstanding": 7750,
      "Ġdramatic": 7751,
      "Ġbombard": 7752,
      "Ġpurposes": 7753,
      "Ġessential": 7754,
      "Ġdoubt": 7755,
      "Ġpanel": 7756,
      "Ġutil": 7757,
      "ĠNHL": 7758,
      "Ġsubmarine": 7759,
      "cribed": 7760,
      "Ġmuscaria": 7761,
      "ĠFernand": 7762,
      "ĠColorado": 7763,
      "don": 7764,
      "friend": 7765,
      "life": 7766,
      "rint": 7767,
      "vention": 7768,
      "yo": 7769,
      "Ġtests": 7770,
      "inian": 7771,
      "Ġsunk": 7772,
      "Ġsaved": 7773,
      "ori": 7774,
      "Ġdream": 7775,
      "entional": 7776,
      "ilst": 7777,
      "Ġlists": 7778,
      "ĠCape": 7779,
      "ĠCBS": 7780,
      "ĠMun": 7781,
      "Ġgard": 7782,
      "ĠBat": 7783,
      "ĠBell": 7784,
      "ĠBang": 7785,
      "ĠBath": 7786,
      "Ġash": 7787,
      "owiec": 7788,
      "Ġstreets": 7789,
      "ĠRem": 7790,
      "ĠFound": 7791,
      "ĠFront": 7792,
      "ĠNichol": 7793,
      "ĠLy": 7794,
      "ĠLabor": 7795,
      "ĠJenn": 7796,
      "Ġrated": 7797,
      "Ġrates": 7798,
      "Ġridge": 7799,
      "ateau": 7800,
      "anti": 7801,
      "ĠKen": 7802,
      "Ġshop": 7803,
      "Ġshipping": 7804,
      "Ġabund": 7805,
      "Ġrecur": 7806,
      "ricted": 7807,
      "Ġjun": 7808,
      "Ġago": 7809,
      "Ġotherwise": 7810,
      "overs": 7811,
      "teenth": 7812,
      "Ġ67": 7813,
      "ĠComb": 7814,
      "Ġactual": 7815,
      "Ġformal": 7816,
      "inson": 7817,
      "ifications": 7818,
      "ĠShow": 7819,
      "Ġtrail": 7820,
      "Ġseverely": 7821,
      "Ġ155": 7822,
      "Ġoriginated": 7823,
      "Ġinstalled": 7824,
      "Ġgenerated": 7825,
      "Ġhelicop": 7826,
      "Ġrestrict": 7827,
      "Ġparish": 7828,
      "ĠProg": 7829,
      "Ġdemand": 7830,
      "Ġsuggesting": 7831,
      "Ġexcess": 7832,
      "Ġinfluences": 7833,
      "Ġreaders": 7834,
      "Ġwatching": 7835,
      "ĠRichmond": 7836,
      "ĠMaggie": 7837,
      "Ġburned": 7838,
      "Ġinformed": 7839,
      "Ġkingdom": 7840,
      "Ġmaterials": 7841,
      "Ġpersu": 7842,
      "ĠQueens": 7843,
      "Ġcruiser": 7844,
      "Ġhappened": 7845,
      "ĠPortugal": 7846,
      "Ġemerg": 7847,
      "Ġapparently": 7848,
      "Ġjournalist": 7849,
      "Ġdinosaur": 7850,
      "Ġcircumstances": 7851,
      "niowiec": 7852,
      "Ġprerogative": 7853,
      "after": 7854,
      "eared": 7855,
      "lie": 7856,
      "Ġsaves": 7857,
      "Ġori": 7858,
      "Ġciting": 7859,
      "Ġfestival": 7860,
      "arth": 7861,
      "ĠSn": 7862,
      "ĠSid": 7863,
      "eline": 7864,
      "ĠBow": 7865,
      "ĠBab": 7866,
      "ĠHaving": 7867,
      "ĠRoth": 7868,
      "ĠGwen": 7869,
      "ĠNiel": 7870,
      "ĠLith": 7871,
      "ĠOur": 7872,
      "aku": 7873,
      "Ġchoir": 7874,
      "ĠâĤ": 7875,
      "Ġunlike": 7876,
      "Ġclock": 7877,
      "Ġappre": 7878,
      "ugosl": 7879,
      "Ġcancer": 7880,
      "Ġrelie": 7881,
      "inder": 7882,
      "ĠArk": 7883,
      "Ġmovements": 7884,
      "Ġcooper": 7885,
      "Ġexposure": 7886,
      "ĠWho": 7887,
      "ullen": 7888,
      "Ġoperate": 7889,
      "Ġgenerals": 7890,
      "ĠBlood": 7891,
      "Ġeleven": 7892,
      "ĠAllah": 7893,
      "ĠGuide": 7894,
      "ĠParvati": 7895,
      "Ġstarlings": 7896,
      "Ġlisten": 7897,
      "Ġcauses": 7898,
      "Ġvictories": 7899,
      "Ġsurvive": 7900,
      "Ġsky": 7901,
      "Ġfactors": 7902,
      "Ġready": 7903,
      "Ġinterests": 7904,
      "Ġmixture": 7905,
      "Ġpredomin": 7906,
      "ĠTownship": 7907,
      "Ġcrosses": 7908,
      "Ġmerch": 7909,
      "itzer": 7910,
      "ĠIsraeli": 7911,
      "ĠKhand": 7912,
      "Ġlayer": 7913,
      "ĠNorway": 7914,
      "Ġshells": 7915,
      "Ġinstitution": 7916,
      "Ġinstruments": 7917,
      "Ġdynasty": 7918,
      "ĠSpecial": 7919,
      "Ġinterpret": 7920,
      "ĠSwedish": 7921,
      "Ġpicture": 7922,
      "Ġchairman": 7923,
      "Ġjackrab": 7924,
      "ntava": 7925,
      "ĠModern": 7926,
      "Ġoverseas": 7927,
      "Ġresistance": 7928,
      "ĠGrammy": 7929,
      "Ġbehaviour": 7930,
      "Hg": 7931,
      "OK": 7932,
      "burn": 7933,
      "cation": 7934,
      "ean": 7935,
      "put": 7936,
      "zac": 7937,
      "heera": 7938,
      "Ġaw": 7939,
      "Ġwings": 7940,
      "Ġchess": 7941,
      "Ġbed": 7942,
      "Ġmamm": 7943,
      "Ġdangerous": 7944,
      "ilation": 7945,
      "ĠSab": 7946,
      "ĠSoon": 7947,
      "Ġeat": 7948,
      "Ġwasn": 7949,
      "urst": 7950,
      "urse": 7951,
      "ĠMasters": 7952,
      "ĠBranch": 7953,
      "ĠBureau": 7954,
      "otal": 7955,
      "Ġbearing": 7956,
      "ĠPict": 7957,
      "ĠGary": 7958,
      "ĠLang": 7959,
      "Ġaneka": 7960,
      "Ġheat": 7961,
      "agi": 7962,
      "Ġspend": 7963,
      "Ġspores": 7964,
      "iang": 7965,
      "Ġcompris": 7966,
      "ĠVII": 7967,
      "Ġresign": 7968,
      "Ġresigned": 7969,
      "ĠThird": 7970,
      "Ġpartially": 7971,
      "Ġafterwards": 7972,
      "ĠYugosl": 7973,
      "Ġ78": 7974,
      "Ġwritings": 7975,
      "Ġsubst": 7976,
      "Ġammun": 7977,
      "Ġamateur": 7978,
      "Ġsupporters": 7979,
      "Ġ101": 7980,
      "Ġinstance": 7981,
      "Ġinfrast": 7982,
      "Ġimpossible": 7983,
      "Ġcarved": 7984,
      "Ġmodels": 7985,
      "Ġadvis": 7986,
      "onto": 7987,
      "Ġlatex": 7988,
      "Ġmarry": 7989,
      "Ġengines": 7990,
      "urricanes": 7991,
      "Ġwindows": 7992,
      "Ġelectronic": 7993,
      "Ġcompete": 7994,
      "ĠMinistry": 7995,
      "spec": 7996,
      "Ġdivor": 7997,
      "Ġinteresting": 7998,
      "Ġtechniques": 7999,
      "Ġburning": 8000,
      "Ġsequences": 8001,
      "ĠMedia": 8002,
      "Ġ1860": 8003,
      "ĠWilson": 8004,
      "Ġengineers": 8005,
      "Ġthinking": 8006,
      "Ġtribute": 8007,
      "forced": 8008,
      "Ġestablishing": 8009,
      "rorist": 8010,
      "ĠHowe": 8011,
      "ĠVeronica": 8012,
      "Ġloan": 8013,
      "Ġsafe": 8014,
      "Ġinteraction": 8015,
      "Ġthousand": 8016,
      "ĠMassachus": 8017,
      "Ġbehavior": 8018,
      "Ġdeparture": 8019,
      "Ġpremiered": 8020,
      "Ġbeautiful": 8021,
      "ĠJacob": 8022,
      "ĠCambodia": 8023,
      "Ġsubstantial": 8024,
      "Ġcongreg": 8025,
      "ĠKannada": 8026,
      "ĠKhandoba": 8027,
      "Ġammunition": 8028,
      "ĠMassachusetts": 8029,
      "DS": 8030,
      "cru": 8031,
      "hist": 8032,
      "ja": 8033,
      "mate": 8034,
      "piece": 8035,
      "rquez": 8036,
      "uable": 8037,
      "zo": 8038,
      "Ġels": 8039,
      "Ġty": 8040,
      "Ġturb": 8041,
      "inate": 8042,
      "err": 8043,
      "Ġwine": 8044,
      "Ġbord": 8045,
      "Ġindu": 8046,
      "ĠinHg": 8047,
      "Ġmode": 8048,
      "rous": 8049,
      "ĠSis": 8050,
      "ĠSans": 8051,
      "ĠSup": 8052,
      "ĠCec": 8053,
      "ĠCelt": 8054,
      "ĠMother": 8055,
      "ĠBenn": 8056,
      "ĠBudd": 8057,
      "Ġforcing": 8058,
      "ĠHamp": 8059,
      "ĠDie": 8060,
      "ulating": 8061,
      "Ġalle": 8062,
      "ĠWright": 8063,
      "ĠJr": 8064,
      "ĠJosh": 8065,
      "ĠEaton": 8066,
      "ĠEagle": 8067,
      "Ġprove": 8068,
      "opl": 8069,
      "Ġvast": 8070,
      "oren": 8071,
      "Ġspoke": 8072,
      "Ġnotably": 8073,
      "ĠVul": 8074,
      "Ġclimate": 8075,
      "Ġrooms": 8076,
      "Ġdisaster": 8077,
      "ĠAlb": 8078,
      "Ġcommem": 8079,
      "Ġtex": 8080,
      "Ġremember": 8081,
      "Ġconsol": 8082,
      "Ġ86": 8083,
      "Ġ900": 8084,
      "Ġ123": 8085,
      "Ġ165": 8086,
      "Ġreprodu": 8087,
      "Ġminimum": 8088,
      "Ġ178": 8089,
      "Ġpoll": 8090,
      "Ġadventure": 8091,
      "Ġvari": 8092,
      "Ġhelmet": 8093,
      "Ġrestored": 8094,
      "Ġ1927": 8095,
      "Ġ1928": 8096,
      "Ġtemples": 8097,
      "ĠPerfect": 8098,
      "encing": 8099,
      "Ġmyst": 8100,
      "Ġcriminal": 8101,
      "Ġsituated": 8102,
      "ĠPolice": 8103,
      "Ġlooks": 8104,
      "Ġsquadron": 8105,
      "Ġrecognised": 8106,
      "Ġachieve": 8107,
      "Ġexperiences": 8108,
      "Ġopportunities": 8109,
      "Ġstruggle": 8110,
      "ĠCathedral": 8111,
      "Ġneighbor": 8112,
      "Ġvessel": 8113,
      "ĠHistoric": 8114,
      "ĠJurchen": 8115,
      "ĠMulder": 8116,
      "ĠMozambique": 8117,
      "ĠYanke": 8118,
      "Ġacknowled": 8119,
      "ĠPhoenix": 8120,
      "Ġelsewhere": 8121,
      "EC": 8122,
      "pan": 8123,
      "pson": 8124,
      "wick": 8125,
      "Ġrib": 8126,
      "Ġtack": 8127,
      "rees": 8128,
      "Ġsons": 8129,
      "Ġsale": 8130,
      "Ġwrest": 8131,
      "Ġcreek": 8132,
      "Ġfountain": 8133,
      "Ġbod": 8134,
      "Ġbell": 8135,
      "Ġtoll": 8136,
      "Ġhorn": 8137,
      "ĠTu": 8138,
      "ĠSuch": 8139,
      "ĠSports": 8140,
      "ĠMach": 8141,
      "ĠBack": 8142,
      "ige": 8143,
      "ĠDh": 8144,
      "ĠDiv": 8145,
      "ĠFair": 8146,
      "ĠNad": 8147,
      "arte": 8148,
      "udes": 8149,
      "ogy": 8150,
      "ruz": 8151,
      "ryce": 8152,
      "Ġrecru": 8153,
      "Ġenh": 8154,
      "Ġ84": 8155,
      "Ġ92": 8156,
      "Ġformat": 8157,
      "ologies": 8158,
      "ĠSee": 8159,
      "Ġcoins": 8160,
      "Ġ09": 8161,
      "Ġtrained": 8162,
      "ĠScully": 8163,
      "Ġdepending": 8164,
      "Ġ113": 8165,
      "Ġmusician": 8166,
      "Ġdesigns": 8167,
      "Ġcharacterized": 8168,
      "Ġstarred": 8169,
      "Ġstorms": 8170,
      "ĠCanal": 8171,
      "ĠMcL": 8172,
      "Ġparas": 8173,
      "Ġantic": 8174,
      "Ġengage": 8175,
      "ĠBarry": 8176,
      "Ġwestward": 8177,
      "ĠSimpson": 8178,
      "Ġgrounds": 8179,
      "Ġradiation": 8180,
      "ĠKevin": 8181,
      "Ġ1850": 8182,
      "Ġfallen": 8183,
      "Ġmeasured": 8184,
      "Ġcosts": 8185,
      "ĠMoore": 8186,
      "Ġobjective": 8187,
      "ĠToronto": 8188,
      "Ġfrig": 8189,
      "Ġtransportation": 8190,
      "Ġdocuments": 8191,
      "ĠRussia": 8192,
      "Ġcleared": 8193,
      "ASA": 8194,
      "Ġbiggest": 8195,
      "Ġphotograph": 8196,
      "ĠJustice": 8197,
      "Ġweapon": 8198,
      "ĠMiller": 8199,
      "Ġspiritual": 8200,
      "Ġholiday": 8201,
      "Ġvehicle": 8202,
      "ĠBulls": 8203,
      "Ġdelayed": 8204,
      "Ġcrops": 8205,
      "ĠStewart": 8206,
      "ĠGilbert": 8207,
      "Ġcitizens": 8208,
      "Ġconvinced": 8209,
      "ĠBarker": 8210,
      "ĠHudson": 8211,
      "ĠSaturday": 8212,
      "niowiecki": 8213,
      "Ch": 8214,
      "gov": 8215,
      "western": 8216,
      "ÌĬ": 8217,
      "Ġå": 8218,
      "Ġtiss": 8219,
      "inery": 8220,
      "Ġsung": 8221,
      "esh": 8222,
      "Ġpale": 8223,
      "Ġmoon": 8224,
      "icit": 8225,
      "Ġrender": 8226,
      "ĠAra": 8227,
      "ĠSle": 8228,
      "ĠCP": 8229,
      "ĠMuch": 8230,
      "Ġgiant": 8231,
      "ĠBaker": 8232,
      "Ġstyles": 8233,
      "ĠRom": 8234,
      "emies": 8235,
      "ĠDa": 8236,
      "ĠDak": 8237,
      "uls": 8238,
      "ĠFRE": 8239,
      "ĠWag": 8240,
      "ĠNetwork": 8241,
      "ĠLink": 8242,
      "ĠEle": 8243,
      "Ġvul": 8244,
      "Ġdeleg": 8245,
      "Ġrivers": 8246,
      "Ġselection": 8247,
      "ĠKim": 8248,
      "ĠKansas": 8249,
      "ellar": 8250,
      "apse": 8251,
      "Ġcompr": 8252,
      "ĠVa": 8253,
      "rupted": 8254,
      "oko": 8255,
      "Ġresidence": 8256,
      "Ġagents": 8257,
      "Ġdesert": 8258,
      "phy": 8259,
      "oyage": 8260,
      "Ġfeathers": 8261,
      "Ġsongwrit": 8262,
      "Ġdecides": 8263,
      "Ġflash": 8264,
      "Ġregiment": 8265,
      "Ġ02": 8266,
      "Ġfounder": 8267,
      "Ġsurg": 8268,
      "atherine": 8269,
      "yline": 8270,
      "Ġartificial": 8271,
      "Ġdescribe": 8272,
      "Ġcounties": 8273,
      "Ġdifferences": 8274,
      "Ġclaiming": 8275,
      "Ġformerly": 8276,
      "Ġskills": 8277,
      "Ġprogramme": 8278,
      "Ġfuner": 8279,
      "ĠFederal": 8280,
      "Ġpredators": 8281,
      "Ġcondem": 8282,
      "Ġaudiences": 8283,
      "amental": 8284,
      "Ġburial": 8285,
      "Ġclearly": 8286,
      "criptions": 8287,
      "Ġfrust": 8288,
      "Ġdetermine": 8289,
      "ĠFIFA": 8290,
      "ĠBelg": 8291,
      "ĠPeters": 8292,
      "Ġdisplayed": 8293,
      "Ġexcavation": 8294,
      "Ġremarked": 8295,
      "Ġhunting": 8296,
      "Ġranging": 8297,
      "Ġtunnel": 8298,
      "ĠNevertheless": 8299,
      "ĠOriginally": 8300,
      "Ġreservoir": 8301,
      "Ġreinforcements": 8302,
      "LIMO": 8303,
      "Ġimprison": 8304,
      "Ġpredecessor": 8305,
      "ĠInitially": 8306,
      "ĠTerritory": 8307,
      "ĠProtestant": 8308,
      "ĠHokies": 8309,
      "ĠFRELIMO": 8310,
      "night": 8311,
      "Ġid": 8312,
      "Ġtanks": 8313,
      "rep": 8314,
      "atically": 8315,
      "Ġfert": 8316,
      "Ġbones": 8317,
      "alley": 8318,
      "asm": 8319,
      "Ġmyc": 8320,
      "roit": 8321,
      "icul": 8322,
      "Ġdwar": 8323,
      "Ġlake": 8324,
      "ellect": 8325,
      "omura": 8326,
      "Ġeasy": 8327,
      "ĠCategory": 8328,
      "acles": 8329,
      "urd": 8330,
      "ĠThen": 8331,
      "lyn": 8332,
      "ecraft": 8333,
      "Ġgrown": 8334,
      "ĠHay": 8335,
      "ĠPC": 8336,
      "ĠRest": 8337,
      "ĠGro": 8338,
      "ĠGate": 8339,
      "ĠNob": 8340,
      "aints": 8341,
      "ĠEsh": 8342,
      "ĠKong": 8343,
      "ĠStal": 8344,
      "iao": 8345,
      "ĠVice": 8346,
      "Ġintellect": 8347,
      "ignment": 8348,
      "assador": 8349,
      "Ġteen": 8350,
      "ĠUnivers": 8351,
      "Ġpoison": 8352,
      "obile": 8353,
      "Ġprime": 8354,
      "Ġ163": 8355,
      "Ġinstall": 8356,
      "Ġinscription": 8357,
      "Ġcargo": 8358,
      "Ġanyone": 8359,
      "Ġoffices": 8360,
      "uthor": 8361,
      "ĠWarren": 8362,
      "Ġ1957": 8363,
      "ĠPlat": 8364,
      "Ġ1933": 8365,
      "Ġpromised": 8366,
      "Ġprompted": 8367,
      "Ġrestricted": 8368,
      "Ġslide": 8369,
      "Ġbreed": 8370,
      "Ġopponent": 8371,
      "Ġelections": 8372,
      "ĠMinor": 8373,
      "Ġarrive": 8374,
      "Ġannounce": 8375,
      "Ġerr": 8376,
      "ĠGlad": 8377,
      "ĠMagdal": 8378,
      "Ġpriest": 8379,
      "Ġsteep": 8380,
      "Ġranking": 8381,
      "Ġrepresentative": 8382,
      "Ġclosest": 8383,
      "Ġperspective": 8384,
      "Ġhousing": 8385,
      "ĠOscar": 8386,
      "Ġrailroad": 8387,
      "Ġnetworks": 8388,
      "Ġmemorial": 8389,
      "avalry": 8390,
      "Ġdepicts": 8391,
      "Ġvote": 8392,
      "ĠTurks": 8393,
      "Ġaspect": 8394,
      "Ġdegrees": 8395,
      "Ġbadly": 8396,
      "ĠVictorian": 8397,
      "Ġcorner": 8398,
      "Ġmagnitude": 8399,
      "Ġdrums": 8400,
      "Ġscientists": 8401,
      "iggs": 8402,
      "Ġranges": 8403,
      "ĠSilver": 8404,
      "chell": 8405,
      "ĠJourney": 8406,
      "Ġexclusively": 8407,
      "Ġbenefit": 8408,
      "Ġcrake": 8409,
      "Ġmoderate": 8410,
      "ĠExpress": 8411,
      "ĠDetroit": 8412,
      "Ġfalse": 8413,
      "Ġalleged": 8414,
      "Ġdwarf": 8415,
      "Malley": 8416,
      "aft": 8417,
      "gam": 8418,
      "lock": 8419,
      "oom": 8420,
      "ski": 8421,
      "za": 8422,
      "Ġaster": 8423,
      "Ġtheater": 8424,
      "eries": 8425,
      "Ġsad": 8426,
      "Ġsnow": 8427,
      "Ġwet": 8428,
      "Ġcyt": 8429,
      "itively": 8430,
      "Ġbra": 8431,
      "asa": 8432,
      "Ġhuge": 8433,
      "ĠTal": 8434,
      "ĠCob": 8435,
      "Ġgates": 8436,
      "ĠIra": 8437,
      "olen": 8438,
      "Ġbear": 8439,
      "ĠPf": 8440,
      "ĠPle": 8441,
      "ĠLast": 8442,
      "istan": 8443,
      "Ġdeity": 8444,
      "Ġsup": 8445,
      "ĠâĢľ": 8446,
      "ĠChagas": 8447,
      "uez": 8448,
      "Ġresumed": 8449,
      "Ġplayoff": 8450,
      "Ġaftern": 8451,
      "Ġattained": 8452,
      "Ġoutbreak": 8453,
      "Ġfee": 8454,
      "Ġearn": 8455,
      "Ġconsp": 8456,
      "Ġconservation": 8457,
      "Ġtrust": 8458,
      "Ġrelation": 8459,
      "Ġunderw": 8460,
      "Ġcharged": 8461,
      "Ġdefending": 8462,
      "Ġsymp": 8463,
      "arsh": 8464,
      "ĠShel": 8465,
      "Ġsmooth": 8466,
      "Ġnorthward": 8467,
      "Ġrestoration": 8468,
      "ĠParaly": 8469,
      "Ġchildhood": 8470,
      "Ġexplo": 8471,
      "Ġexplains": 8472,
      "Ġhandled": 8473,
      "shore": 8474,
      "Ġtemporary": 8475,
      "Ġeveryone": 8476,
      "Ġbands": 8477,
      "sequently": 8478,
      "ĠEvent": 8479,
      "ĠMagad": 8480,
      "Ġsumm": 8481,
      "Ġargues": 8482,
      "ĠEmmy": 8483,
      "Ġruling": 8484,
      "ĠPlayer": 8485,
      "Ġinjured": 8486,
      "ĠRepublican": 8487,
      "Ġamounts": 8488,
      "Ġcolonies": 8489,
      "Ġinnov": 8490,
      "Ġboundary": 8491,
      "ĠMrs": 8492,
      "ĠOutstanding": 8493,
      "Ġcelebrated": 8494,
      "Ġthrone": 8495,
      "ĠCommunist": 8496,
      "ĠMathews": 8497,
      "Ġadvertising": 8498,
      "Ġpreparation": 8499,
      "ĠLeslie": 8500,
      "Ġstrengthened": 8501,
      "Ġfatal": 8502,
      "ĠColeman": 8503,
      "ĠMemorial": 8504,
      "Ġbulk": 8505,
      "ĠGirls": 8506,
      "ĠBrooks": 8507,
      "burgh": 8508,
      "ĠDevelopment": 8509,
      "Ġdeemed": 8510,
      "ĠValkyria": 8511,
      "ĠParalymp": 8512,
      "PA": 8513,
      "mouth": 8514,
      "oes": 8515,
      "Ġtherap": 8516,
      "erg": 8517,
      "Ġsisters": 8518,
      "Ġwel": 8519,
      "orable": 8520,
      "orious": 8521,
      "Ġcars": 8522,
      "Ġcup": 8523,
      "Ġcaves": 8524,
      "Ġfate": 8525,
      "Ġbind": 8526,
      "Ġbanned": 8527,
      "Ġpine": 8528,
      "lee": 8529,
      "leton": 8530,
      "Ġrend": 8531,
      "Ġrevers": 8532,
      "ĠAce": 8533,
      "ilty": 8534,
      "amount": 8535,
      "Ġnurse": 8536,
      "urer": 8537,
      "urrent": 8538,
      "ĠMit": 8539,
      "ĠMidge": 8540,
      "ĠBad": 8541,
      "olithic": 8542,
      "ivated": 8543,
      "otten": 8544,
      "ĠPow": 8545,
      "unes": 8546,
      "ĠDig": 8547,
      "ĠDisc": 8548,
      "ĠFall": 8549,
      "rawn": 8550,
      "ĠGray": 8551,
      "ĠNash": 8552,
      "ĠLamb": 8553,
      "Ġanaly": 8554,
      "Ġchrom": 8555,
      "Ġchamber": 8556,
      "Ġexists": 8557,
      "ĠKit": 8558,
      "ĠKam": 8559,
      "ĠKurt": 8560,
      "Ġspac": 8561,
      "Ġspur": 8562,
      "ĠStories": 8563,
      "Ġcompound": 8564,
      "ĠThus": 8565,
      "Ġscattered": 8566,
      "Ġpartner": 8567,
      "ĠUntil": 8568,
      "ĠAnzac": 8569,
      "ugu": 8570,
      "obe": 8571,
      "Ġenters": 8572,
      "azines": 8573,
      "Ġreven": 8574,
      "Ġdiscip": 8575,
      "Ġprevented": 8576,
      "Ġlandings": 8577,
      "Ġwarning": 8578,
      "Ġdesigner": 8579,
      "ĠHerze": 8580,
      "ĠAllen": 8581,
      "Ġprompt": 8582,
      "Ġmargin": 8583,
      "Ġdifference": 8584,
      "plete": 8585,
      "Ġtriple": 8586,
      "Ġdriver": 8587,
      "ĠAbby": 8588,
      "Ġdeliber": 8589,
      "Ġsounds": 8590,
      "Ġerected": 8591,
      "Ġ1905": 8592,
      "Ġsupern": 8593,
      "ĠImag": 8594,
      "ĠRocky": 8595,
      "Ġproperties": 8596,
      "Ġapplication": 8597,
      "Ġdominant": 8598,
      "Ġprincip": 8599,
      "Ġgraphics": 8600,
      "Ġadaptation": 8601,
      "ĠTrek": 8602,
      "Ġpursue": 8603,
      "ĠWaterfall": 8604,
      "Ġdemonstrated": 8605,
      "Ġarchitecture": 8606,
      "Ġdistinctive": 8607,
      "ĠConfeder": 8608,
      "Ġexcavations": 8609,
      "Ġneutral": 8610,
      "Ġgarrison": 8611,
      "Ġturrets": 8612,
      "Ġtactics": 8613,
      "Ġexecuted": 8614,
      "ĠAlbums": 8615,
      "ĠPersian": 8616,
      "ĠRAAF": 8617,
      "Ġdistinguished": 8618,
      "ĠDemocratic": 8619,
      "ĠConstruction": 8620,
      "ĠRifles": 8621,
      "Ġinhabitants": 8622,
      "ĠBertin": 8623,
      "ĠHouston": 8624,
      "ĠNielsen": 8625,
      "Ġinfrastructure": 8626,
      "ĠCeltic": 8627,
      "Ġtexts": 8628,
      "govina": 8629,
      "ĠWagner": 8630,
      "ĠMagadheera": 8631,
      "NC": 8632,
      "NL": 8633,
      "SP": 8634,
      "book": 8635,
      "box": 8636,
      "eor": 8637,
      "raska": 8638,
      "zhou": 8639,
      "Ġtenth": 8640,
      "Ġcake": 8641,
      "Ġcateg": 8642,
      "arant": 8643,
      "Ġbishop": 8644,
      "Ġpy": 8645,
      "Ġpounds": 8646,
      "Ġmac": 8647,
      "Ġmbar": 8648,
      "oux": 8649,
      "Ġlat": 8650,
      "ĠBarn": 8651,
      "Ġforty": 8652,
      "iri": 8653,
      "tered": 8654,
      "ĠDave": 8655,
      "Ġalt": 8656,
      "ĠNL": 8657,
      "ĠLud": 8658,
      "umin": 8659,
      "agen": 8660,
      "Ġcomed": 8661,
      "opp": 8662,
      "ĠIntern": 8663,
      "ategy": 8664,
      "aki": 8665,
      "usts": 8666,
      "okovic": 8667,
      "ĠThose": 8668,
      "Ġmanga": 8669,
      "active": 8670,
      "ĠYo": 8671,
      "Ġpref": 8672,
      "Ġcenters": 8673,
      "Ġfeels": 8674,
      "ĠArsenal": 8675,
      "Ġassisted": 8676,
      "Ġsubstitute": 8677,
      "Ġsubspec": 8678,
      "Ġcoin": 8679,
      "Ġ03": 8680,
      "Ġthereafter": 8681,
      "Ġexposed": 8682,
      "Ġmonuments": 8683,
      "Ġ170": 8684,
      "Ġdowntown": 8685,
      "ĠConc": 8686,
      "ĠCarre": 8687,
      "Ġconsidering": 8688,
      "ervative": 8689,
      "Ġedges": 8690,
      "Ġstrategy": 8691,
      "ĠDean": 8692,
      "Ġportrait": 8693,
      "apping": 8694,
      "Ġapproval": 8695,
      "ĠProf": 8696,
      "Ġ1924": 8697,
      "Ġ1926": 8698,
      "Ġdemands": 8699,
      "Ġdrain": 8700,
      "Ġpropag": 8701,
      "Ġtwin": 8702,
      "Ġamongst": 8703,
      "Ġelder": 8704,
      "Ġmagazines": 8705,
      "ĠDavis": 8706,
      "ĠRecord": 8707,
      "Ġliked": 8708,
      "ĠJews": 8709,
      "Ġuncertain": 8710,
      "ĠCorporation": 8711,
      "Ġsubjects": 8712,
      "Ġquarterback": 8713,
      "Ġarchaeologist": 8714,
      "Ġceratops": 8715,
      "ĠPoly": 8716,
      "Ġadopt": 8717,
      "Ġindicating": 8718,
      "Ġproductions": 8719,
      "ĠDjokovic": 8720,
      "Ġtournaments": 8721,
      "Ġjudge": 8722,
      "Ġabandon": 8723,
      "Ġsuspended": 8724,
      "Ġinitiated": 8725,
      "Ġdefenders": 8726,
      "Ġsucceed": 8727,
      "ĠCheval": 8728,
      "ĠCatechism": 8729,
      "Ġsacred": 8730,
      "ĠUlt": 8731,
      "Ġinterpre": 8732,
      "ĠJonathan": 8733,
      "ĠKirk": 8734,
      "Ġaltered": 8735,
      "Ġpremiere": 8736,
      "Ġstriking": 8737,
      "ĠAlfred": 8738,
      "Ġresidential": 8739,
      "Ġrifle": 8740,
      "Ġsettlements": 8741,
      "ĠKelly": 8742,
      "Ġmartial": 8743,
      "Ġethnic": 8744,
      "ĠNebraska": 8745,
      "Ġscheme": 8746,
      "ĠTreaty": 8747,
      "Ġemergency": 8748,
      "Ġcommemor": 8749,
      "ĠYankees": 8750,
      "Ġasteroid": 8751,
      "Ġafternoon": 8752,
      "ĠHerzegovina": 8753,
      "Ġsubspecies": 8754,
      "father": 8755,
      "gers": 8756,
      "gars": 8757,
      "iac": 8758,
      "ji": 8759,
      "xual": 8760,
      "Ġï": 8761,
      "Ġtale": 8762,
      "Ġax": 8763,
      "Ġcrisis": 8764,
      "Ġfoss": 8765,
      "Ġpap": 8766,
      "Ġpull": 8767,
      "Ġtoured": 8768,
      "ĠTok": 8769,
      "ĠSS": 8770,
      "ĠSAS": 8771,
      "eland": 8772,
      "Ġnet": 8773,
      "Ġnations": 8774,
      "Ġnurs": 8775,
      "ĠBible": 8776,
      "igins": 8777,
      "ĠHans": 8778,
      "ĠHope": 8779,
      "ĠHills": 8780,
      "Ġstood": 8781,
      "ĠProm": 8782,
      "ĠDum": 8783,
      "ĠDog": 8784,
      "ĠDah": 8785,
      "char": 8786,
      "ĠWing": 8787,
      "ĠWomen": 8788,
      "ĠNav": 8789,
      "ĠNaval": 8790,
      "ĠNDH": 8791,
      "ctor": 8792,
      "odore": 8793,
      "rior": 8794,
      "Ġsure": 8795,
      "aks": 8796,
      "Ġkit": 8797,
      "ellite": 8798,
      "Ġuniform": 8799,
      "Ġclin": 8800,
      "enden": 8801,
      "ĠHeaven": 8802,
      "inton": 8803,
      "away": 8804,
      "Ġcharity": 8805,
      "Ġcoinc": 8806,
      "Ġ01": 8807,
      "anyon": 8808,
      "Ġexpect": 8809,
      "Ġreceives": 8810,
      "Ġconclusion": 8811,
      "Ġ117": 8812,
      "aza": 8813,
      "Ġartwork": 8814,
      "Ġimpression": 8815,
      "Ġimpressed": 8816,
      "isms": 8817,
      "apped": 8818,
      "Ġ1000": 8819,
      "Ġ1925": 8820,
      "Ġrealized": 8821,
      "ĠAbd": 8822,
      "Ġcommunication": 8823,
      "itarian": 8824,
      "Ġprofile": 8825,
      "ĠEvans": 8826,
      "umps": 8827,
      "ĠHarold": 8828,
      "ĠMountains": 8829,
      "ĠAnglo": 8830,
      "ĠSwiss": 8831,
      "Ġreducing": 8832,
      "Ġcolleagues": 8833,
      "Ġrespective": 8834,
      "Ġreveal": 8835,
      "Ġcrews": 8836,
      "ĠPhilip": 8837,
      "Ġviolent": 8838,
      "ĠCongo": 8839,
      "Ġtesting": 8840,
      "Ġdiagn": 8841,
      "Ġfrequent": 8842,
      "ASP": 8843,
      "Ġschedule": 8844,
      "Ġtranslation": 8845,
      "Ġtalking": 8846,
      "Ġrequested": 8847,
      "Ġduty": 8848,
      "ĠCaes": 8849,
      "Ġdefinition": 8850,
      "ĠVillage": 8851,
      "Ġdelivery": 8852,
      "ĠMurray": 8853,
      "Ġrebuilt": 8854,
      "Ġretirement": 8855,
      "Ġsimultaneously": 8856,
      "IA": 8857,
      "Pa": 8858,
      "bing": 8859,
      "bro": 8860,
      "gets": 8861,
      "jamin": 8862,
      "nie": 8863,
      "wan": 8864,
      "zym": 8865,
      "Ġsang": 8866,
      "Ġcous": 8867,
      "alf": 8868,
      "Ġdict": 8869,
      "Ġdiver": 8870,
      "lem": 8871,
      "ĠAman": 8872,
      "ĠABC": 8873,
      "eled": 8874,
      "ĠCO": 8875,
      "ĠCyr": 8876,
      "ĠMant": 8877,
      "Ġgh": 8878,
      "Ġgets": 8879,
      "ĠBrand": 8880,
      "ĠBush": 8881,
      "etime": 8882,
      "idel": 8883,
      "ira": 8884,
      "Ġasks": 8885,
      "owa": 8886,
      "Ġstrict": 8887,
      "uty": 8888,
      "ĠPur": 8889,
      "ĠPot": 8890,
      "ĠPryce": 8891,
      "ĠRap": 8892,
      "ĠWeb": 8893,
      "rapping": 8894,
      "ĠNon": 8895,
      "ĠNear": 8896,
      "ĠLower": 8897,
      "ĠLinc": 8898,
      "rik": 8899,
      "ĠOt": 8900,
      "ĠOmar": 8901,
      "Ġprosp": 8902,
      "ĠStav": 8903,
      "iney": 8904,
      "ipes": 8905,
      "oster": 8906,
      "Ġcomponents": 8907,
      "Ġclim": 8908,
      "Ġroots": 8909,
      "Ġdisagre": 8910,
      "pled": 8911,
      "angular": 8912,
      "Ġupset": 8913,
      "weight": 8914,
      "ĠOntar": 8915,
      "Ġdecay": 8916,
      "ĠAsian": 8917,
      "ĠMariana": 8918,
      "Ġpeaking": 8919,
      "ĠReb": 8920,
      "Ġsurge": 8921,
      "Ġmetre": 8922,
      "Ġobv": 8923,
      "Ġcarri": 8924,
      "ĠCarmel": 8925,
      "Ġmathem": 8926,
      "ashi": 8927,
      "Ġgray": 8928,
      "Ġguilty": 8929,
      "ĠCommons": 8930,
      "Ġ1934": 8931,
      "Ġhelium": 8932,
      "byter": 8933,
      "Ġrefuge": 8934,
      "rett": 8935,
      "Ġorganised": 8936,
      "Ġsentences": 8937,
      "Ġpersonality": 8938,
      "Ġtempor": 8939,
      "Ġordering": 8940,
      "neath": 8941,
      "ĠTracy": 8942,
      "Ġshoulder": 8943,
      "ĠNext": 8944,
      "Ġbattlecru": 8945,
      "Ġsuperv": 8946,
      "Ġfifty": 8947,
      "Ġfifteen": 8948,
      "ĠBerlin": 8949,
      "ĠMadison": 8950,
      "Ġrenov": 8951,
      "Ġemployees": 8952,
      "Ġ1870": 8953,
      "ĠGrade": 8954,
      "Ġpotentially": 8955,
      "ĠOverall": 8956,
      "ĠBenjamin": 8957,
      "Ġnewspapers": 8958,
      "Ġboxing": 8959,
      "ĠErnest": 8960,
      "ĠCorb": 8961,
      "ĠHawaiian": 8962,
      "Ġwithdrawal": 8963,
      "Ġmechanical": 8964,
      "Ġvenues": 8965,
      "Ġcollaboration": 8966,
      "Ġenvironmental": 8967,
      "ĠCubs": 8968,
      "ĠRailway": 8969,
      "Ġtrouble": 8970,
      "Ġassassination": 8971,
      "borne": 8972,
      "ĠGiants": 8973,
      "Ġphilosophy": 8974,
      "ĠSorra": 8975,
      "ĠLabour": 8976,
      "Ġelaborate": 8977,
      "Ġcollapsed": 8978,
      "ĠEshmun": 8979,
      "ĠIraq": 8980,
      "ĠEventually": 8981,
      "ĠImagine": 8982,
      "ĠChevaliers": 8983,
      "ĠLincol": 8984,
      "ĠOntario": 8985,
      "TP": 8986,
      "bound": 8987,
      "chens": 8988,
      "pe": 8989,
      "po": 8990,
      "rh": 8991,
      "Ġchest": 8992,
      "Ġcotton": 8993,
      "isp": 8994,
      "esters": 8995,
      "Ġped": 8996,
      "Ġphen": 8997,
      "aski": 8998,
      "Ġtom": 8999,
      "oust": 9000,
      "ĠSk": 9001,
      "ĠSay": 9002,
      "Ġlamb": 9003,
      "ĠCress": 9004,
      "ĠCanyon": 9005,
      "olt": 9006,
      "imented": 9007,
      "otyp": 9008,
      "usic": 9009,
      "Ġisot": 9010,
      "unch": 9011,
      "ĠFem": 9012,
      "ĠWN": 9013,
      "ĠNS": 9014,
      "ĠLet": 9015,
      "umented": 9016,
      "Ġhen": 9017,
      "oples": 9018,
      "Ġvice": 9019,
      "Ġsuitable": 9020,
      "Ġride": 9021,
      "arded": 9022,
      "ardine": 9023,
      "seud": 9024,
      "Ġclust": 9025,
      "Ġscar": 9026,
      "Ġovert": 9027,
      "Ġoffs": 9028,
      "ĠAnne": 9029,
      "Ġremove": 9030,
      "Ġearning": 9031,
      "Ġrecordings": 9032,
      "Ġreleases": 9033,
      "Ġquant": 9034,
      "Ġacids": 9035,
      "Ġamph": 9036,
      "Ġ125": 9037,
      "Ġexpression": 9038,
      "ieth": 9039,
      "Ġ114": 9040,
      "ĠSheff": 9041,
      "Ġextrat": 9042,
      "Ġartistic": 9043,
      "Ġconstant": 9044,
      "Ġdams": 9045,
      "Ġadvancing": 9046,
      "Ġvariation": 9047,
      "cks": 9048,
      "raction": 9049,
      "Ġvisiting": 9050,
      "Ġparody": 9051,
      "ĠProdu": 9052,
      "Ġsentiment": 9053,
      "ĠManagement": 9054,
      "Ġreferring": 9055,
      "ĠXenon": 9056,
      "Ġnortheastern": 9057,
      "ĠTrust": 9058,
      "Ġfactory": 9059,
      "Ġstructural": 9060,
      "Ġ1908": 9061,
      "Ġputting": 9062,
      "regon": 9063,
      "Ġtrend": 9064,
      "Ġcreative": 9065,
      "ĠMadrid": 9066,
      "ĠPeach": 9067,
      "atinum": 9068,
      "Ġmachines": 9069,
      "ĠValve": 9070,
      "ĠBusiness": 9071,
      "Ġasking": 9072,
      "Ġ1830": 9073,
      "Ġoccupation": 9074,
      "Ġdocumented": 9075,
      "Ġdrove": 9076,
      "ĠFinals": 9077,
      "ĠSurvey": 9078,
      "Ġboundaries": 9079,
      "Ġtranslated": 9080,
      "Ġinhab": 9081,
      "Ġcontribution": 9082,
      "Ġyoungest": 9083,
      "Ġseeking": 9084,
      "Ġmolecules": 9085,
      "Ġcolumns": 9086,
      "ĠGhost": 9087,
      "Ġtheatrical": 9088,
      "Ġeliminated": 9089,
      "imetres": 9090,
      "ĠPulaski": 9091,
      "ĠWicca": 9092,
      "ĠSupreme": 9093,
      "Ġspacecraft": 9094,
      "ĠLincoln": 9095,
      "Ġextratropical": 9096,
      "ES": 9097,
      "cious": 9098,
      "eign": 9099,
      "gon": 9100,
      "hire": 9101,
      "krit": 9102,
      "no": 9103,
      "nen": 9104,
      "nels": 9105,
      "vant": 9106,
      "ËĪ": 9107,
      "Ġump": 9108,
      "Ġtub": 9109,
      "inations": 9110,
      "itic": 9111,
      "Ġfishing": 9112,
      "ester": 9113,
      "Ġinfer": 9114,
      "Ġtooth": 9115,
      "Ġtopped": 9116,
      "Ġmir": 9117,
      "icia": 9118,
      "Ġdies": 9119,
      "Ġhull": 9120,
      "ĠSat": 9121,
      "Ġlies": 9122,
      "eloc": 9123,
      "ami": 9124,
      "ĠCond": 9125,
      "ĠMaur": 9126,
      "ĠBald": 9127,
      "Ġstim": 9128,
      "Ġstock": 9129,
      "Ġstores": 9130,
      "Ġbeam": 9131,
      "ĠPir": 9132,
      "ĠPanz": 9133,
      "ĠDud": 9134,
      "ĠDiam": 9135,
      "ulu": 9136,
      "ĠFace": 9137,
      "ĠFarm": 9138,
      "ĠJen": 9139,
      "ĠOregon": 9140,
      "illiant": 9141,
      "Ġrid": 9142,
      "Ġrig": 9143,
      "Ġrising": 9144,
      "akers": 9145,
      "essee": 9146,
      "Ġplus": 9147,
      "ĠKau": 9148,
      "Ġshaft": 9149,
      "Ġspending": 9150,
      "Ġnotice": 9151,
      "elli": 9152,
      "Ġunlik": 9153,
      "Ġinclusion": 9154,
      "ĠVic": 9155,
      "Ġabol": 9156,
      "Ġusage": 9157,
      "acts": 9158,
      "Ġenzym": 9159,
      "overeign": 9160,
      "Ġsubmitted": 9161,
      "Ġcoff": 9162,
      "ĠLeigh": 9163,
      "Ġentertain": 9164,
      "Ġcompleting": 9165,
      "Ġinscriptions": 9166,
      "Ġoperates": 9167,
      "ennium": 9168,
      "Ġeffic": 9169,
      "Ġbridges": 9170,
      "ĠChristopher": 9171,
      "Ġreflected": 9172,
      "ĠMcE": 9173,
      "Ġtrials": 9174,
      "Ġexplain": 9175,
      "Ġanthem": 9176,
      "Ġpersonally": 9177,
      "Ġbases": 9178,
      "Ġexpert": 9179,
      "Ġtwent": 9180,
      "Ġcommunications": 9181,
      "Ġprofit": 9182,
      "ĠRomanian": 9183,
      "Ġsolar": 9184,
      "Ġsket": 9185,
      "ĠNeves": 9186,
      "ettles": 9187,
      "Ġprofessor": 9188,
      "Ġarmament": 9189,
      "Ġfalls": 9190,
      "ĠCooper": 9191,
      "ydney": 9192,
      "Ġhonour": 9193,
      "Ġcontrad": 9194,
      "Ġremoval": 9195,
      "Ġdispute": 9196,
      "Ġsemif": 9197,
      "Ġquestions": 9198,
      "Ġbirthday": 9199,
      "ĠWoodhouse": 9200,
      "ĠRhys": 9201,
      "Ġfavorable": 9202,
      "Ġjobs": 9203,
      "ĠTennessee": 9204,
      "Ġprepare": 9205,
      "Ġ766": 9206,
      "iliar": 9207,
      "ĠHawaii": 9208,
      "Ġpowered": 9209,
      "ĠLouisiana": 9210,
      "Ġaggreg": 9211,
      "Ġbattleships": 9212,
      "ĠFurthermore": 9213,
      "Ġcomparison": 9214,
      "ĠGardner": 9215,
      "ĠOriginal": 9216,
      "ĠIngres": 9217,
[...]
